[UNK]	0
[PAD]	0
[BOS]	0
[EOS]	0
[USER]	0
[BOT]	0
[SYSTEM]	0
[CONTEXT]	0
[STOP]	0
[BREAK]	0
<0x00>	0
<0x01>	0
<0x02>	0
<0x03>	0
<0x04>	0
<0x05>	0
<0x06>	0
<0x07>	0
<0x08>	0
<0x09>	0
<0x0A>	0
<0x0B>	0
<0x0C>	0
<0x0D>	0
<0x0E>	0
<0x0F>	0
<0x10>	0
<0x11>	0
<0x12>	0
<0x13>	0
<0x14>	0
<0x15>	0
<0x16>	0
<0x17>	0
<0x18>	0
<0x19>	0
<0x1A>	0
<0x1B>	0
<0x1C>	0
<0x1D>	0
<0x1E>	0
<0x1F>	0
<0x20>	0
<0x21>	0
<0x22>	0
<0x23>	0
<0x24>	0
<0x25>	0
<0x26>	0
<0x27>	0
<0x28>	0
<0x29>	0
<0x2A>	0
<0x2B>	0
<0x2C>	0
<0x2D>	0
<0x2E>	0
<0x2F>	0
<0x30>	0
<0x31>	0
<0x32>	0
<0x33>	0
<0x34>	0
<0x35>	0
<0x36>	0
<0x37>	0
<0x38>	0
<0x39>	0
<0x3A>	0
<0x3B>	0
<0x3C>	0
<0x3D>	0
<0x3E>	0
<0x3F>	0
<0x40>	0
<0x41>	0
<0x42>	0
<0x43>	0
<0x44>	0
<0x45>	0
<0x46>	0
<0x47>	0
<0x48>	0
<0x49>	0
<0x4A>	0
<0x4B>	0
<0x4C>	0
<0x4D>	0
<0x4E>	0
<0x4F>	0
<0x50>	0
<0x51>	0
<0x52>	0
<0x53>	0
<0x54>	0
<0x55>	0
<0x56>	0
<0x57>	0
<0x58>	0
<0x59>	0
<0x5A>	0
<0x5B>	0
<0x5C>	0
<0x5D>	0
<0x5E>	0
<0x5F>	0
<0x60>	0
<0x61>	0
<0x62>	0
<0x63>	0
<0x64>	0
<0x65>	0
<0x66>	0
<0x67>	0
<0x68>	0
<0x69>	0
<0x6A>	0
<0x6B>	0
<0x6C>	0
<0x6D>	0
<0x6E>	0
<0x6F>	0
<0x70>	0
<0x71>	0
<0x72>	0
<0x73>	0
<0x74>	0
<0x75>	0
<0x76>	0
<0x77>	0
<0x78>	0
<0x79>	0
<0x7A>	0
<0x7B>	0
<0x7C>	0
<0x7D>	0
<0x7E>	0
<0x7F>	0
<0x80>	0
<0x81>	0
<0x82>	0
<0x83>	0
<0x84>	0
<0x85>	0
<0x86>	0
<0x87>	0
<0x88>	0
<0x89>	0
<0x8A>	0
<0x8B>	0
<0x8C>	0
<0x8D>	0
<0x8E>	0
<0x8F>	0
<0x90>	0
<0x91>	0
<0x92>	0
<0x93>	0
<0x94>	0
<0x95>	0
<0x96>	0
<0x97>	0
<0x98>	0
<0x99>	0
<0x9A>	0
<0x9B>	0
<0x9C>	0
<0x9D>	0
<0x9E>	0
<0x9F>	0
<0xA0>	0
<0xA1>	0
<0xA2>	0
<0xA3>	0
<0xA4>	0
<0xA5>	0
<0xA6>	0
<0xA7>	0
<0xA8>	0
<0xA9>	0
<0xAA>	0
<0xAB>	0
<0xAC>	0
<0xAD>	0
<0xAE>	0
<0xAF>	0
<0xB0>	0
<0xB1>	0
<0xB2>	0
<0xB3>	0
<0xB4>	0
<0xB5>	0
<0xB6>	0
<0xB7>	0
<0xB8>	0
<0xB9>	0
<0xBA>	0
<0xBB>	0
<0xBC>	0
<0xBD>	0
<0xBE>	0
<0xBF>	0
<0xC0>	0
<0xC1>	0
<0xC2>	0
<0xC3>	0
<0xC4>	0
<0xC5>	0
<0xC6>	0
<0xC7>	0
<0xC8>	0
<0xC9>	0
<0xCA>	0
<0xCB>	0
<0xCC>	0
<0xCD>	0
<0xCE>	0
<0xCF>	0
<0xD0>	0
<0xD1>	0
<0xD2>	0
<0xD3>	0
<0xD4>	0
<0xD5>	0
<0xD6>	0
<0xD7>	0
<0xD8>	0
<0xD9>	0
<0xDA>	0
<0xDB>	0
<0xDC>	0
<0xDD>	0
<0xDE>	0
<0xDF>	0
<0xE0>	0
<0xE1>	0
<0xE2>	0
<0xE3>	0
<0xE4>	0
<0xE5>	0
<0xE6>	0
<0xE7>	0
<0xE8>	0
<0xE9>	0
<0xEA>	0
<0xEB>	0
<0xEC>	0
<0xED>	0
<0xEE>	0
<0xEF>	0
<0xF0>	0
<0xF1>	0
<0xF2>	0
<0xF3>	0
<0xF4>	0
<0xF5>	0
<0xF6>	0
<0xF7>	0
<0xF8>	0
<0xF9>	0
<0xFA>	0
<0xFB>	0
<0xFC>	0
<0xFD>	0
<0xFE>	0
<0xFF>	0
▁የ	-0
▁በ	-1
▁እ	-2
▁አ	-3
▁መ	-4
▁ከ	-5
▁ተ	-6
▁።	-7
▁እና	-8
▁ለ	-9
▁እን	-10
▁ነ	-11
ዎች	-12
▁ይ	-13
▁፣	-14
▁ው	-15
▁ወ	-16
ላይ	-17
▁ያ	-18
▁ማ	-19
▁ስ	-20
▁ውስ	-21
▁ውስጥ	-22
▁የተ	-23
▁ላይ	-24
ቸው	-25
▁ም	-26
▁የሚ	-27
ነት	-28
▁1	-29
▁ግ	-30
ቶች	-31
▁ብ	-32
▁እንደ	-33
▁በመ	-34
ንድ	-35
▁ሰ	-36
▁ነው	-37
▁ሲ	-38
▁ባ	-39
▁ክ	-40
በር	-41
▁የመ	-42
ሪያ	-43
▁ት	-44
▁ጥ	-45
ውን	-46
▁ደ	-47
ዋል	-48
▁(	-49
▁2	-50
ንግ	-51
ስተ	-52
ስት	-53
▁ቀ	-54
▁የአ	-55
▁ወደ	-56
▁በአ	-57
▁በተ	-58
▁ጋ	-59
▁ሁ	-60
ለው	-61
▁ድ	-62
▁ለመ	-63
ችን	-64
ሆን	-65
▁ቤ	-66
ጊዜ	-67
▁እንዲ	-68
ተኛ	-69
▁ዘ	-70
▁ጋር	-71
▁ዓ	-72
ሆነ	-73
▁ል	-74
▁ገ	-75
▁ጊዜ	-76
ዚህ	-77
▁ካ	-78
▁19	-79
▁ታ	-80
▁ሊ	-81
በት	-82
▁20	-83
▁ይህ	-84
▁ለማ	-85
ል።	-86
ጀመ	-87
▁ነበር	-88
▁"	-89
ርት	-90
▁ግን	-91
▁አስ	-92
ያን	-93
ደር	-94
ለት	-95
ሆኑ	-96
▁ኢ	-97
ኋላ	-98
▁ሚ	-99
ደረ	-100
ለም	-101
▁በማ	-102
ገር	-103
▁ፍ	-104
▁ኮ	-105
ዎችን	-106
ሳይ	-107
ሎች	-108
ረጃ	-109
▁በኋላ	-110
▁ጉ	-111
ንያ	-112
▁አን	-113
በረ	-114
▁ቢ	-115
ጀመሪያ	-116
▁ሥ	-117
ረት	-118
ይም	-119
▁ጠ	-120
መን	-121
▁ኤ	-122
ትን	-123
ሮች	-124
ኛው	-125
ራዊ	-126
ንስ	-127
ድር	-128
▁ቅ	-129
ሪካ	-130
ራት	-131
▁ዋ	-132
▁እስ	-133
▁ከተ	-134
▁ምክ	-135
ላል	-136
▁የማ	-137
ቸውን	-138
▁አንድ	-139
▁ህ	-140
▁አል	-141
ማሪ	-142
▁ሲሆን	-143
▁ክፍ	-144
ከል	-145
ንም	-146
..	-147
▁ሆ	-148
▁አይ	-149
ንት	-150
▁ስለ	-151
▁ፕ	-152
▁ና	-153
▁አካ	-154
ርስ	-155
▁በሚ	-156
00	-157
▁ቤት	-158
▁የእ	-159
▁እንደሚ	-160
መለ	-161
▁ሕ	-162
▁ዓመ	-163
▁ሙ	-164
▁ወይም	-165
▁ጨ	-166
▁ባለ	-167
ርድ	-168
▁ሞ	-169
▁ሌ	-170
ቷል	-171
▁ቦ	-172
▁ዝ	-173
▁አገ	-174
▁ን	-175
▁ፈ	-176
ተር	-177
▁ቀን	-178
ዎቹ	-179
▁የሚያ	-180
▁መስ	-181
▁ቡ	-182
ምህ	-183
▁እየ	-184
▁ኦ	-185
▁መን	-186
ገድ	-187
ፍተኛ	-188
መር	-189
ድረ	-190
ድን	-191
▁ደረጃ	-192
፡፡	-193
▁ፓ	-194
ትዮ	-195
▁ዳ	-196
▁ቁ	-197
▁በእ	-198
▁201	-199
ሰብ	-200
ላቸው	-201
ቱን	-202
▁ሳ	-203
▁ነው።	-204
▁ምክንያ	-205
ባቢ	-206
ታት	-207
ሪክ	-208
ፊት	-209
ታል	-210
ኞች	-211
ትዮጵ	-212
▁ጉዳ	-213
▁መካ	-214
ጣም	-215
ገና	-216
▁ብዙ	-217
ዲስ	-218
ዋል።	-219
ላት	-220
▁አስተ	-221
ባት	-222
▁እስከ	-223
ቦች	-224
▁አለ	-225
▁እንዳ	-226
ቶችን	-227
ናት	-228
▁ሃ	-229
ኔታ	-230
▁የም	-231
ብር	-232
ዚያ	-233
ቢያ	-234
▁አው	-235
ራል	-236
▁ሴ	-237
ኖች	-238
ትዮጵያ	-239
ክስ	-240
ከተ	-241
▁ዲ	-242
በሩ	-243
ለያ	-244
▁ያለው	-245
▁ምር	-246
▁ሁኔታ	-247
▁ያለ	-248
ታዊ	-249
▁ሀ	-250
ቅር	-251
ረስ	-252
ጥር	-253
የር	-254
ምህርት	-255
▁በጣም	-256
▁ጎ	-257
▁፡	-258
ሜሪካ	-259
▁መጠ	-260
▁የመጀመሪያ	-261
▁3	-262
▁መካከል	-263
ቅም	-264
▁ሜ	-265
▁ተመ	-266
▁ኃ	-267
ሁን	-268
ይት	-269
ታወ	-270
ጨማሪ	-271
▁ነገር	-272
ጦር	-273
▁ይች	-274
ግር	-275
ይል	-276
▁ስር	-277
▁ከመ	-278
ግራ	-279
▁ከፍተኛ	-280
ሽን	-281
ናል	-282
▁ች	-283
ዶች	-284
ጠቃ	-285
ባል	-286
▁መንግ	-287
▁ናቸው	-288
ርክ	-289
ዋታ	-290
▁ፖ	-291
ምሮ	-292
▁ዕ	-293
▁ሥራ	-294
▁የው	-295
ሚያ	-296
ክት	-297
ጠቀ	-298
▁ተከ	-299
▁ከአ	-300
▁ሰዎች	-301
ለች	-302
ደረገ	-303
ፊል	-304
ሰን	-305
ጠና	-306
ጨረ	-307
ማት	-308
▁አቀ	-309
ደም	-310
▁የበ	-311
▁ብቻ	-312
ዝብ	-313
ልጣ	-314
▁የወ	-315
ቀት	-316
▁ዋና	-317
▁ጀ	-318
ነዚህ	-319
ገኘ	-320
ግሞ	-321
▁ሆኖ	-322
▁ሳይ	-323
▁ውጤ	-324
ግባ	-325
▁በዚህ	-326
▁200	-327
ቨር	-328
ተን	-329
▁የነ	-330
▁ዩ	-331
▁እንዲሁ	-332
ዳን	-333
▁ወቅ	-334
▁ፕሮ	-335
▁የባ	-336
▁ሁሉ	-337
ገባ	-338
▁የኢ	-339
▁ያሉ	-340
ረው	-341
የት	-342
▁ሪ	-343
▁ቦታ	-344
▁ራ	-345
ጨረሻ	-346
▁የግ	-347
▁ይህም	-348
▁ሆነ	-349
ሞች	-350
ልግ	-351
▁የስ	-352
▁ድር	-353
ምር	-354
▁ዘመን	-355
▁በላይ	-356
ሳት	-357
▁ደግሞ	-358
▁ያል	-359
▁ላ	-360
▁የሰ	-361
ታይ	-362
ረጋ	-363
▁-	-364
ገኙ	-365
▁ትምህርት	-366
ዮን	-367
ሪዎች	-368
▁ምክንያት	-369
▁ጨዋታ	-370
ርካ	-371
▁ዶ	-372
ርቲ	-373
መራ	-374
▁አብ	-375
ገለ	-376
▁ቤተ	-377
▁ሁለ	-378
▁ድረስ	-379
▁ሽ	-380
ድረግ	-381
ከላ	-382
▁አም	-383
ለያዩ	-384
▁መር	-385
▁ወቅት	-386
▁ተጫ	-387
ራን	-388
▁ማስ	-389
▁በቀ	-390
▁ሁለት	-391
ዓት	-392
▁የቀ	-393
un	-394
▁4	-395
19	-396
▁ዓመት	-397
▁ኩ	-398
▁18	-399
▁አድር	-400
▁መል	-401
ክል	-402
ተው	-403
▁ቴ	-404
▁መንገድ	-405
▁እር	-406
▁ሰው	-407
ላሉ	-408
ባቸው	-409
ላንድ	-410
▁ክፍል	-411
ገን	-412
ቱም	-413
▁ሐ	-414
ጣት	-415
▁በፊት	-416
ጠር	-417
▁ያስ	-418
ኩል	-419
ወት	-420
ልቅ	-421
▁ባህ	-422
▁የሆነ	-423
▁ምንም	-424
ከት	-425
ለን	-426
▁ማዕ	-427
▁5	-428
▁ስም	-429
ዘጋ	-430
▁አካባቢ	-431
▁እንዲሁም	-432
ንን	-433
ቀር	-434
▁መሆኑ	-435
▁ተወ	-436
ዮች	-437
▁በተጨማሪ	-438
ውያን	-439
ፍት	-440
▁ዴ	-441
▁ሮ	-442
▁ምን	-443
▁ኢን	-444
▁ጽ	-445
ሊያ	-446
▁ማህ	-447
ረዳ	-448
ማን	-449
▁ጣ	-450
ምና	-451
▁በግ	-452
ሏል	-453
▁አባ	-454
ኖር	-455
ችል	-456
ረብ	-457
▁የት	-458
ቃል	-459
▁ለአ	-460
ላማ	-461
ሳብ	-462
▁ቡድን	-463
ወሰ	-464
▁ሶ	-465
ይን	-466
▁በሰ	-467
▁ከተማ	-468
ሠራ	-469
ኒው	-470
ሬት	-471
ፈል	-472
unk	-473
ከራ	-474
▁ሂ	-475
▁ጥቅም	-476
▁የህ	-477
▁አማ	-478
▁በስ	-479
▁ይገ	-480
▁ልዩ	-481
▁ር	-482
▁ሌሎች	-483
▁የታ	-484
▁ተቀ	-485
▁ጆ	-486
ለጠ	-487
ተዋል	-488
ሉት	-489
▁ኪ	-490
ቲካ	-491
ደን	-492
▁ተጫዋ	-493
▁፤	-494
ገኝ	-495
ቤት	-496
ምን	-497
▁<	-498
ደት	-499
▁ነበር።	-500
▁የተመ	-501
ደው	-502
▁የካ	-503
ዓለም	-504
▁አዲስ	-505
▁መረጃ	-506
▁አስፈ	-507
▁ተብ	-508
ዛት	-509
ያዎች	-510
er	-511
▁አመ	-512
▁ውድ	-513
▁ቆ	-514
▁አገልግ	-515
ሁለ	-516
20	-517
ሎጂ	-518
▁ሚኒ	-519
ረን	-520
ሲቲ	-521
▁እያ	-522
ታው	-523
ደጋ	-524
▁ወን	-525
ታቸው	-526
▁ፊል	-527
▁ምስ	-528
ብረ	-529
▁ይችላል	-530
▁ከዚያ	-531
ይነት	-532
ቾች	-533
▁ክል	-534
▁የሕ	-535
ጠራ	-536
▁እናም	-537
ትስ	-538
▁ጦር	-539
▁የኮ	-540
ቋቋ	-541
ኒቨር	-542
ፖርት	-543
ብስ	-544
▁ይመ	-545
▁ፋ	-546
▁እንኳ	-547
▁199	-548
▁እየተ	-549
ሎት	-550
ቃት	-551
ምፒ	-552
ሉም	-553
▁እነዚህ	-554
ኒቨርሲቲ	-555
ጠቃላይ	-556
▁መጠን	-557
ላዊ	-558
ሳሳይ	-559
ለኛ	-560
ናይት	-561
▁የሙ	-562
ጠቀም	-563
ቡብ	-564
▁በተጨማሪም	-565
▁ነበሩ	-566
▁“	-567
ያዊ	-568
ኝነት	-569
▁መብ	-570
▁መሆኑን	-571
▁ነገ	-572
▁የብ	-573
▁6	-574
▁ረ	-575
ስታ	-576
ዳንድ	-577
ያው	-578
ግለ	-579
▁ተና	-580
ዘር	-581
▁ኃይል	-582
▁ዜ	-583
▁ወር	-584
▁ጄ	-585
ርስቲ	-586
ሱን	-587
▁በታ	-588
ኘት	-589
ሔራዊ	-590
▁ስቴ	-591
ለቲካ	-592
ቲክ	-593
▁ሄ	-594
ጆች	-595
ሜን	-596
ምት	-597
▁S	-598
▁ዓመታት	-599
ገኘው	-600
በረው	-601
ልስ	-602
ም።	-603
▁ኳ	-604
▁በወ	-605
▁የፖ	-606
▁ጭ	-607
ይወት	-608
▁ዝር	-609
▁ተሰ	-610
▁ታሪክ	-611
ድሞ	-612
ጠበ	-613
ርካታ	-614
ፋት	-615
ናይትድ	-616
ሥት	-617
ልክ	-618
▁ከእ	-619
▁ግንኙ	-620
▁አሰ	-621
ስተኛ	-622
ላን	-623
ታደ	-624
ዕራ	-625
▁እው	-626
ከር	-627
ነቱ	-628
ተኛው	-629
ሻሻ	-630
▁እንኳን	-631
in	-632
ለዋል	-633
ኤል	-634
▁አሸ	-635
▁ቅር	-636
ሠረ	-637
▁C	-638
▁ያላቸው	-639
ቅስ	-640
▁አይደ	-641
▁በተለ	-642
▁እንደገና	-643
▁ትን	-644
ዘብ	-645
▁ዓለም	-646
ላጊ	-647
ያስ	-648
ንሰ	-649
▁ጉዳይ	-650
▁በኢ	-651
ጽሐ	-652
ጀር	-653
ላለ	-654
▁አር	-655
ይና	-656
▁ማን	-657
▁ከሚ	-658
▁በጥ	-659
▁በርካታ	-660
ካት	-661
▁የበለጠ	-662
▁ኢትዮጵያ	-663
▁ዩኒቨርሲቲ	-664
▁በኩል	-665
on	-666
ነሳ	-667
ባንያ	-668
ራቅ	-669
ሞክ	-670
▁ሻ	-671
ተኞች	-672
▁ቡድ	-673
ሯል	-674
▁በሙ	-675
▁ብሎ	-676
ትር	-677
ዳደር	-678
ቂያ	-679
▁ገል	-680
▁7	-681
ሊዮን	-682
ኒያ	-683
ደበ	-684
ናዊ	-685
▁ጀምሮ	-686
ቀው	-687
▁አበ	-688
▁አቅ	-689
ካሄ	-690
▁እንጂ	-691
▁አንዱ	-692
ከሰ	-693
ቃሴ	-694
▁ፕሬ	-695
ቅስቃሴ	-696
...	-697
▁የአሜሪካ	-698
▁የኦ	-699
▁ማለት	-700
▁ሲል	-701
ገል	-702
▁በብ	-703
ሊዝ	-704
ሉ።	-705
ልድ	-706
▁ድርጅ	-707
▁አሳ	-708
ታታይ	-709
▁መንግስት	-710
▁የተለያዩ	-711
ያቄ	-712
ሊስ	-713
ሁለት	-714
▁ሌላ	-715
ራቸው	-716
ታማ	-717
ህር	-718
▁የተሰ	-719
▁ዙ	-720
ዲዮ	-721
ደረጉ	-722
▁አሁን	-723
ሮችን	-724
▁አስፈላጊ	-725
▁ኳስ	-726
ግብ	-727
ጠው	-728
▁ሸ	-729
▁ለው	-730
▁ተስ	-731
▁ያሳ	-732
ንግድ	-733
▁ዘመ	-734
▁በት	-735
ያል	-736
an	-737
▁ቁጥር	-738
▁አጋ	-739
▁A	-740
▁198	-741
ሊን	-742
ኤስ	-743
▁እንቅስቃሴ	-744
ረም	-745
ማር	-746
ገነ	-747
▁ተብሎ	-748
ፍሪካ	-749
ብረት	-750
ንካ	-751
▁አቀፍ	-752
▁ተቋ	-753
▁ተግባ	-754
▁ዘዴ	-755
▁ኣ	-756
▁ሙሉ	-757
ናገ	-758
ካል	-759
ፈር	-760
▁መለ	-761
ሶች	-762
▁ተለ	-763
▁ጥያቄ	-764
ህን	-765
▁እንደሆነ	-766
▁አንዳንድ	-767
ላፊ	-768
ፈጥ	-769
ምስ	-770
▁I	-771
▁8	-772
▁ኛው	-773
▁ቶ	-774
ለሁ	-775
▁እሱ	-776
▁ይሰ	-777
ወጣ	-778
ቆጣ	-779
▁ብር	-780
ሳሌ	-781
▁በከ	-782
መው	-783
ስተር	-784
▁የኤ	-785
▁ኩባንያ	-786
ፈው	-787
ክምና	-788
▁ፒ	-789
▁አካል	-790
ዛሬ	-791
ዋና	-792
▁ትር	-793
▁ኮሚ	-794
▁ጨምሮ	-795
▁ሚኒስት	-796
▁ኬ	-797
▁አድ	-798
▁ሬ	-799
▁ፎ	-800
ሰው	-801
▁ተናግ	-802
▁ክልል	-803
የም	-804
ቀመ	-805
▁አግ	-806
▁ማጣ	-807
▁የማይ	-808
▁በሕ	-809
▁ዊ	-810
▁በካ	-811
ደቡብ	-812
ጠቅ	-813
▁መሰ	-814
ዕኖ	-815
ሚዎች	-816
ምነት	-817
▁ወታደ	-818
ነሱ	-819
▁ተጽ	-820
ቦት	-821
▁ዕድ	-822
▁ሱ	-823
ነው	-824
▁አዳ	-825
▁ቻ	-826
ዋን	-827
ላር	-828
▁የክ	-829
ህል	-830
ኮኖ	-831
▁ቋ	-832
▁ፓርቲ	-833
መረ	-834
▁ተጫዋቾች	-835
ንግስት	-836
ግኘት	-837
ክተር	-838
▁10	-839
ገብ	-840
▁ተደር	-841
ሻዎች	-842
ሠረት	-843
ሩት	-844
▁ስቴትስ	-845
ቋል	-846
ሆና	-847
ጠት	-848
ዩናይትድ	-849
ፃፀ	-850
በል	-851
ስቲ	-852
ሁኑ	-853
▁ያልተ	-854
▁በመጠቀም	-855
ባዊ	-856
▁ይሁን	-857
▁ተጨማሪ	-858
▁ክፍለ	-859
▁ወረ	-860
ከና	-861
▁197	-862
ጥጥር	-863
at	-864
▁የሥ	-865
ንፃ	-866
ላው	-867
ጥነት	-868
መት	-869
▁ምርጫ	-870
▁ልጅ	-871
ያዝ	-872
▁በአንድ	-873
በው	-874
▁አበባ	-875
▁9	-876
▁በነ	-877
ሳተ	-878
▁እድ	-879
▁ጠቅ	-880
▁ተጽዕኖ	-881
▁እንደተ	-882
▁አይደለም	-883
▁ስት	-884
መድ	-885
ኮች	-886
▁ጥናት	-887
▁M	-888
ዴት	-889
▁ድን	-890
ሩን	-891
▁ዮ	-892
▁ቀደም	-893
▁ተቃ	-894
ነቶች	-895
▁ለተ	-896
▁መሠረት	-897
▁ብሔራዊ	-898
ሌሎች	-899
000	-900
ንቲ	-901
▁ድም	-902
ar	-903
▁ሥነ	-904
▁ባለው	-905
ንክ	-906
ጤና	-907
▁ከዚህ	-908
ቀነ	-909
ለል	-910
▁ከባ	-911
ዳና	-912
▁አሜሪካ	-913
▁ግንኙነት	-914
ገው	-915
ልጣን	-916
ደራ	-917
▁የፈ	-918
es	-919
ማሪዎች	-920
▁አቶ	-921
▁ምክር	-922
▁ይችላሉ	-923
ካከ	-924
▁ጣቢያ	-925
▁/	-926
ጠረ	-927
ከተማ	-928
▁ጽሑ	-929
en	-930
ጣል	-931
ቀጥ	-932
ያንዳን	-933
ገደ	-934
▁ቴክ	-935
ታቸውን	-936
▁ተመሳሳይ	-937
ዝር	-938
ንዳ	-939
ሳስ	-940
▁ቪ	-941
▁አባላት	-942
▁ፍላ	-943
ለመ	-944
▁ጃ	-945
ረጋገ	-946
ዱስ	-947
ላቀ	-948
ቦችን	-949
ቅድ	-950
▁በፍ	-951
ዚቃ	-952
▁የሆኑ	-953
▁የኢትዮጵያ	-954
ውሮ	-955
▁ሥር	-956
ቻቸው	-957
▁እንዲያ	-958
ቹን	-959
▁በየ	-960
▁ሁሉም	-961
▁T	-962
▁በኮ	-963
▁N	-964
▁ችግር	-965
ንቋ	-966
ደረገው	-967
▁ጦርነት	-968
▁ከፍ	-969
▁የጦር	-970
ቀሳ	-971
ጋፍ	-972
▁እንደሚያ	-973
ናን	-974
▁መጀመሪያ	-975
▁የሚያስ	-976
▁የተባ	-977
ቤተ	-978
ልፍ	-979
ስትራ	-980
▁ቤቶች	-981
ዳንት	-982
በራዊ	-983
ሎችን	-984
▁ሩ	-985
ጠናቀ	-986
▁የፍ	-987
▁የራ	-988
▁ጂ	-989
▁የቴ	-990
▁አደጋ	-991
▁በባ	-992
▁የሞ	-993
▁የባህር	-994
ችሉ	-995
▁P	-996
ሌክት	-997
ጋት	-998
ኛል	-999
ጎት	-1000
▁አግኝ	-1001
▁አልተ	-1002
▁ቢሆን	-1003
ጀት	-1004
ሃን	-1005
ሪስ	-1006
▁ያለውን	-1007
▁ትራ	-1008
▁ለማስ	-1009
ነር	-1010
ጅም	-1011
ከላከ	-1012
▁አማካ	-1013
▁196	-1014
▁የዓለም	-1015
▁ግብ	-1016
ጋቢ	-1017
ቀም	-1018
▁ፊ	-1019
▁ፌ	-1020
ዋቂ	-1021
▁ሞዴ	-1022
▁እንዴት	-1023
▁የጥ	-1024
▁ዎቹ	-1025
ፎች	-1026
ኒክ	-1027
ያዘ	-1028
ርስቲያን	-1029
ሰባ	-1030
ረዋል	-1031
▁ስርዓት	-1032
▁አፈ	-1033
ሳኔ	-1034
▁የሚል	-1035
ራሲ	-1036
ላም	-1037
▁መርከ	-1038
ሸነ	-1039
ካባቢ	-1040
▁ተከታታይ	-1041
ችሁ	-1042
18	-1043
ጓል	-1044
▁በመጨረሻ	-1045
▁የፓ	-1046
ጋራ	-1047
ሰራ	-1048
▁ቲ	-1049
ዲያ	-1050
▁በሁለ	-1051
መስ	-1052
ምገ	-1053
▁መግለ	-1054
▁አገልግሎት	-1055
▁ቫ	-1056
▁በኤ	-1057
▁ኛ	-1058
▁ነጥ	-1059
ልማት	-1060
▁ጫ	-1061
ገት	-1062
ሰቡ	-1063
▁ነፃ	-1064
▁አጥ	-1065
▁ሲያ	-1066
ምጃ	-1067
ዳጅ	-1068
ስር	-1069
ታዎች	-1070
▁በኦ	-1071
▁በሆነ	-1072
▁ምዕራ	-1073
ክሲ	-1074
or	-1075
▁'	-1076
ንጫ	-1077
▁ዓይነት	-1078
ደገ	-1079
▁ሚሊዮን	-1080
ድድር	-1081
▁L	-1082
▁አለመ	-1083
ብራ	-1084
▁ሙከራ	-1085
ቸዋል	-1086
▁ምክንያቱም	-1087
▁ፕሮግራ	-1088
▁ኃይ	-1089
ማሽ	-1090
ፈለ	-1091
ወለ	-1092
▁ፍርድ	-1093
▁ሎ	-1094
ሪያዎች	-1095
▁ገን	-1096
▁በስተ	-1097
▁ግዛት	-1098
በብ	-1099
ነትን	-1100
▁ዳር	-1101
ንደ	-1102
ማይ	-1103
▁በሙሉ	-1104
ጠሩ	-1105
▁በመስ	-1106
▁ካር	-1107
▁ውጤት	-1108
▁ጎዳና	-1109
ጥታ	-1110
ሠረተ	-1111
▁ጸ	-1112
▁አጠቃላይ	-1113
ከናወ	-1114
ቀረ	-1115
▁አቅር	-1116
ታል።	-1117
▁ማድረግ	-1118
▁ድጋፍ	-1119
▁ማጣቀ	-1120
▁ሊያ	-1121
ወስ	-1122
ኖሩ	-1123
▁በው	-1124
ፊያ	-1125
ሄድ	-1126
▁ትልቅ	-1127
▁ስለሆነ	-1128
▁ልማት	-1129
ላሽ	-1130
▁15	-1131
▁R	-1132
ጀመረ	-1133
▁የውድድር	-1134
▁ባል	-1135
ሪን	-1136
▁194	-1137
▁በመጀመሪያ	-1138
ደበኛ	-1139
▁ጉዳዮች	-1140
▁የመጨረሻ	-1141
ጠን	-1142
ጭት	-1143
▁ሦ	-1144
ሜት	-1145
▁በም	-1146
▁የሃ	-1147
ርን	-1148
ትል	-1149
▁ቃል	-1150
ሴቶች	-1151
▁ሁለተኛ	-1152
ሷል	-1153
▁ጥሩ	-1154
▁መንግሥት	-1155
▁17	-1156
▁ቃ	-1157
ኬት	-1158
▁ሺ	-1159
ገሪ	-1160
ሰቦች	-1161
▁ደር	-1162
በቃ	-1163
▁የፕ	-1164
ጧል	-1165
ed	-1166
ተት	-1167
▁መሪ	-1168
ቻል	-1169
ጀል	-1170
▁ግድ	-1171
ምፕ	-1172
al	-1173
ቧል	-1174
▁ዶላር	-1175
ግዳ	-1176
▁መዝ	-1177
ከላከያ	-1178
▁ችግ	-1179
▁ጥቃት	-1180
▁አብዛ	-1181
,000	-1182
ጎች	-1183
ቡር	-1184
ያንዳንዱ	-1185
ተና	-1186
ሁንም	-1187
▁ፈቃ	-1188
ሁሉም	-1189
▁የድ	-1190
ንግሊዝ	-1191
▁መጽሐ	-1192
▁አባል	-1193
ረጥ	-1194
መጣ	-1195
▁ሚኒስትር	-1196
ፊዎች	-1197
▁ቤቱ	-1198
ወቅ	-1199
▁አውሮ	-1200
▁12	-1201
ፖር	-1202
ስቴ	-1203
ብስብ	-1204
▁ውሳኔ	-1205
▁መግለጫ	-1206
ቅተኛ	-1207
ጋል	-1208
ሰር	-1209
▁ርዕ	-1210
▁ሶስት	-1211
ንታ	-1212
ቷል።	-1213
ንዲ	-1214
▁ሉ	-1215
ዳር	-1216
ለር	-1217
▁ስብ	-1218
▁ሜዳ	-1219
▁ማስተ	-1220
▁የጎ	-1221
ደግ	-1222
▁እግር	-1223
ችው	-1224
▁የፖለቲካ	-1225
ዥን	-1226
▁ሆነው	-1227
ላስ	-1228
▁አነ	-1229
▁እርምጃ	-1230
ቲት	-1231
▁ወንድ	-1232
▁ለሚ	-1233
▁ሴት	-1234
▁ግንባ	-1235
▁አስተዳደር	-1236
ኑን	-1237
▁መዋ	-1238
ic	-1239
▁በሽ	-1240
መለከተ	-1241
▁እንዲህ	-1242
▁F	-1243
ፐር	-1244
▁አሁንም	-1245
ክሮ	-1246
ለውን	-1247
▁አሉ	-1248
▁ሚና	-1249
ሟል	-1250
▁ያደር	-1251
▁ተስፋ	-1252
▁ማጣቀሻዎች	-1253
▁መሳ	-1254
▁ዝግ	-1255
▁ስራ	-1256
▁‹	-1257
▁ሳይሆን	-1258
ላል።	-1259
▁ሰር	-1260
▁ክፍሎች	-1261
▁ለእ	-1262
▁የውጭ	-1263
▁ይህንን	-1264
▁ህዝብ	-1265
ጮች	-1266
ደኛ	-1267
▁የህዝብ	-1268
▁ጨዋታዎች	-1269
ገቡ	-1270
▁የቀድሞ	-1271
ክክ	-1272
▁አለው	-1273
▁ስታ	-1274
▁መሣ	-1275
▁የአየር	-1276
ጠይ	-1277
▁ለማድረግ	-1278
▁ከማ	-1279
ሪታ	-1280
▁ያህል	-1281
▁E	-1282
▁ፊልሞች	-1283
ስን	-1284
▁ትዕ	-1285
▁ቋንቋ	-1286
▁ውጭ	-1287
▁,	-1288
ከቱ	-1289
ውል	-1290
ኮኖሚ	-1291
▁16	-1292
▁B	-1293
ጦች	-1294
▁ብለው	-1295
▁መመ	-1296
▁እጅ	-1297
ባባ	-1298
ማኖ	-1299
ኪያ	-1300
▁ሊግ	-1301
▁195	-1302
በያ	-1303
▁ስል	-1304
▁በተለይም	-1305
▁ሠራ	-1306
ቶቹ	-1307
▁አራት	-1308
ይታ	-1309
▁እንዳለ	-1310
▁በክ	-1311
ቋቋም	-1312
ገንዘብ	-1313
ኖሎጂ	-1314
▁ምርመራ	-1315
▁ግራ	-1316
th	-1317
▁ይህን	-1318
▁ዳይ	-1319
ቂት	-1320
ንካራ	-1321
▁ጽሑፍ	-1322
ግል	-1323
▁የመጀመሪያው	-1324
▁(19	-1325
ቪዥን	-1326
ራጭ	-1327
▁ዓላማ	-1328
▁በከፍተኛ	-1329
▁ክለ	-1330
ሰረ	-1331
▁የተመሠረተ	-1332
ኛውም	-1333
▁ገጽ	-1334
ሲያ	-1335
▁ከጊዜ	-1336
▁አየር	-1337
ጫወ	-1338
ኔት	-1339
የው	-1340
▁ፖሊ	-1341
ታተ	-1342
▁ልጆች	-1343
▁11	-1344
ሳን	-1345
▁ልብ	-1346
ዋዋ	-1347
ራይ	-1348
▁ምላሽ	-1349
▁ሃይ	-1350
ገዋል	-1351
ስኮ	-1352
▁ዋጋ	-1353
▁አያ	-1354
▁ለውጥ	-1355
ነበረ	-1356
ብዛ	-1357
▁ብዙውን	-1358
ዷል	-1359
ሴት	-1360
▁ሻምፒ	-1361
▁አክ	-1362
ውሮፓ	-1363
▁የምር	-1364
ረጋግ	-1365
ወጥ	-1366
ፎር	-1367
ላክ	-1368
ስትሪ	-1369
▁አት	-1370
ላቸውን	-1371
ራሽ	-1372
▁ደን	-1373
▁ዱ	-1374
▁0	-1375
▁መስመር	-1376
ጡት	-1377
ሊክ	-1378
▁ቀናት	-1379
ወር	-1380
ሮን	-1381
▁በማለት	-1382
▁ፅ	-1383
▁W	-1384
▁ጉዳት	-1385
▁ኮን	-1386
ዳል	-1387
▁D	-1388
▁ዳርቻ	-1389
▁ያሉት	-1390
ሌቪዥን	-1391
▁ሆኖም	-1392
ሪት	-1393
ድስት	-1394
▁አገር	-1395
▁ኃላፊ	-1396
▁ማር	-1397
▁የል	-1398
▁የተፈ	-1399
▁ትኩ	-1400
መለስ	-1401
ከረም	-1402
ፉት	-1403
ንሲ	-1404
201	-1405
ብኝ	-1406
▁ጋዜ	-1407
ሉን	-1408
▁ፀ	-1409
▁የሌ	-1410
▁ከባድ	-1411
ፈት	-1412
ሏል።	-1413
▁ዛሬ	-1414
▁የተወሰ	-1415
▁ልም	-1416
▁ለም	-1417
ዳሚ	-1418
ምንት	-1419
st	-1420
▁ቢሆንም	-1421
ረንሳይ	-1422
▁ንግ	-1423
▁ገብ	-1424
▁ዮርክ	-1425
▁ሴቶች	-1426
የተ	-1427
▁ቱ	-1428
▁ክስተ	-1429
ለች።	-1430
ቅና	-1431
▁ጠቅላይ	-1432
ማል	-1433
▁ሕግ	-1434
▁የን	-1435
▁መጥ	-1436
▁ይታወ	-1437
ከባቢ	-1438
▁ዝርዝር	-1439
▁ኮር	-1440
ንዱ	-1441
ጭር	-1442
ተኮ	-1443
▁ታዋቂ	-1444
ጫዊ	-1445
▁እንዳይ	-1446
ዛዝ	-1447
▁አስተዋ	-1448
▁ኒው	-1449
▁ጥና	-1450
▁በአጠቃላይ	-1451
ጨዋታ	-1452
ውንቲ	-1453
ጠል	-1454
▁ዘር	-1455
ገሪቱ	-1456
▁ባሉ	-1457
▁ዌ	-1458
▁ምል	-1459
▁ቡድኖች	-1460
▁መንገ	-1461
ግዚ	-1462
▁ውድድር	-1463
ሪታንያ	-1464
▁ዓይ	-1465
ሳል	-1466
▁በተለያዩ	-1467
▁በራ	-1468
▁ጓ	-1469
▁በመቶ	-1470
▁የዩ	-1471
▁ይመስ	-1472
ብት	-1473
ጋይ	-1474
▁ፔ	-1475
ምገማ	-1476
ገራ	-1477
ደብ	-1478
▁አስታው	-1479
▁ውጤቶች	-1480
▁ጆን	-1481
▁በር	-1482
▁ድርጅት	-1483
ኪና	-1484
ጋሪ	-1485
▁መብት	-1486
▁ውጤታማ	-1487
ካዊ	-1488
▁እዚያ	-1489
ምሌ	-1490
ቅርብ	-1491
ደረግ	-1492
▁ግል	-1493
ዘመ	-1494
መል	-1495
▁በመሆን	-1496
▁በማስ	-1497
ታን	-1498
ተዋል።	-1499
▁14	-1500
▁ስርዓ	-1501
▁አላ	-1502
ራቢያ	-1503
▁ባለሙ	-1504
▁ፕሬዝ	-1505
ቀጣ	-1506
▁ዙሪያ	-1507
▁ከሰ	-1508
▁ፍላጎት	-1509
▁ሊሆን	-1510
በረሰብ	-1511
ክር	-1512
▁ጌ	-1513
ቁር	-1514
▁ግጥ	-1515
▁ማክ	-1516
▁ሠ	-1517
ፕሬ	-1518
▁ቀር	-1519
▁የቅ	-1520
▁ተማሪዎች	-1521
▁እኔ	-1522
▁መሆን	-1523
▁የንግድ	-1524
▁193	-1525
▁የገ	-1526
ማማ	-1527
-1	-1528
▁የሶ	-1529
▁ማይ	-1530
▁መጨረሻ	-1531
ስትራሊያ	-1532
▁ፕሮጀ	-1533
ሰት	-1534
▁13	-1535
ጀርመን	-1536
▁ሕንፃ	-1537
▁የቡ	-1538
▁ማዕከል	-1539
ለዋል።	-1540
››	-1541
ችንን	-1542
ያዙ	-1543
ሌጅ	-1544
▁ወረዳ	-1545
▁መድረ	-1546
ሽከ	-1547
▁የተቀ	-1548
ናዳ	-1549
ጋቢት	-1550
ፓን	-1551
▁በሃ	-1552
ጋሚ	-1553
▁አካላት	-1554
▁ንጉ	-1555
ንቀሳ	-1556
▁ስለሆነም	-1557
▁ሂደት	-1558
ዮና	-1559
ባብ	-1560
ህንነት	-1561
▁አፍሪካ	-1562
ብዙ	-1563
▁ይታ	-1564
ካይ	-1565
ባበ	-1566
ባው	-1567
▁ብለዋል	-1568
▁ጠንካራ	-1569
▁የነበረ	-1570
ፌዴ	-1571
▁ነዋ	-1572
▁ውጫዊ	-1573
▁ስለዚህ	-1574
ምበር	-1575
it	-1576
▁ግለ	-1577
▁በሌ	-1578
▁ዝቅተኛ	-1579
ዳት	-1580
▁የፀ	-1581
▁ኖ	-1582
ኗል	-1583
ኤን	-1584
ቪል	-1585
▁ዳይሬ	-1586
በትን	-1587
ራሉ	-1588
▁ችሎ	-1589
▁ዘፈ	-1590
መለክ	-1591
▁ናቸው።	-1592
▁G	-1593
ከላከል	-1594
▁ተገኝ	-1595
ኃይል	-1596
▁አነስተኛ	-1597
ደርግ	-1598
ቻቸውን	-1599
ሥራ	-1600
200	-1601
ጠብ	-1602
▁ተፈ	-1603
ገኙት	-1604
▁ቁጥጥር	-1605
ሔር	-1606
▁ነው፡፡	-1607
ኖችን	-1608
ቻይና	-1609
ዝግ	-1610
ቀነስ	-1611
▁ይልቅ	-1612
▁መደበኛ	-1613
ከፋ	-1614
▁ገንዘብ	-1615
▁ማሳ	-1616
▁የሆነው	-1617
▁H	-1618
▁ለመጀመሪያ	-1619
▁ለማግኘት	-1620
▁እውነ	-1621
በሩት	-1622
▁የመስ	-1623
▁ወለ	-1624
▁አገና	-1625
ንዶች	-1626
ውስ	-1627
▁በበ	-1628
ፍራ	-1629
▁አሸና	-1630
▁አለበት	-1631
▁የሚሰ	-1632
▁የትምህርት	-1633
▁አውሮፕ	-1634
ለቀ	-1635
ስቱ	-1636
▁መግ	-1637
ቅቱ	-1638
▁ሀገ	-1639
▁ቅዱስ	-1640
ሙን	-1641
ስፒ	-1642
▁በድ	-1643
▁ነበረ	-1644
▁ጊ	-1645
ከላዊ	-1646
ፃፀም	-1647
▁በዓለም	-1648
▁ሪፖርት	-1649
ሪው	-1650
▁ያካት	-1651
▁ተሰጥ	-1652
▁ተለዋዋ	-1653
ልን	-1654
▁የመሬት	-1655
▁በዓ	-1656
ቂዎች	-1657
ወደ	-1658
▁በኢትዮጵያ	-1659
ro	-1660
▁ግምገማ	-1661
▁ስምምነት	-1662
ኞቹ	-1663
ሳቸው	-1664
▁ይዘ	-1665
▁ምርምር	-1666
ንቅ	-1667
▁በተመ	-1668
▁የቀረ	-1669
ዘጋጅ	-1670
ክክለኛ	-1671
ፈጥሮ	-1672
ከብ	-1673
▁የቦ	-1674
▁ወጣ	-1675
ረዳት	-1676
ዳዳ	-1677
ዝም	-1678
▁የጉ	-1679
ጨት	-1680
▁ለመስ	-1681
ፍጠር	-1682
ሐሴ	-1683
ፕሪ	-1684
▁ካል	-1685
ጀም	-1686
▁መም	-1687
▁ከሆነ	-1688
▁ቦታዎች	-1689
ልማ	-1690
--	-1691
ስተኛው	-1692
ኤም	-1693
ንታዊ	-1694
▁ፊልም	-1695
ኖሪያ	-1696
ስቶ	-1697
▁ቀጥ	-1698
▁በአሁኑ	-1699
▁እንግ	-1700
▁ከግ	-1701
▁ሰዓት	-1702
ለማ	-1703
▁ጀር	-1704
ይድ	-1705
ስቶች	-1706
ከተል	-1707
▁ማስታወ	-1708
ዲሱ	-1709
▁ጸሐ	-1710
▁መው	-1711
ቂቃ	-1712
▁በመሆኑ	-1713
▁ሜትር	-1714
▁ብራ	-1715
▁አቋ	-1716
ሊያን	-1717
▁ተሸ	-1718
ቅረብ	-1719
▁የግል	-1720
ታሉ	-1721
ቧን	-1722
▁ተመራ	-1723
▁በዚያ	-1724
▁30	-1725
▁በፓ	-1726
▁ካውንቲ	-1727
▁የውሃ	-1728
▁‹‹	-1729
▁ምርት	-1730
▁ለማሳ	-1731
▁አስተያ	-1732
▁የሲ	-1733
ጀመር	-1734
▁መሬት	-1735
ደረሰ	-1736
▁አካባቢዎች	-1737
ሆኑት	-1738
▁ሞት	-1739
ጊያ	-1740
▁በሞ	-1741
ረድ	-1742
ጠበቅ	-1743
ሌት	-1744
ሬን	-1745
▁የጠ	-1746
▁(1	-1747
is	-1748
ጥረ	-1749
ጋን	-1750
ቀስ	-1751
▁መሣሪያ	-1752
▁እንደነ	-1753
▁የዋ	-1754
▁21	-1755
▁አግኝቷል	-1756
ንግተን	-1757
▁ዋንጫ	-1758
▁በአሜሪካ	-1759
▁ትክክለኛ	-1760
ጣጥ	-1761
▁የሮ	-1762
▁ሞዴል	-1763
▁በዩናይትድ	-1764
ሳዊ	-1765
ጠላ	-1766
▁ተገ	-1767
ካታ	-1768
▁የከተማ	-1769
▁ቢሮ	-1770
▁መድ	-1771
ሯል።	-1772
▁ታላ	-1773
ደርጉ	-1774
▁ሕይወት	-1775
ታረ	-1776
ኢትዮጵያ	-1777
▁ማህበራዊ	-1778
▁ፖሊስ	-1779
አይ	-1780
▁ኮሚቴ	-1781
▁ጁ	-1782
▁ደቂቃ	-1783
በርግ	-1784
▁ተቋማት	-1785
▁በይ	-1786
▁አምስት	-1787
▁በወቅቱ	-1788
▁ዲዛ	-1789
ልቁ	-1790
አብ	-1791
▁ማህበር	-1792
▁በተመለከተ	-1793
ደርስ	-1794
▁ተቀባ	-1795
▁ልዩነት	-1796
▁p	-1797
ዩት	-1798
▁ቅድ	-1799
▁ሽልማት	-1800
▁25	-1801
▁በተመሳሳይ	-1802
▁ፈጣ	-1803
ሪካዊ	-1804
▁በኒው	-1805
▁ፕሬዝዳንት	-1806
ነገ	-1807
▁ወታደራዊ	-1808
21	-1809
ion	-1810
▁ምርጥ	-1811
ዛመ	-1812
▁ወዲ	-1813
ምብ	-1814
ውሞ	-1815
▁ተከት	-1816
▁በቁ	-1817
ኮን	-1818
▁አልበ	-1819
▁የነበረው	-1820
ኮት	-1821
▁ጀመረ	-1822
▁መተ	-1823
▁እሷ	-1824
ስተን	-1825
▁ተሳት	-1826
መንት	-1827
ጅት	-1828
ማራ	-1829
el	-1830
መጥ	-1831
▁የሰው	-1832
▁የደ	-1833
ሻለ	-1834
ቡን	-1835
▁ፍራን	-1836
ይስ	-1837
▁አቅም	-1838
▁ስብሰባ	-1839
ጫወት	-1840
▁ፕሮግራም	-1841
ስራ	-1842
▁በመመር	-1843
ካሂ	-1844
ለኛው	-1845
ሳሽ	-1846
▁ምዕራብ	-1847
▁ብቸ	-1848
▁ዙር	-1849
▁አጠቃ	-1850
▁ዞ	-1851
▁ኒ	-1852
ውው	-1853
▁ፊት	-1854
ባህ	-1855
▁ብዙም	-1856
ደል	-1857
ኛዎቹ	-1858
ሽከርካ	-1859
ሬሽን	-1860
▁በማድረግ	-1861
▁በደቡብ	-1862
ይወ	-1863
▁እንድ	-1864
ካተ	-1865
ካን	-1866
▁በታች	-1867
▁ነጥብ	-1868
ዛቤ	-1869
▁ታካ	-1870
ኤፍ	-1871
▁ወጪ	-1872
ሰል	-1873
የን	-1874
▁የዚህ	-1875
▁አዛ	-1876
▁የግን	-1877
ጠቁ	-1878
▁ተጫዋች	-1879
▁አቀራ	-1880
ንዶ	-1881
ቆይ	-1882
▁በቅ	-1883
▁ባይ	-1884
ፍል	-1885
▁በሜ	-1886
▁በረ	-1887
ምረት	-1888
▁ተጋ	-1889
▁ከቀ	-1890
▁ቀጣ	-1891
▁አገናኞች	-1892
▁የመንግስት	-1893
ሞክራሲ	-1894
ዘን	-1895
▁ትኩረት	-1896
▁መጽሐፍ	-1897
ኞችን	-1898
ቲን	-1899
ረታ	-1900
as	-1901
▁በፈ	-1902
▁የቆ	-1903
ልህ	-1904
▁ኤም	-1905
▁የሕግ	-1906
▁አሳይ	-1907
▁ተመል	-1908
▁አውራ	-1909
▁ለምሳሌ	-1910
▁ነገሮች	-1911
▁በቀጣ	-1912
▁አመራ	-1913
▁አገልግሎ	-1914
▁የባቡር	-1915
▁አራ	-1916
▁ሠራተኞች	-1917
▁የለም	-1918
▁የሥራ	-1919
ርቶ	-1920
ዝና	-1921
▁የክል	-1922
▁ሚኒስቴ	-1923
በርካታ	-1924
▁ንድ	-1925
▁ተለዋዋጭ	-1926
▁አድርጎ	-1927
ch	-1928
ሰድ	-1929
ቆም	-1930
ካም	-1931
▁ውይ	-1932
▁መነ	-1933
ባር	-1934
▁ነፋ	-1935
ሌክትሪክ	-1936
▁ሻምፒዮና	-1937
ሻሻል	-1938
▁አፈፃፀም	-1939
▁የተገነ	-1940
ስና	-1941
▁ንብረት	-1942
▁አሰልጣ	-1943
ጠኛ	-1944
▁በተለይ	-1945
▁በመባል	-1946
ፎርድ	-1947
▁2010	-1948
ጥረት	-1949
▁ቴክኖሎጂ	-1950
▁ሊቀ	-1951
ነቱን	-1952
ትና	-1953
▁እኛ	-1954
▁መስመ	-1955
▁ሰፊ	-1956
ዎቹን	-1957
በስ	-1958
▁ጉዞ	-1959
ህሳስ	-1960
▁ጎን	-1961
▁ሀሳብ	-1962
▁በሁለት	-1963
▁ደብ	-1964
re	-1965
▁ሳምንት	-1966
▁ተዋ	-1967
▁ህዝ	-1968
▁አመለ	-1969
▁መቶ	-1970
▁ዘይ	-1971
▁ህግ	-1972
ዶችን	-1973
ሸነፍ	-1974
ርግ	-1975
በርት	-1976
ሦስት	-1977
መቱ	-1978
▁በግል	-1979
▁የኃይል	-1980
▁መሆና	-1981
ምህር	-1982
ስተዋ	-1983
በዋል	-1984
ርስቲያ	-1985
▁አዳዲስ	-1986
ረዋል።	-1987
om	-1988
▁የዲ	-1989
▁ባለቤት	-1990
▁በሚገኘው	-1991
ጠየ	-1992
▁ከዚያም	-1993
▁ነጠላ	-1994
▁ተል	-1995
▁መከላከያ	-1996
ከታተ	-1997
▁የዘ	-1998
ቃወ	-1999
ተሮች	-2000
ኮዝ	-2001
▁በሚል	-2002
▁ሁለቱም	-2003
▁ሕዝብ	-2004
▁በሽታ	-2005
ካሄደው	-2006
▁የጋራ	-2007
▁የገንዘብ	-2008
ሙና	-2009
ቋቋመ	-2010
▁ፍጥነት	-2011
▁በአብዛ	-2012
▁ነበረው	-2013
▁አደረገ	-2014
ፈልጋ	-2015
▁ታይ	-2016
ንሰር	-2017
▁ተራ	-2018
▁የሀ	-2019
ብረተ	-2020
▁ታሪካዊ	-2021
▁የሚገኘው	-2022
▁ከስ	-2023
▁ያልሆነ	-2024
▁ኮሌጅ	-2025
▁አቅጣ	-2026
▁ዕድሜ	-2027
▁ስለሚ	-2028
▁በፖ	-2029
▁ሰሜን	-2030
ሳቁ	-2031
ዳታ	-2032
▁የአንድ	-2033
▁ባለመ	-2034
▁የሙዚቃ	-2035
ቧንቧ	-2036
ክርስቲያን	-2037
▁2012	-2038
ሲስ	-2039
▁ዛ	-2040
▁ስብስብ	-2041
▁ፖሊሲ	-2042
▁[	-2043
▁እኩል	-2044
▁የቤት	-2045
ማስ	-2046
ፊክ	-2047
ለቅ	-2048
▁ኡ	-2049
ያሉ	-2050
▁ግንባታ	-2051
22	-2052
ፋን	-2053
▁ጥቃ	-2054
▁ብዛት	-2055
▁እራ	-2056
ኒካዊ	-2057
▁ሁኔታዎች	-2058
▁አድርጓል	-2059
▁እጅግ	-2060
▁ሀገር	-2061
ጨመር	-2062
▁ወታደሮች	-2063
ወረ	-2064
▁በቂ	-2065
▁ችግሮች	-2066
▁ምሽ	-2067
ሰማ	-2068
▁በቦ	-2069
▁በእው	-2070
▁ዳይሬክተር	-2071
▁በመም	-2072
▁በመመርኮዝ	-2073
ካባቢው	-2074
▁ምልክ	-2075
▁ክብ	-2076
▁መቀ	-2077
ግዚአብ	-2078
በታል	-2079
▁መንግስ	-2080
▁ሰብ	-2081
▁ለዚህ	-2082
▁የቤተ	-2083
ዝማ	-2084
▁ሚኒስቴር	-2085
ሳካ	-2086
የስ	-2087
▁የጤና	-2088
▁ጥበቃ	-2089
ገኛ	-2090
▁ይገኛ	-2091
▁24	-2092
ቪድ	-2093
ገናኛ	-2094
".	-2095
▁ድብ	-2096
▁ተዋና	-2097
▁ወጥ	-2098
ታችን	-2099
ከለ	-2100
በላ	-2101
▁ተጓ	-2102
ረጋገጥ	-2103
▁የፋ	-2104
▁መታ	-2105
▁ተግባር	-2106
▁በዋ	-2107
▁የሚችል	-2108
▁የተለ	-2109
ውስትራሊያ	-2110
ራኒ	-2111
ፈረ	-2112
▁ቬ	-2113
መዋል	-2114
▁ፕሬዚ	-2115
▁ፖለቲካ	-2116
ግራይ	-2117
▁2013	-2118
▁ምልክት	-2119
▁ጉድ	-2120
የአ	-2121
▁ተከትሎ	-2122
ራዊት	-2123
▁ቀላል	-2124
ቆጣጠር	-2125
▁የዳ	-2126
▁ትንሽ	-2127
▁ወስ	-2128
ሌክትሮ	-2129
ሆናል	-2130
ልጣናት	-2131
▁d	-2132
▁ምስራቅ	-2133
ደባ	-2134
▁በል	-2135
▁አወ	-2136
▁ተሳ	-2137
▁ይሆናል	-2138
▁ደረጃዎች	-2139
ይዛ	-2140
▁ክርስቲያን	-2141
▁ምክትል	-2142
▁ተዛ	-2143
▁ሲነ	-2144
ሰጥ	-2145
▁የበረ	-2146
▁አጠና	-2147
▁ድርጊ	-2148
ou	-2149
▁በህ	-2150
▁የሂ	-2151
ቀል	-2152
ውጣት	-2153
ቅረ	-2154
▁በሰሜን	-2155
▁ጤና	-2156
▁2018	-2157
▁አቅጣጫ	-2158
ሳቸውን	-2159
▁በሶ	-2160
▁ጥረት	-2161
ፋል	-2162
▁ያነ	-2163
▁ጆር	-2164
▁ይሰጣል	-2165
▁ደቡብ	-2166
▁ተወላ	-2167
▁ባለሥ	-2168
▁የዩናይትድ	-2169
▁ነሐሴ	-2170
▁የምት	-2171
▁ድርጅቶች	-2172
▁በፍጥነት	-2173
▁ውሃ	-2174
▁ይገኛል	-2175
ያት	-2176
ርላማ	-2177
▁የሚገኙ	-2178
▁ይወ	-2179
ቻችን	-2180
ናልባት	-2181
ቱት	-2182
ፐብ	-2183
▁ሁለተኛው	-2184
ወገድ	-2185
▁ሁሉንም	-2186
ዋት	-2187
▁ፅንሰ	-2188
ሮስ	-2189
▁ዘመቻ	-2190
▁የብሪታንያ	-2191
▁ያላቸውን	-2192
▁አልፎ	-2193
▁መፍት	-2194
▁ምሳሌ	-2195
▁የሽ	-2196
▁ገጸ	-2197
▁ባህሪ	-2198
▁ወንዝ	-2199
ዳቸው	-2200
▁አቅራቢያ	-2201
▁እድገት	-2202
▁ህብረት	-2203
▁ሙዚቃ	-2204
▁ቡድኑ	-2205
▁ኢንዱ	-2206
ol	-2207
▁በአን	-2208
ዳደ	-2209
▁በዋና	-2210
ጣሉ	-2211
▁ዜና	-2212
ሰበ	-2213
▁የእር	-2214
▁የሊ	-2215
▁ገደ	-2216
ing	-2217
▁በቴ	-2218
▁ከሌሎች	-2219
ሞችን	-2220
▁የጭ	-2221
▁ጥራት	-2222
▁ምሁ	-2223
▁ሰኔ	-2224
▁ምግብ	-2225
▁የቴሌቪዥን	-2226
▁በሲ	-2227
▁ተስማ	-2228
ቶን	-2229
▁ጥናቶች	-2230
▁አውታረ	-2231
ደጋጋሚ	-2232
አዴ	-2233
▁በሌሎች	-2234
ማዊ	-2235
▁የተመሰረ	-2236
▁2011	-2237
▁መጽ	-2238
▁የእንግሊዝ	-2239
▁c	-2240
ምፒክ	-2241
▁መሳሪያ	-2242
ለስ	-2243
▁ግዛ	-2244
▁191	-2245
ፕሮ	-2246
▁ሸቀጣ	-2247
▁ጥቂት	-2248
ቆጥ	-2249
▁ተጫው	-2250
▁የኪ	-2251
▁አመት	-2252
▁ኤል	-2253
▁w	-2254
ደና	-2255
▁እነሱ	-2256
▁መሥ	-2257
▁የቁ	-2258
▁የመን	-2259
▁የሚችሉ	-2260
50	-2261
▁ወራት	-2262
▁ኃይሎች	-2263
▁እነ	-2264
▁እንደማይ	-2265
ጃፓን	-2266
ችት	-2267
▁ይቀ	-2268
▁ሰጥ	-2269
▁ጥቁር	-2270
▁ተደርጓል	-2271
▁በቀጥታ	-2272
▁የለ	-2273
ጉም	-2274
ማኖት	-2275
▁ሕዝ	-2276
ሸራ	-2277
▁ችሎታ	-2278
▁ማረ	-2279
▁ከአንድ	-2280
ምድ	-2281
▁በደ	-2282
ሾች	-2283
-19	-2284
ሙት	-2285
▁ተጠቃ	-2286
▁ምክንያቶች	-2287
▁ስትራ	-2288
▁አዋ	-2289
▁የፊ	-2290
ፈስ	-2291
ዌይ	-2292
▁ጅ	-2293
▁ተተ	-2294
ቀዋል	-2295
▁ሲሉ	-2296
▁አሸነ	-2297
ኛውን	-2298
▁የሚታወ	-2299
ድሩ	-2300
▁እንዳል	-2301
▁ቁሳቁ	-2302
▁ተግባራዊ	-2303
▁እዚህ	-2304
▁የተለመ	-2305
መለሰ	-2306
ri	-2307
▁ማስረጃ	-2308
በአ	-2309
ትሮ	-2310
ወጡ	-2311
▁2014	-2312
▁ሂደ	-2313
▁ደጋ	-2314
ረጅም	-2315
ድሞው	-2316
▁ተነ	-2317
ሳው	-2318
ሌይ	-2319
በራቸው	-2320
▁በተቃ	-2321
▁አብዛኛዎቹ	-2322
▁ቀለም	-2323
▁የሚመ	-2324
▁ንግድ	-2325
ቆራ	-2326
ሞን	-2327
▁የሚለው	-2328
▁ወይ	-2329
ፈልግ	-2330
▁ሥራዎች	-2331
ጥፋት	-2332
le	-2333
▁ገልጸ	-2334
ኖረው	-2335
▁ብለዋል።	-2336
▁ሀብ	-2337
▁እዚያም	-2338
ዘገ	-2339
▁ክላ	-2340
▁ቤተሰብ	-2341
▁ሙዚ	-2342
▁ተደርጎ	-2343
▁በመተ	-2344
ክቶ	-2345
▁ጥገና	-2346
▁ሺህ	-2347
ሸፈ	-2348
▁ሁለቱ	-2349
▁በን	-2350
ጨመረ	-2351
▁ቧንቧ	-2352
▁ዘንድ	-2353
ናገር	-2354
ገንባት	-2355
▁ማሻሻ	-2356
▁ምናልባት	-2357
▁የሁለ	-2358
▁ይሄ	-2359
ፈጸ	-2360
ሳኝ	-2361
ክብ	-2362
▁ያሳያል	-2363
ች።	-2364
▁ጄኔ	-2365
ያንስ	-2366
ኖስ	-2367
ካር	-2368
▁ለመለ	-2369
ማቸው	-2370
▁ተከተል	-2371
▁ተጠ	-2372
▁ተቃውሞ	-2373
ሰስ	-2374
▁የመጣ	-2375
ምስት	-2376
ብን	-2377
▁የቤ	-2378
▁መልሶ	-2379
ብርና	-2380
ገለጹ	-2381
ስተካ	-2382
▁ዘይቤ	-2383
ራማ	-2384
▁እምነት	-2385
ሊት	-2386
▁የደም	-2387
▁ሰራ	-2388
▁ዲዛይን	-2389
▁የሩ	-2390
▁የአል	-2391
▁ጳ	-2392
▁በመጨረሻም	-2393
የመ	-2394
▁ፕሮፌ	-2395
▁የሜ	-2396
ፊው	-2397
▁ተጠቅ	-2398
▁ያልሆኑ	-2399
ግና	-2400
ፃሜ	-2401
ስፒታል	-2402
ቶስ	-2403
▁ማህበረሰብ	-2404
▁ጠባ	-2405
ሃም	-2406
ሊንግ	-2407
ኔል	-2408
▁ስሜት	-2409
ለምዶ	-2410
ስታን	-2411
ፈዋል	-2412
▁በዩ	-2413
▁የፕሮ	-2414
▁በግን	-2415
▁2008	-2416
ያም	-2417
ዘጋጀ	-2418
ጠበቀ	-2419
▁ግንቦት	-2420
▁ደህንነት	-2421
ጠዋል	-2422
▁ቀይ	-2423
ከፈ	-2424
ራው	-2425
▁አርቲ	-2426
ጣዊ	-2427
▁እንደሚችል	-2428
▁በቅር	-2429
▁2015	-2430
▁ማለ	-2431
ጀርባ	-2432
▁ከነ	-2433
ፌዴራል	-2434
▁እንደሆኑ	-2435
▁ርዕሰ	-2436
▁ይመል	-2437
he	-2438
▁ከም	-2439
▁ትራንስ	-2440
▁መጋቢት	-2441
▁ታሪ	-2442
ይቅ	-2443
ስል	-2444
ሚን	-2445
▁ጉብኝ	-2446
ቴጂ	-2447
▁ድል	-2448
ቴን	-2449
ፊልም	-2450
▁ይይዛ	-2451
▁አቀራረብ	-2452
ከታታይ	-2453
▁በጎ	-2454
ሽነት	-2455
ልቃ	-2456
ሎስ	-2457
▁ለመስጠት	-2458
▁100	-2459
ረሰ	-2460
▁ቮ	-2461
ጠቀሙ	-2462
▁አላቸው	-2463
▁ባንክ	-2464
▁በሌላ	-2465
▁ስድስት	-2466
ብሪካ	-2467
ታር	-2468
▁ስርጭት	-2469
ያኔ	-2470
▁በሐ	-2471
▁ግንዛቤ	-2472
ኒት	-2473
▁ተጨ	-2474
▁ስሜ	-2475
▁2009	-2476
▁ሜዳሊያ	-2477
▁መኪና	-2478
▁ዩናይትድ	-2479
▁በሁለተኛው	-2480
ርባ	-2481
▁ዜጎች	-2482
ፔን	-2483
ምፅ	-2484
▁ዘመናዊ	-2485
▁ለስ	-2486
▁ክሪ	-2487
▁አጋማሽ	-2488
▁ሐዲ	-2489
▁አጠቃቀም	-2490
▁የሆ	-2491
ዳቤ	-2492
ወሰን	-2493
▁ወረቀት	-2494
ዕራብ	-2495
ጀመሩ	-2496
▁የሆኑት	-2497
▁.	-2498
▁መርከቦች	-2499
▁የመጀመሪያውን	-2500
ጀመረው	-2501
▁የእን	-2502
ጣሚ	-2503
▁–	-2504
▁የሥነ	-2505
ታኔ	-2506
▁ኣብ	-2507
ርማ	-2508
ጋዊ	-2509
▁ማኅ	-2510
▁አድርገው	-2511
ሚኒ	-2512
▁መንግሥ	-2513
ሬድ	-2514
▁ስኬ	-2515
▁ጡ	-2516
▁ቆይ	-2517
▁ሰዎችን	-2518
ረግ	-2519
ሊፎር	-2520
ያያዘ	-2521
am	-2522
▁ፓርክ	-2523
▁ክስ	-2524
▁እጩ	-2525
▁ሕክምና	-2526
▁ገቢ	-2527
ልም	-2528
▁አሸነፈ	-2529
▁ወጣት	-2530
▁በአብዛኛው	-2531
▁እያንዳንዱ	-2532
▁ነዋሪዎች	-2533
ባበር	-2534
,5	-2535
▁U	-2536
▁ሾ	-2537
መንጃ	-2538
▁ገልፀ	-2539
▁ጥቅ	-2540
▁የኒው	-2541
ቢሲ	-2542
ንነት	-2543
30	-2544
▁የማስ	-2545
▁ድምፅ	-2546
ጠለ	-2547
▁ሳይንስ	-2548
▁መሰረት	-2549
ውም	-2550
▁ትልቁ	-2551
ጣጣ	-2552
▁2016	-2553
▁ግጥሚያ	-2554
ሰሩ	-2555
▁ኢኮኖሚ	-2556
▁የበላይ	-2557
▁ከእነዚህ	-2558
▁ወሳኝ	-2559
▁በዲ	-2560
ደረጃ	-2561
▁ቢያንስ	-2562
▁ካፒ	-2563
ስጥ	-2564
▁22	-2565
መም	-2566
ሊፎርኒያ	-2567
▁ዘግ	-2568
▁ታካሚዎች	-2569
▁የዕ	-2570
▁ጉባ	-2571
▁s	-2572
ንግሥት	-2573
▁መረጃዎች	-2574
ሀሳብ	-2575
ዑስ	-2576
▁ክሊ	-2577
▁ከታ	-2578
▁አስተያየት	-2579
▁ዕቃ	-2580
ልት	-2581
▁የጋ	-2582
▁በተለምዶ	-2583
▁ገዥ	-2584
ደዋል	-2585
አር	-2586
▁ዶክተር	-2587
▁በቡ	-2588
▁ከወ	-2589
▁መስክ	-2590
),	-2591
et	-2592
ግለጽ	-2593
▁መካከ	-2594
▁ኩባንያዎች	-2595
▁እርስ	-2596
▁እየጨመረ	-2597
ርቅ	-2598
ቆች	-2599
ዘግ	-2600
ቀደ	-2601
ላለፍ	-2602
ካቤ	-2603
▁አገኘ	-2604
▁ተማሪ	-2605
▁የአሁኑ	-2606
▁በሚያ	-2607
ሰዋል	-2608
ቸዋል።	-2609
▁የአውሮፓ	-2610
ቤቱ	-2611
▁50	-2612
ንፍ	-2613
ውልድ	-2614
▁ፈቃደኛ	-2615
▁አለባቸው	-2616
▁ፎቶ	-2617
▁እንስ	-2618
▁ሰነ	-2619
▁ይመልከቱ	-2620
▁የድን	-2621
▁K	-2622
ትም	-2623
▁V	-2624
▁የኩ	-2625
▁አሸናፊ	-2626
▁አፍ	-2627
▁አና	-2628
▁ግልጽ	-2629
▁ውስብስብ	-2630
ቴል	-2631
ዮችን	-2632
▁የተዛመ	-2633
▁ይቻ	-2634
▁ውጊያ	-2635
ኮኖሚያ	-2636
▁በሳ	-2637
▁ኪንግ	-2638
ስሊ	-2639
ቷን	-2640
▁ንጥረ	-2641
ዞች	-2642
▁ባህሪዎች	-2643
▁ዘዴዎች	-2644
በተ	-2645
▁ጥር	-2646
▁ደራሲ	-2647
ረር	-2648
ታወቀ	-2649
▁ወንዶች	-2650
ዛን	-2651
op	-2652
▁ክለብ	-2653
▁የሚያሳ	-2654
▁የሚቆ	-2655
▁23	-2656
ሁድ	-2657
▁የሆነውን	-2658
▁መመሪያ	-2659
መለሱ	-2660
▁ገበ	-2661
ፈልጉ	-2662
▁ቤተክርስቲያን	-2663
▁ፈቃድ	-2664
▁ያገለ	-2665
▁192	-2666
አዴግ	-2667
ምፓ	-2668
ጂን	-2669
▁2007	-2670
▁የካቲት	-2671
▁አውሎ	-2672
ርትራ	-2673
▁ስላ	-2674
▁የዓ	-2675
▁የነበሩ	-2676
▁መስከረም	-2677
▁ገለል	-2678
▁ያደረገ	-2679
▁ኤን	-2680
ራክ	-2681
▁190	-2682
ግባር	-2683
ሊዮ	-2684
10	-2685
▁ባለስ	-2686
ሃድ	-2687
ብቅ	-2688
▁የወደ	-2689
ኮኖሚያዊ	-2690
▁ፍፃሜ	-2691
▁የሚሆኑት	-2692
ደረጉት	-2693
▁በሴ	-2694
▁አህ	-2695
▁ወሰ	-2696
▁ብሩ	-2697
ራር	-2698
ቀላቀ	-2699
ኖራቸው	-2700
▁ቅድመ	-2701
▁ከተሞች	-2702
▁ቼ	-2703
▁ባለፈው	-2704
▁ክት	-2705
▁ቁር	-2706
ፕሪል	-2707
▁አይነት	-2708
ግዚአብሔር	-2709
ግራፊ	-2710
▁ቅርፅ	-2711
ሎምፒክ	-2712
▁ማግኘት	-2713
▁ሥርዓት	-2714
▁ጥቅምት	-2715
▁ቺ	-2716
▁አዛዥ	-2717
ላማዊ	-2718
▁ሳን	-2719
▁የለው	-2720
▁ስትራቴጂ	-2721
▁አቀማ	-2722
ከባቢው	-2723
▁መንገዶች	-2724
ካከት	-2725
▁?	-2726
▁ኦር	-2727
በረታ	-2728
▁በጥር	-2729
ሶችን	-2730
▁አስቸ	-2731
ናቸው	-2732
ግሪ	-2733
▁2017	-2734
▁የጀርመን	-2735
ካዮች	-2736
▁ተናግረዋል።	-2737
▁ዐ	-2738
▁ሳምን	-2739
ac	-2740
▁የአፍሪካ	-2741
ቡት	-2742
▁አዎ	-2743
ካሄድ	-2744
▁ነጋ	-2745
▁የሙቀት	-2746
▁እነዚህን	-2747
▁ካሉ	-2748
▁በሀ	-2749
▁የአገ	-2750
ንተ	-2751
ቋል።	-2752
▁የወን	-2753
▁የሐ	-2754
ሽኖች	-2755
▁መሆናቸውን	-2756
▁የደቡብ	-2757
ተገ	-2758
▁የቪ	-2759
▁ይናገ	-2760
▁የከ	-2761
ዱን	-2762
▁ምት	-2763
▁ውይይት	-2764
▁ቃለ	-2765
▁ጥሪ	-2766
ራሪ	-2767
▁ተነሳ	-2768
▁በጭ	-2769
▁ሲቲ	-2770
il	-2771
▁ናት	-2772
▁ወለድ	-2773
ቀቅ	-2774
▁ተቀባይነት	-2775
ባይ	-2776
ስትና	-2777
▁ምንጭ	-2778
ክላ	-2779
ገረ	-2780
▁ስርዓቶች	-2781
ራንስ	-2782
ራች	-2783
ሪዮ	-2784
▁መፈ	-2785
ጣቸው	-2786
ዱት	-2787
ዴል	-2788
▁የሸ	-2789
▁ቤተመ	-2790
ዲን	-2791
▁እስካ	-2792
ድኑ	-2793
▁ተገል	-2794
▁ለምን	-2795
▁መጽሔ	-2796
▁ተናግረዋል	-2797
▁ይገል	-2798
ላትን	-2799
ቅምት	-2800
▁ደብዳቤ	-2801
▁ገለልተኛ	-2802
ጠረው	-2803
▁እውቅና	-2804
▁ፕሮጀክት	-2805
▁የጊዜ	-2806
ሽኑ	-2807
▁ሥዕ	-2808
ጣሪ	-2809
▁አደ	-2810
▁ሲነፃፀ	-2811
ግባት	-2812
ጠፋ	-2813
▁አልነበረ	-2814
ሎቹ	-2815
?.	-2816
ጠነ	-2817
▁ሳይቆይ	-2818
▁ዕድል	-2819
▁መኖሪያ	-2820
▁የቀድሞው	-2821
ከማ	-2822
ንተር	-2823
▁ያቀ	-2824
ዚያን	-2825
▁የሚከተ	-2826
▁ምድ	-2827
ናሽ	-2828
▁ማዕከላዊ	-2829
▁ስፍራ	-2830
ኪን	-2831
ጫዎች	-2832
▁የሴቶች	-2833
ባለ	-2834
▁የምን	-2835
ሽንግተን	-2836
ረሱ	-2837
▁ቁልፍ	-2838
▁ባህል	-2839
▁ስህ	-2840
▁በሊ	-2841
▁በሮ	-2842
ad	-2843
▁ይችላል።	-2844
2)	-2845
▁በጉ	-2846
▁ሰጠ	-2847
▁m	-2848
▁ግጭት	-2849
ቲቭ	-2850
ሎን	-2851
▁ገለ	-2852
▁...	-2853
▁ትዕዛዝ	-2854
ዘጋጀት	-2855
▁የተደረገ	-2856
ማው	-2857
አዊ	-2858
ጎል	-2859
ሪያን	-2860
▁እንክብ	-2861
ዳይ	-2862
▁ሰዓ	-2863
▁የሚገኝ	-2864
▁አሸን	-2865
ሠሩ	-2866
▁ተፅ	-2867
▁27	-2868
ገባት	-2869
▁ስደ	-2870
▁28	-2871
▁በኖ	-2872
ደገፍ	-2873
▁መልኩ	-2874
▁ዘገባ	-2875
▁አስኪያ	-2876
ሎም	-2877
▁ኔ	-2878
▁ፈጣን	-2879
▁ክርክ	-2880
▁ነገሥ	-2881
ረኛ	-2882
ረጠ	-2883
▁ትንተና	-2884
▁ርዝ	-2885
▁እንክብካቤ	-2886
▁ተን	-2887
ጽሑ	-2888
▁የመረጃ	-2889
▁ይዞ	-2890
ጠናቀቀ	-2891
ዘም	-2892
▁መዋቅ	-2893
ይናንስ	-2894
▁ዊሊያ	-2895
ቲክስ	-2896
እምሮ	-2897
ቅደ	-2898
ዋሚ	-2899
ent	-2900
ባሉ	-2901
ይህ	-2902
▁ከሞ	-2903
ውሰድ	-2904
▁መካከለኛ	-2905
▁ከሁለት	-2906
▁ባህላዊ	-2907
▁26	-2908
▁ፋብሪካ	-2909
▁ነጭ	-2910
▁በሁሉም	-2911
ሬው	-2912
▁እርዳታ	-2913
▁ጉልህ	-2914
ፈራ	-2915
▁ባዮ	-2916
ነቶችን	-2917
መለከ	-2918
▁መሰረ	-2919
ሬይ	-2920
ይረስ	-2921
▁የሙከራ	-2922
▁O	-2923
▁ትንታኔ	-2924
▁2006	-2925
▁ዝርያ	-2926
ሃል	-2927
▁አውሮፕላን	-2928
▁አማካይ	-2929
▁ክርስቲያ	-2930
▁ርቀት	-2931
ያይ	-2932
▁በመጀመሪያው	-2933
▁አመለካከት	-2934
▁ውድቅ	-2935
▁ቢያ	-2936
▁2020	-2937
በለ	-2938
ሮሞ	-2939
ሃት	-2940
▁ጓደ	-2941
▁ሥርዓ	-2942
▁ባህሪያ	-2943
▁በታህሳስ	-2944
▁ማራ	-2945
ሌዳ	-2946
ጎን	-2947
ቀበል	-2948
▁ኦፊ	-2949
ፍን	-2950
▁ተቋም	-2951
▁ባሕ	-2952
▁የሳ	-2953
ክክል	-2954
▁ሰላም	-2955
ፋፋ	-2956
ቁት	-2957
▁የሚለውን	-2958
ርሽ	-2959
▁በተከታታይ	-2960
▁የተቀመ	-2961
▁ብሏል	-2962
▁ከጥ	-2963
▁የሳይ	-2964
▁ናሙና	-2965
▁ልጆ	-2966
▁ፕሪ	-2967
ጠቅላ	-2968
ጣሊያን	-2969
በራ	-2970
▁ኢንተር	-2971
▁እንደሚያሳ	-2972
▁ልውው	-2973
▁መፍትሄ	-2974
ዩን	-2975
ሮቹ	-2976
ጠራው	-2977
▁ኑ	-2978
ጠኝ	-2979
▁th	-2980
▁ቻር	-2981
▁ክስተት	-2982
▁አምባ	-2983
▁በሆ	-2984
▁189	-2985
▁ውድድ	-2986
▁2000	-2987
▁ፍት	-2988
▁የድር	-2989
▁ግማሽ	-2990
▁ባር	-2991
▁በስተቀር	-2992
▁ንዑስ	-2993
ባባሪ	-2994
▁t	-2995
▁መዝገብ	-2996
ፍታት	-2997
▁የተባለ	-2998
ሰቢያ	-2999
ንቃ	-3000
▁በይፋ	-3001
▁ባለሙያ	-3002
▁ይመስላል	-3003
▁ህገ	-3004
▁ውህ	-3005
▁ቀረ	-3006
▁መሪዎች	-3007
ሰጡ	-3008
ሏቸው	-3009
▁የቢ	-3010
▁ወንጀል	-3011
▁ብሄ	-3012
ሳቢ	-3013
▁f	-3014
ፏል	-3015
▁በቀላሉ	-3016
▁ኮሚሽን	-3017
▁የተወሰነ	-3018
▁ሽልማ	-3019
▁ረገድ	-3020
▁አሌ	-3021
▁አልባ	-3022
▁ተገቢ	-3023
ገናኝ	-3024
▁በከተማ	-3025
▁ተካሂ	-3026
▁የቻይና	-3027
ቦል	-3028
ለሁ።	-3029
ያትር	-3030
አት	-3031
▁የአካባቢ	-3032
መሩ	-3033
▁አማራጭ	-3034
መለከቱ	-3035
▁ያቀር	-3036
ቦና	-3037
▁እሱም	-3038
▁ኤፍ	-3039
▁ሦስት	-3040
▁አቀማመጥ	-3041
ያቂ	-3042
▁አጭር	-3043
ለጥ	-3044
▁ገጽታ	-3045
▁ሹ	-3046
▁በክል	-3047
▁ዳግ	-3048
▁ካለው	-3049
▁አልቻ	-3050
▁ፕሮጀክ	-3051
▁እንድት	-3052
▁የአት	-3053
ወሰነ	-3054
▁መቀመ	-3055
▁በገ	-3056
▁ተጫውቷል	-3057
ትዮጵያን	-3058
▁በሩ	-3059
▁ንግግር	-3060
▁የተለየ	-3061
▁መስተ	-3062
▁ሰባት	-3063
▁ቅን	-3064
▁አስከ	-3065
ፕስ	-3066
▁በጋራ	-3067
▁የተሻለ	-3068
▁የና	-3069
▁ዓመቱ	-3070
ፍና	-3071
▁2019	-3072
ኒስ	-3073
▁በአዲስ	-3074
▁ማግ	-3075
▁አድራ	-3076
▁ቦርድ	-3077
▁እውነተኛ	-3078
ጀንሲ	-3079
▁አልነ	-3080
▁ጸሐፊ	-3081
▁ኋላ	-3082
ባቸውን	-3083
ዌል	-3084
ፃሚ	-3085
▁ስልጠና	-3086
ጽኦ	-3087
▁የምግብ	-3088
ኳይ	-3089
ላልቅ	-3090
▁ሊሆኑ	-3091
▁ያመለክ	-3092
▁የዘር	-3093
▁የምስ	-3094
ጥበ	-3095
▁በቅርቡ	-3096
▁ኢንዱስትሪ	-3097
▁መንግስታት	-3098
▁ስልጣን	-3099
ጾች	-3100
ረጡ	-3101
15	-3102
ቬምበር	-3103
▁ወገ	-3104
ርስቶስ	-3105
ነግ	-3106
▁ኢኮኖሚያዊ	-3107
▁ሆስፒታል	-3108
▁ማይክሮ	-3109
▁ይፋ	-3110
▁በእንግሊዝ	-3111
ሪያው	-3112
▁የድምፅ	-3113
▁የክልል	-3114
▁በማን	-3115
▁በዘ	-3116
▁40	-3117
ልባ	-3118
▁መድረክ	-3119
▁ሰሌዳ	-3120
▁ማሻሻያ	-3121
▁ለመከላከል	-3122
▁ሐዲድ	-3123
▁የተቆራ	-3124
▁ፉ	-3125
▁ስኬት	-3126
ለን።	-3127
▁ተመር	-3128
▁ድምጽ	-3129
▁ባለሙያዎች	-3130
ክሲኮ	-3131
▁አዘጋጅ	-3132
▁ግለሰቦች	-3133
ከሰቱ	-3134
▁o	-3135
ውድ	-3136
ጄኔ	-3137
▁በጦር	-3138
በልጥ	-3139
ካማ	-3140
ቶታል	-3141
▁ተቆጣ	-3142
ሲን	-3143
ሮና	-3144
▁በሕይወት	-3145
ቀርብ	-3146
▁የእግር	-3147
▁ዝርያዎች	-3148
ቀፍ	-3149
▁በዚያው	-3150
▁ያስከት	-3151
ቋረጥ	-3152
ገናኘ	-3153
ውና	-3154
▁ፍቅር	-3155
▁ለህ	-3156
ወለደው	-3157
▁የምርጫ	-3158
▁ማው	-3159
ዮቹ	-3160
3)	-3161
ሠረታዊ	-3162
ስተካከ	-3163
▁የኬ	-3164
▁ያስች	-3165
ዌር	-3166
▁የጨዋታ	-3167
ሉትን	-3168
ይማኖት	-3169
▁አሰልጣኝ	-3170
ዚሁ	-3171
ምሯል	-3172
▁ጣልቃ	-3173
▁ርዝመት	-3174
▁በመስጠት	-3175
▁ሚዲያ	-3176
▁ያካትታል	-3177
▁መስጠት	-3178
▁ተሳትፎ	-3179
ድስ	-3180
ችልም	-3181
▁በዚህም	-3182
▁ሐምሌ	-3183
▁በእነዚህ	-3184
▁የፊልም	-3185
▁ስቱ	-3186
▁የሬ	-3187
▁ፍላጎ	-3188
▁ተሽከርካ	-3189
▁ጳጳ	-3190
▁ከበ	-3191
እኖ	-3192
ክሽን	-3193
▁ቢሊዮን	-3194
ሳቦች	-3195
ቸር	-3196
▁ጥንካ	-3197
መሰ	-3198
መርመር	-3199
ሳሰብ	-3200
▁መለያ	-3201
▁አገሮች	-3202
▁በምስ	-3203
ጓዝ	-3204
ቫል	-3205
ሥራቅ	-3206
▁ግብር	-3207
▁መብቶች	-3208
▁ጠየ	-3209
▁መለኪ	-3210
▁ገበያ	-3211
ገናኙ	-3212
▁በትን	-3213
ላቅ	-3214
ክሌ	-3215
ሞክራ	-3216
ሆኑም	-3217
▁ክም	-3218
▁ጄኔራል	-3219
▁ሪፐብ	-3220
▁የአካል	-3221
ብብር	-3222
መና	-3223
em	-3224
ዋርድ	-3225
ባታ	-3226
▁ብቃት	-3227
▁ወጣቶች	-3228
▁እስኪ	-3229
▁ፈተና	-3230
▁የቅርብ	-3231
▁ተስማሚ	-3232
▁ለብ	-3233
▁የሕይወት	-3234
▁በቁጥጥር	-3235
ይዝ	-3236
▁ይው	-3237
▁የመጡ	-3238
▁እንደነበር	-3239
▁ምልክቶች	-3240
▁ብርሃን	-3241
ሥር	-3242
▁ምሽት	-3243
ቅድመ	-3244
ርፍ	-3245
ጓዴ	-3246
▁ኢንስ	-3247
▁እስካሁን	-3248
▁ተወዳጅ	-3249
▁አውራጃ	-3250
▁እም	-3251
▁ተዋናይ	-3252
▁የሰብ	-3253
▁ልውውጥ	-3254
ሆናቸው	-3255
ንዱስትሪ	-3256
▁ዝግጅት	-3257
▁ዞን	-3258
▁ይገልጻ	-3259
▁የፈረንሳይ	-3260
▁ማለትም	-3261
ገባደ	-3262
▁በተደጋጋሚ	-3263
▁በግንቦት	-3264
ከናወን	-3265
▁ተከላ	-3266
ሳራ	-3267
▁ይጠቀ	-3268
ቫን	-3269
▁በእርስ	-3270
▁አንዳን	-3271
▁አዲሱ	-3272
ከረ	-3273
▁አውሮፕላ	-3274
ሄዱ	-3275
ረንጓዴ	-3276
▁ተይ	-3277
▁ክብር	-3278
▁ያስተ	-3279
▁ብላ	-3280
ጿል።	-3281
መንበር	-3282
▁ተናግሯል።	-3283
17	-3284
▁ይሆና	-3285
ሠራር	-3286
ጫው	-3287
▁ትምህር	-3288
▁በድን	-3289
▁ሰማ	-3290
ሻን	-3291
▁ሚሊ	-3292
▁እርግ	-3293
▁ከህ	-3294
▁ይጠይ	-3295
5)	-3296
▁in	-3297
ያቸው	-3298
▁ከኦ	-3299
▁ተከታ	-3300
ሮው	-3301
ሻል	-3302
▁ለን	-3303
▁ግኝ	-3304
▁አንፃ	-3305
ዳረ	-3306
ጉን	-3307
▁ጉብኝት	-3308
▁ተወስ	-3309
▁ያነሰ	-3310
▁እንደሌ	-3311
ፉን	-3312
iv	-3313
▁ይገባል	-3314
ገለጸ	-3315
▁ዘርፍ	-3316
ገራችን	-3317
▁ሽፋን	-3318
ንቀት	-3319
ቀድ	-3320
▁እንግሊዝ	-3321
▁ተለይ	-3322
▁ምንጮች	-3323
▁ትስ	-3324
us	-3325
በኞች	-3326
▁29	-3327
▁በበርካታ	-3328
▁ሞተ	-3329
▁ክልሎች	-3330
▁አዎንታዊ	-3331
ጋገር	-3332
ለቆ	-3333
▁የመከላከያ	-3334
▁የአን	-3335
16	-3336
ለበት	-3337
▁የተገ	-3338
▁ብል	-3339
▁አረጋግ	-3340
ሴላዊ	-3341
▁መለኪያዎች	-3342
ም፣	-3343
ሐይ	-3344
▁ዲግሪ	-3345
▁ባለፉት	-3346
▁የበረዶ	-3347
▁አስመ	-3348
ላሳ	-3349
ጣቱ	-3350
▁በቀጣዩ	-3351
▁ሙከራዎች	-3352
▁ግዛቶች	-3353
ለፍ	-3354
ካካ	-3355
▁በጥቅምት	-3356
▁በኩ	-3357
ባሪ	-3358
▁ግፊት	-3359
ሸነፈ	-3360
▁ከብ	-3361
▁ማብ	-3362
▁ፕሮፌሰር	-3363
ቃሉ	-3364
መረብ	-3365
ገባደጃ	-3366
▁ጠመንጃ	-3367
▁ፕሬዚዳንት	-3368
▁አድና	-3369
▁እውነት	-3370
▁ድንጋ	-3371
▁ረቂ	-3372
▁አሰጣጥ	-3373
▁እህ	-3374
▁በመስከረም	-3375
▁በብዙ	-3376
ሳሰ	-3377
▁በእርግ	-3378
▁ትርጉም	-3379
▁እጥረት	-3380
▁በነበረ	-3381
▁አትሌ	-3382
▁ጠቁ	-3383
▁መገባደጃ	-3384
ኮል	-3385
▁በቢ	-3386
ዊስ	-3387
▁ሐሳብ	-3388
▁ውስጣዊ	-3389
▁ብዬ	-3390
▁ማድረ	-3391
4)	-3392
▁የቴክ	-3393
▁ኢትዮጵያዊ	-3394
ቲከ	-3395
▁??	-3396
▁መላ	-3397
▁ትርዒ	-3398
▁ጣቢያዎች	-3399
ዲት	-3400
▁ድግ	-3401
▁የተዋ	-3402
ክሪ	-3403
▁የመጽሐ	-3404
▁የሚታ	-3405
▁የቻ	-3406
▁ጠቃ	-3407
▁ክፍት	-3408
▁ኤስ	-3409
▁መልክ	-3410
▁የዜ	-3411
ፈለግ	-3412
ገለጹት	-3413
▁አሉት	-3414
▁ሪኮ	-3415
▁1,	-3416
ራጮች	-3417
::	-3418
▁ወዲያው	-3419
▁ክፍያ	-3420
▁ኮንግ	-3421
▁ስን	-3422
▁በተያያዘ	-3423
▁ሼ	-3424
▁ክስተቶች	-3425
▁የተሳ	-3426
▁ማረፊያ	-3427
▁ሆና	-3428
▁ጠቃሚ	-3429
▁መወለ	-3430
▁ስኬታማ	-3431
▁ሲነፃፀር	-3432
▁ሊቀመንበር	-3433
▁ይታወቃል	-3434
▁ተልዕ	-3435
ቸት	-3436
and	-3437
▁ወላ	-3438
ጉሠ	-3439
ማሉ	-3440
▁እይታ	-3441
▁ስጋት	-3442
▁ከሌ	-3443
▁ምድር	-3444
ዓዊ	-3445
▁ያሉትን	-3446
▁ተር	-3447
▁ይተ	-3448
▁ቅደም	-3449
▁አስቸጋሪ	-3450
ሮም	-3451
▁ተወላጅ	-3452
▁188	-3453
▁ነፋስ	-3454
ልቀት	-3455
ቃወም	-3456
▁ድልድ	-3457
ደናቂ	-3458
▁እንቅስቃሴዎች	-3459
▁መጨመር	-3460
▁እግ	-3461
ስቸ	-3462
▁ሆኗል	-3463
▁የሴ	-3464
▁ነፃነት	-3465
▁መረ	-3466
▁የአር	-3467
▁ዲቪ	-3468
እንደ	-3469
▁የምርምር	-3470
▁ስምንት	-3471
ሚዝ	-3472
መራው	-3473
▁ያካትታሉ	-3474
▁1990	-3475
▁በቤተ	-3476
▁ከኮ	-3477
ቤል	-3478
ፎችን	-3479
ለቲከ	-3480
ጨም	-3481
ያሜ	-3482
ገምገ	-3483
ፃናት	-3484
▁ይቻላል	-3485
▁በሆነው	-3486
▁ጆርጅ	-3487
▁የዶ	-3488
ay	-3489
ሻሽ	-3490
▁የሱ	-3491
ፊቱ	-3492
▁የበጋ	-3493
ካሄደ	-3494
▁መሐ	-3495
▁የዴ	-3496
▁ዉ	-3497
▁እንዳለው	-3498
-0	-3499
▁2005	-3500
▁ቋሚ	-3501
▁ናይ	-3502
▁የሕክምና	-3503
▁ምህ	-3504
▁የተዛመዱ	-3505
ዶቹ	-3506
▁ወለል	-3507
ሳተፉ	-3508
▁በሁለቱም	-3509
▁ደርሷል	-3510
▁ትግል	-3511
ካተተ	-3512
ቧል።	-3513
▁የእሱ	-3514
ሮሚያ	-3515
▁ሪፖር	-3516
ስተዳደር	-3517
▁መሳሪያዎች	-3518
▁ቁጥ	-3519
አንድ	-3520
1)	-3521
▁ጠር	-3522
ነስ	-3523
ቆጣጠ	-3524
ኒየር	-3525
▁አስፈፃሚ	-3526
ንጋ	-3527
▁አገልግሎቶች	-3528
ቆየት	-3529
▁186	-3530
▁ወደሚ	-3531
▁ኮርፖ	-3532
▁ትስስር	-3533
▁ጥያቄዎች	-3534
▁ስፔ	-3535
ቂኝ	-3536
▁ተገኝቷል	-3537
ቡባዊ	-3538
▁መርሃ	-3539
ስያ	-3540
▁ይቆ	-3541
ዘርላንድ	-3542
ጠቅላይ	-3543
▁ገና	-3544
ላቂ	-3545
ኩት	-3546
ተኝነት	-3547
▁ለውጦች	-3548
ክን	-3549
▁ተመለሰ	-3550
▁የጂ	-3551
▁አሳይቷል	-3552
id	-3553
በሉ	-3554
▁ነጥቦች	-3555
ሻየር	-3556
ሪንግ	-3557
ሺያ	-3558
▁አይደለም።	-3559
▁ስብስ	-3560
▁0,	-3561
▁የፌ	-3562
ሱት	-3563
ከሰት	-3564
▁በግምት	-3565
▁ደካማ	-3566
▁II	-3567
▁በሐምሌ	-3568
▁ቪዲዮ	-3569
▁የሰሜን	-3570
▁በኖቬምበር	-3571
▁አድርገዋል	-3572
ሌን	-3573
▁የአይ	-3574
▁የመል	-3575
ዘው	-3576
ur	-3577
▁ከመጠን	-3578
▁ብሏል።	-3579
ኮችን	-3580
▁ኤጀንሲ	-3581
ሚክ	-3582
አን	-3583
ገምገም	-3584
▁የአዲስ	-3585
ግራፍ	-3586
▁J	-3587
ሬዎች	-3588
▁ተልዕኮ	-3589
ቀርቡ	-3590
▁የሚቆጠሩ	-3591
▁ያተኮ	-3592
▁በጋ	-3593
▁የግብ	-3594
▁የቱ	-3595
ነታቸው	-3596
መቻ	-3597
▁ምናልባትም	-3598
ዋር	-3599
▁የሰራ	-3600
▁የዱ	-3601
▁የሚጠ	-3602
የሱ	-3603
በራት	-3604
▁ግድግዳ	-3605
▁ከዚህም	-3606
ዳጊ	-3607
ክፈ	-3608
12	-3609
▁ፌዴ	-3610
▁አስተዋጽኦ	-3611
ዋወ	-3612
▁የማህ	-3613
ጠቅላላው	-3614
▁፡፡	-3615
▁ባን	-3616
ሩም	-3617
በታ	-3618
ነቃ	-3619
▁ኦፊሴላዊ	-3620
....	-3621
ዎቻቸው	-3622
▁በእጅ	-3623
▁በደን	-3624
▁ኃላፊነት	-3625
▁ነገሮችን	-3626
▁ኤድ	-3627
▁ቻይና	-3628
▁ጉባኤ	-3629
ናገሩት	-3630
▁ባለሥልጣናት	-3631
ባረ	-3632
▁ከግምት	-3633
ኙነት	-3634
ባድ	-3635
▁የመጀመሪያዎቹ	-3636
ጅቱ	-3637
▁ሀገሮች	-3638
▁መጣ	-3639
40	-3640
▁ረጅም	-3641
▁አዳራሽ	-3642
ቴክ	-3643
ጠናቀቅ	-3644
▁ሓ	-3645
ማረ	-3646
▁ቡና	-3647
ሪያል	-3648
▁የኢኮኖሚ	-3649
▁ማጥ	-3650
▁ሊያስ	-3651
▁መኮ	-3652
▁ሰጪ	-3653
▁ጠብ	-3654
ጥበባት	-3655
ህአዴግ	-3656
▁ከኤ	-3657
ብል	-3658
ኒን	-3659
▁ባንድ	-3660
መጽሐ	-3661
▁ለመቀነስ	-3662
ጦችን	-3663
ዳዳሪ	-3664
▁ተሳታ	-3665
▁የሚያስችል	-3666
▁ባለቤ	-3667
▁2004	-3668
▁2021	-3669
▁ከው	-3670
ታለች	-3671
▁ብቸኛ	-3672
▁ጠይ	-3673
▁ግብረ	-3674
▁ልክ	-3675
ሞር	-3676
▁ፍሰት	-3677
ቸዉ	-3678
ተኮር	-3679
▁ተጠያቂ	-3680
ልተን	-3681
ዘጋጃ	-3682
▁ጠፍ	-3683
ዊን	-3684
ጠኝነት	-3685
ers	-3686
▁ወረራ	-3687
▁የታሪክ	-3688
▁ወዲህ	-3689
▁የተሞ	-3690
▁ክብደት	-3691
▁ድንበር	-3692
----	-3693
ማዎች	-3694
ዳሉ	-3695
▁ከክ	-3696
ራቢ	-3697
ፕሎ	-3698
▁የተመሰረቱ	-3699
ማውያን	-3700
▁አመራር	-3701
▁ኦፕሬ	-3702
▁የቡድን	-3703
▁የሕዝብ	-3704
ብረተሰብ	-3705
ዘጋጁ	-3706
▁ግዙ	-3707
▁መደም	-3708
▁of	-3709
ወሓ	-3710
▁ታው	-3711
ድሜ	-3712
መለከት	-3713
▁የቅዱስ	-3714
▁የላ	-3715
ናንሽ	-3716
▁ያደርገዋል	-3717
ዘመናዊ	-3718
▁ዳን	-3719
▁አረ	-3720
▁የተወሰኑ	-3721
▁ሕንፃዎች	-3722
▁ጓደኛ	-3723
▁ተፅእኖ	-3724
▁ነበሩ።	-3725
ረጋጋት	-3726
▁h	-3727
▁ምስል	-3728
▁መኖር	-3729
▁ዊል	-3730
▁ጥምረት	-3731
ነኛ	-3732
▁ዝና	-3733
▁ሳምንታት	-3734
▁የሁለት	-3735
ከታተል	-3736
▁ወኪ	-3737
▁የብረት	-3738
▁በጆ	-3739
ውንድ	-3740
▁የፒ	-3741
▁የይ	-3742
▁አካዳሚ	-3743
▁ተጠቃሚ	-3744
▁ሚኒስትሩ	-3745
▁በአውሮፓ	-3746
▁ብቸኛው	-3747
ብቻ	-3748
▁የሄ	-3749
▁ተቀላቀ	-3750
▁ራሱን	-3751
▁ከት	-3752
ቻርድ	-3753
▁ንድፍ	-3754
▁ወዲያውኑ	-3755
▁የተከሰ	-3756
▁ፖለቲከ	-3757
▁ጠባቂ	-3758
▁ያቀረ	-3759
▁ስቴት	-3760
▁ሦስተኛ	-3761
▁የፌዴራል	-3762
ቅን	-3763
▁በአካባቢው	-3764
ፕላ	-3765
▁1980	-3766
ሳተፍ	-3767
▁አውቶ	-3768
▁ጎል	-3769
▁ወንጀ	-3770
▁ልጃ	-3771
▁ለመለየት	-3772
▁ትውልድ	-3773
▁ተዛወረ	-3774
▁በከፊል	-3775
▁ንቁ	-3776
▁አስኪያጅ	-3777
▁ተገን	-3778
▁የማዕ	-3779
▁የካናዳ	-3780
ዚዮን	-3781
ሜናዊ	-3782
▁ርዕስ	-3783
▁መገለ	-3784
▁መኮን	-3785
ቶሪ	-3786
ንቃቄ	-3787
▁መዋቅር	-3788
ሻው	-3789
ወገ	-3790
ገናኘት	-3791
ከፍ	-3792
▁መርከብ	-3793
▁ነጋዴ	-3794
▁ያልተለመ	-3795
ላችሁ	-3796
▁ያስከትላል	-3797
ደሚያ	-3798
▁ስሪት	-3799
▁የኤሌክትሪክ	-3800
▁ምሁራን	-3801
▁እንስሳት	-3802
ይንት	-3803
ዳም	-3804
▁ጥንካሬ	-3805
▁ረድ	-3806
ሮጌ	-3807
▁እንዲሆን	-3808
▁መቀነስ	-3809
ጋቸው	-3810
▁አገራት	-3811
ወያ	-3812
▁ትናንሽ	-3813
ቃል።	-3814
ፊልድ	-3815
▁ክምችት	-3816
ገሩ	-3817
▁ደርሶ	-3818
ድረስ	-3819
ዎን	-3820
▁ተደራ	-3821
ሪጅ	-3822
ነተኛ	-3823
▁አባት	-3824
▁ክህ	-3825
▁የራስ	-3826
▁በምር	-3827
ግግር	-3828
ቨስት	-3829
ተናል	-3830
▁ቅርንጫ	-3831
▁መጋ	-3832
▁ኢትዮጵያውያን	-3833
ul	-3834
▁መልስ	-3835
▁መጻ	-3836
▁የሙያ	-3837
ሸራተ	-3838
▁አሉታዊ	-3839
▁ድራማ	-3840
ፈፀ	-3841
▁ተጠና	-3842
▁ኅ	-3843
▁ፓርቲዎች	-3844
!!	-3845
▁ትሪ	-3846
▁ራሱ	-3847
ናው	-3848
ተኩ	-3849
▁በራስ	-3850
▁ጄምስ	-3851
ታም	-3852
▁ማም	-3853
▁በእውነቱ	-3854
ሞክራሲያዊ	-3855
ንግስ	-3856
▁ለማረጋገጥ	-3857
▁ግንኙነቶች	-3858
ቪዬ	-3859
▁ሲሆኑ	-3860
ናጋ	-3861
▁ሁል	-3862
▁የሪ	-3863
▁እንዳለበት	-3864
ርቭ	-3865
ሬስ	-3866
ከን	-3867
ኤች	-3868
▁ዋናው	-3869
▁ጥላ	-3870
ታወቁ	-3871
▁የወጣ	-3872
ation	-3873
▁መኮንን	-3874
▁የሚወስ	-3875
▁በእያንዳንዱ	-3876
▁ይገባ	-3877
ቀጠል	-3878
▁ሰን	-3879
ቋቋሙ	-3880
▁ረቂቅ	-3881
▁በዋናነት	-3882
▁ህዳር	-3883
▁አብዮ	-3884
▁ፀረ	-3885
▁የቲ	-3886
ተመ	-3887
▁ቤተሰቦች	-3888
-2	-3889
ልግሎት	-3890
te	-3891
▁በጠ	-3892
በላሸ	-3893
▁የመጨረሻው	-3894
ረበ	-3895
▁አስከት	-3896
▁ለት	-3897
▁ደሴት	-3898
▁ባለብዙ	-3899
መጡ	-3900
ለኝ	-3901
▁መረጃዎችን	-3902
▁አድርጓ	-3903
ህረ	-3904
▁ለመፍጠር	-3905
ቃቤ	-3906
▁«	-3907
ጽሑፍ	-3908
▁አስራ	-3909
ia	-3910
▁ያደረገው	-3911
▁ዕቅድ	-3912
▁በምት	-3913
▁ግዴ	-3914
▁መጽሔት	-3915
▁ከላይ	-3916
▁የቀረበ	-3917
▁ሀብት	-3918
ሻገር	-3919
▁(18	-3920
▁የስራ	-3921
▁ህክምና	-3922
▁መግቢያ	-3923
▁የፈጠራ	-3924
ኖራ	-3925
▁አስታውቋል	-3926
▁ሕገ	-3927
▁የሚተ	-3928
▁በኋላም	-3929
ንሪ	-3930
ምባ	-3931
▁የአውስትራሊያ	-3932
▁ዎ	-3933
▁ተቀብ	-3934
60	-3935
ጀመሪያው	-3936
▁መደምደሚያ	-3937
▁ለመጠበቅ	-3938
▁የኑ	-3939
▁አገዛዝ	-3940
▁እስር	-3941
▁ይበልጥ	-3942
ታች	-3943
ወድ	-3944
ራስ	-3945
▁በሂ	-3946
▁ተጠር	-3947
ላቱ	-3948
▁ዕቃዎች	-3949
ቻሉ	-3950
▁በሰው	-3951
▁አጋር	-3952
መጽሐፍት	-3953
ከበር	-3954
▁እንዲፈ	-3955
ልጋ	-3956
▁187	-3957
▁ተነሳሽነት	-3958
ዳድ	-3959
▁የያዘ	-3960
▁መድኃ	-3961
▁ዘፈን	-3962
▁ለመሆን	-3963
ንጀ	-3964
▁በመጥ	-3965
▁ኤር	-3966
▁ሽን	-3967
▁ባልደረ	-3968
ag	-3969
▁ነዋሪ	-3970
▁ህይወ	-3971
ጊዜው	-3972
▁ግልፅ	-3973
▁ደም	-3974
▁ማህበረ	-3975
ሂብ	-3976
▁ተወካዮች	-3977
ያዝያ	-3978
▁አንድነት	-3979
ራዎች	-3980
ለጋ	-3981
▁ኢንስቲት	-3982
ቃሽ	-3983
▁the	-3984
ጂታል	-3985
▁ይዘት	-3986
▁ዴቪድ	-3987
▁ነኝ	-3988
▁በማይ	-3989
▁ፍሬ	-3990
▁ቨር	-3991
ስቸኳይ	-3992
ሜሽን	-3993
ጥፍ	-3994
▁ይገኙ	-3995
ፈተ	-3996
▁መጠቀም	-3997
ባጭ	-3998
▁60	-3999
▁ወረርሽ	-4000
▁ከኢ	-4001
▁ተንቀሳ	-4002
▁ተዘጋጅ	-4003
▁ግዙፍ	-4004
▁ካሮ	-4005
ቢን	-4006
▁ግምት	-4007
ሞት	-4008
ዥያ	-4009
▁ካለ	-4010
▁ለማሻሻል	-4011
ጨዋታው	-4012
ደርሱ	-4013
▁የሚች	-4014
▁ኪንግደም	-4015
▁ኪሎ	-4016
ደሰ	-4017
▁መልካም	-4018
▁‘	-4019
ዒላማ	-4020
ታውን	-4021
▁በግልጽ	-4022
ቦን	-4023
መስረት	-4024
ላለፊያ	-4025
ጫት	-4026
▁ተለው	-4027
▁የበላይነት	-4028
▁የምርት	-4029
▁ንድፈ	-4030
▁የኪነ	-4031
ግራም	-4032
▁ሩጫ	-4033
▁ማንኛውም	-4034
▁ያስፈል	-4035
▁ኤክስ	-4036
▁መጠይቅ	-4037
ባለው	-4038
▁ማቋቋም	-4039
▁አልበም	-4040
ካከለኛው	-4041
ረጋጋ	-4042
▁ያቀፈ	-4043
▁1970	-4044
ስቲክስ	-4045
ዳሜ	-4046
▁ውሏል	-4047
ረፍት	-4048
ማሩ	-4049
▁መስመሮች	-4050
ሞክሮ	-4051
ከም	-4052
▁በትክክል	-4053
ሊና	-4054
ዳኝ	-4055
ላቁ	-4056
▁ያን	-4057
▁የተገኘ	-4058
6)	-4059
▁የወንጀል	-4060
▁ቀስ	-4061
▁የግንኙነት	-4062
▁ያቀርባል	-4063
ገለፀ	-4064
▁ማዕረግ	-4065
▁አማካኝነት	-4066
▁ድብልቅ	-4067
ቃብር	-4068
▁ተመራቂዎች	-4069
▁በምስራቅ	-4070
ዲየም	-4071
▁በአንዳንድ	-4072
▁የፀረ	-4073
▁እቅድ	-4074
ናቱ	-4075
▁የካር	-4076
▁ነገሥቱ	-4077
▁መወለዶች	-4078
ተኞችን	-4079
ፈረንስ	-4080
▁መጥፎ	-4081
▁መልዕ	-4082
ሎሪ	-4083
▁ስፖርት	-4084
▁ረዳት	-4085
▁ህይወት	-4086
▁እንደሚያመለክ	-4087
▁አውጥ	-4088
▁በማህ	-4089
▁አቅርቦት	-4090
▁ታላቅ	-4091
▁ተብለው	-4092
ጎችን	-4093
ልጠና	-4094
ናይ	-4095
▁በደንብ	-4096
▁ይፈ	-4097
ስማ	-4098
ጁን	-4099
▁የጆ	-4100
▁የማያ	-4101
▁ጡረታ	-4102
ፋር	-4103
▁ዑ	-4104
▁ጸሐፊዎች	-4105
ናል።	-4106
ግን	-4107
ላጭ	-4108
ጨምር	-4109
ig	-4110
ጥበብ	-4111
▁ምሥራቅ	-4112
▁ክሬ	-4113
▁ዳኛ	-4114
▁ጋዜጣ	-4115
ቀቂያ	-4116
▁ከካ	-4117
ሁዳ	-4118
11	-4119
▁በዓል	-4120
▁አቋም	-4121
▁ነፍ	-4122
▁እንደሚችሉ	-4123
▁ይላል	-4124
▁ታማ	-4125
ሾመ	-4126
ባማ	-4127
▁በነበረበት	-4128
▁የተጀመረው	-4129
▁ተባባሪ	-4130
▁የመጽሐፍ	-4131
▁ቅጣት	-4132
ለህ	-4133
ሯቸው	-4134
▁የሳይንስ	-4135
ሟላ	-4136
▁አይደሉም	-4137
▁ኪሳራ	-4138
▁መሠረታዊ	-4139
ec	-4140
ዘረ	-4141
መልከት	-4142
ባህሪያ	-4143
ሳይድ	-4144
ዮሽ	-4145
▁የብር	-4146
▁2003	-4147
ምህራን	-4148
▁የኋላ	-4149
▁በተሰ	-4150
▁አሸናፊዎች	-4151
▁ምርቶች	-4152
ነዋል	-4153
ኘው	-4154
▁የመንገድ	-4155
▁የሚፈ	-4156
▁አንፃር	-4157
▁ዚ	-4158
▁የልማት	-4159
▁ቃላት	-4160
▁አስቂኝ	-4161
▁ዊሊያም	-4162
▁ፕላ	-4163
▁ከሚያ	-4164
ንደር	-4165
ሮድ	-4166
▁አስቆጥ	-4167
▁ገልጸዋል።	-4168
7)	-4169
ጅምላ	-4170
▁ያደርጋ	-4171
▁ጃክ	-4172
▁ጥበብ	-4173
▁ለመግ	-4174
ሴን	-4175
▁በሰፊው	-4176
ክልት	-4177
▁ልዑ	-4178
▁ማረጋገ	-4179
ትሪክ	-4180
▁ተክ	-4181
▁በኬ	-4182
ጋጠ	-4183
▁የፊት	-4184
▁ካን	-4185
▁ገደማ	-4186
▁ሃይማኖ	-4187
▁የተቃ	-4188
ጋና	-4189
ቲቪ	-4190
ቦቹ	-4191
▁አንቀ	-4192
▁ግንባር	-4193
▁የድንጋይ	-4194
▁ይይዛል	-4195
▁በዴ	-4196
▁አጠናቋል	-4197
▁b	-4198
ወሓት	-4199
▁ኦሎምፒክ	-4200
▁ያው	-4201
ዳደሩ	-4202
▁ገልፀዋል	-4203
▁ክሪስ	-4204
ጂያ	-4205
▁በሥ	-4206
▁እሱን	-4207
▁አስተሳሰብ	-4208
ራል።	-4209
▁ይገኛሉ	-4210
▁በአየር	-4211
▁አሃ	-4212
▁ጥግ	-4213
▁ለፊት	-4214
▁በተካሄደው	-4215
▁ኤች	-4216
▁_	-4217
▁ዲቪዚዮን	-4218
▁ቤን	-4219
▁የኢን	-4220
▁ድግግሞ	-4221
ቶኒ	-4222
▁የነበረውን	-4223
▁ወቅታዊ	-4224
▁ታች	-4225
▁ሰላ	-4226
▁ድርጊት	-4227
ራም	-4228
▁ዓይነቶች	-4229
▁ይለ	-4230
▁አንጀ	-4231
▁ተጎ	-4232
ባባይ	-4233
▁አውሮፓ	-4234
ራቶች	-4235
ሪድ	-4236
▁ሐኪ	-4237
▁በበኩ	-4238
ልበት	-4239
ter	-4240
▁ቤዝ	-4241
▁አቅርቧል	-4242
▁መልእ	-4243
ጓዙ	-4244
▁የሌለው	-4245
▁ተፈጥ	-4246
▁በትምህርት	-4247
▁ከፍተኛው	-4248
ያጭ	-4249
▁ሮበርት	-4250
▁ይቅር	-4251
▁ጉዳዮችን	-4252
▁ነው፤	-4253
▁በመላው	-4254
ቶሊክ	-4255
▁የተፈጥሮ	-4256
▁በኪ	-4257
ሳች	-4258
ጥም	-4259
ቭስ	-4260
▁ስሜታዊ	-4261
ዘተ	-4262
▁ጀርመን	-4263
▁በአማ	-4264
▁=	-4265
▁ሙዚየም	-4266
▁በምዕራብ	-4267
▁እናት	-4268
▁እንደመ	-4269
▁መሣሪያዎች	-4270
▁የላይ	-4271
▁ትግ	-4272
▁የደረ	-4273
ቋሚ	-4274
▁የተገኙ	-4275
ሆኗ	-4276
oo	-4277
▁አስተዋፅ	-4278
▁አልነበረም	-4279
በርን	-4280
▁እያለ	-4281
ቻለ	-4282
▁ብለን	-4283
▁መፍ	-4284
በቅ	-4285
ስራኤል	-4286
ከፍተኛ	-4287
ረምት	-4288
▁ቴክኒ	-4289
▁የፎ	-4290
ካው	-4291
▁በቤ	-4292
▁የቅር	-4293
ውሉ	-4294
▁ልዩነቶች	-4295
▁ለመም	-4296
▁የህንድ	-4297
▁ከሃ	-4298
ህና	-4299
ረጋገጠ	-4300
ልኮ	-4301
▁ስለተ	-4302
ቪያ	-4303
ዛሬው	-4304
14	-4305
ቨን	-4306
▁ፌስቲ	-4307
▁በጭራሽ	-4308
▁ሰራተኞች	-4309
▁ለመፍታት	-4310
ዊት	-4311
▁የፖሊስ	-4312
ፖሊ	-4313
▁አገልግሏል	-4314
▁ወግ	-4315
ሮት	-4316
▁ጨዋታዎችን	-4317
ኮትላንድ	-4318
ገነዘ	-4319
▁በድር	-4320
ሰብሰብ	-4321
▁ቶማስ	-4322
▁2022	-4323
አሜሪካ	-4324
▁ደመ	-4325
ዳው	-4326
▁በሦስት	-4327
▁አረንጓዴ	-4328
▁ሠራዊት	-4329
ግባብ	-4330
ገባው	-4331
ችውን	-4332
ላችን	-4333
▁በባህር	-4334
▁ሰዓታት	-4335
ዝቅተኛ	-4336
▁አማካሪ	-4337
ED	-4338
ካቲት	-4339
▁በውጭ	-4340
▁ወገኖች	-4341
ጥብ	-4342
▁ቢኖር	-4343
▁ዋል	-4344
ዳሴ	-4345
▁ለአንድ	-4346
▁ይፈጥ	-4347
▁አጠ	-4348
▁አገሪ	-4349
▁ይጨም	-4350
▁ዩኒ	-4351
▁የጃፓን	-4352
▁በማሳ	-4353
ዮር	-4354
▁አዋጅ	-4355
ጡን	-4356
▁ይወሰ	-4357
▁በጥሩ	-4358
▁ሃር	-4359
▁ግድያ	-4360
▁ጫና	-4361
▁ተሞክሮ	-4362
▁ወገን	-4363
▁በብሔራዊ	-4364
▁ለመገንባት	-4365
ቀቁ	-4366
በመ	-4367
▁ክርክር	-4368
ብረተሰቡ	-4369
▁ኢንስቲትዩት	-4370
ሰጠ	-4371
ዮሎጂ	-4372
▁ያገለግ	-4373
▁ለወ	-4374
ራዊነት	-4375
▁የተከ	-4376
▁ኖር	-4377
▁የተባበሩት	-4378
▁ሚስ	-4379
▁ነበራቸው	-4380
▁በመንግስት	-4381
ዝገብ	-4382
▁የተነሳ	-4383
▁ቲያትር	-4384
ቲስ	-4385
ሯዊ	-4386
ሃዊ	-4387
▁31	-4388
ፕላን	-4389
▁የህክምና	-4390
ሬታ	-4391
▁ማርቲ	-4392
▁2002	-4393
ኖቹ	-4394
ጠየቅ	-4395
▁ዝግጅ	-4396
ut	-4397
ቀሱ	-4398
um	-4399
9)	-4400
ለያየ	-4401
ፈን	-4402
▁ብዙሃን	-4403
ቪን	-4404
25	-4405
▁ጫፍ	-4406
%)	-4407
ንቲባ	-4408
▁የሁለተኛ	-4409
8)	-4410
▁ውጤታማነት	-4411
▁የተሰጠው	-4412
ደቅ	-4413
ዶን	-4414
▁ቀጣይነት	-4415
▁ለማቅረብ	-4416
ቋር	-4417
▁ህንፃ	-4418
ትሪ	-4419
▁ደቂቃዎች	-4420
▁የወርቅ	-4421
ሆንም	-4422
▁ሸለቆ	-4423
▁በቆ	-4424
ሸጥ	-4425
▁ይላሉ	-4426
▁ስያሜ	-4427
ግባባት	-4428
ወዳደር	-4429
ሰሳ	-4430
▁ማመን	-4431
▁መቆ	-4432
▁ወዘተ	-4433
▁ስልተ	-4434
▁ትላልቅ	-4435
በኛ	-4436
▁አዝማ	-4437
▁ቀጥተኛ	-4438
▁መምሪያ	-4439
ፃነት	-4440
▁ንብረ	-4441
▁ተመልክ	-4442
▁አህመድ	-4443
ድም	-4444
▁2001	-4445
▁የሩሲያ	-4446
ረመ	-4447
▁ተዋጊ	-4448
▁ሪፐብሊክ	-4449
ቀዝ	-4450
▁እንደሚያስ	-4451
▁ልምምድ	-4452
▁ሙቀት	-4453
▁አብዛኛው	-4454
▁እድል	-4455
▁ፋይ	-4456
ገውን	-4457
▁የተነ	-4458
ኳር	-4459
▁ጨዋታውን	-4460
ክተ	-4461
▁ዘላቂ	-4462
▁የተቆራኘ	-4463
▁አስተያየ	-4464
▁አመታት	-4465
▁ባህር	-4466
▁ሉዊስ	-4467
ገም	-4468
ሷን	-4469
▁ዓመታዊ	-4470
▁ይነ	-4471
▁በአል	-4472
▁ኮሎ	-4473
እና	-4474
▁ከሶ	-4475
ጾታ	-4476
ዳረሻ	-4477
▁በአቅ	-4478
▁ያሳያሉ	-4479
ከሉ	-4480
ማጅ	-4481
▁በዕ	-4482
▁ስቲ	-4483
ቀላቀል	-4484
▁አውስትራሊያ	-4485
▁በጀርመን	-4486
ባች	-4487
▁ፈር	-4488
ቁም	-4489
▁ኮንፈረንስ	-4490
ማመን	-4491
ቀነባበ	-4492
ከናወኑ	-4493
▁ውጤቶችን	-4494
▁ስምም	-4495
▁የተረ	-4496
ኩስ	-4497
▁ደጋፊ	-4498
▁ደረጃን	-4499
ፎካካ	-4500
ቪስ	-4501
▁ማቆ	-4502
▁የመር	-4503
▁የመንግሥት	-4504
ወሰኑ	-4505
ላለች	-4506
▁ውድድሮች	-4507
▁ትራንስፖርት	-4508
▁ጥንታዊ	-4509
13	-4510
▁ስደተኞች	-4511
▁በፊ	-4512
▁የባለ	-4513
▁የእጅ	-4514
▁The	-4515
▁የስፖርት	-4516
ገመ	-4517
▁ለማስወገድ	-4518
▁አስደናቂ	-4519
▁ይጀም	-4520
የሱስ	-4521
▁ኦፍ	-4522
▁ፓር	-4523
▁ሌላው	-4524
▁በመጋቢት	-4525
▁ስፋት	-4526
▁ሄደ	-4527
▁ሴንት	-4528
▁ሰለ	-4529
▁ሽልማቶች	-4530
▁አሜሪካውያን	-4531
▁ደህን	-4532
ኬሽን	-4533
ስቡ	-4534
▁1960	-4535
▁ሰል	-4536
ታይን	-4537
▁•	-4538
▁ነጻ	-4539
ክፈቻ	-4540
ከሩ	-4541
ቋንቋ	-4542
ፈቀደ	-4543
▁n	-4544
▁ያካተተ	-4545
▁መንደር	-4546
▁X	-4547
▁ተተክ	-4548
▁ተሰጥቶታል	-4549
▁በተቃራኒ	-4550
ሷል።	-4551
▁ተግባራት	-4552
ሜታ	-4553
ቻለው	-4554
▁ተረጋግ	-4555
▁በሄ	-4556
ገዛ	-4557
▁ተፈጥሮ	-4558
▁የተራ	-4559
▁አሜሪካዊ	-4560
▁በላ	-4561
ቀዋል።	-4562
ጉር	-4563
▁መኮንኖች	-4564
▁ሞተር	-4565
▁ሐውል	-4566
ስተና	-4567
ግበር	-4568
▁እንቁ	-4569
▁ለመጠቀም	-4570
ቶቹን	-4571
▁አራተኛ	-4572
▁የአው	-4573
▁ማየት	-4574
▁የመስመር	-4575
▁የተሰጠ	-4576
ስተካክ	-4577
ማቸውን	-4578
▁ይቀጥ	-4579
▁ያገኘ	-4580
ሴፍ	-4581
ቀመጥ	-4582
▁ቅኝ	-4583
▁ትርኢ	-4584
▁ፊልሙ	-4585
ኪው	-4586
▁ፑ	-4587
ሊስት	-4588
▁የተገነባው	-4589
▁የወንዶች	-4590
▁ቤይ	-4591
▁ሞዴሎች	-4592
ደርገው	-4593
▁ባለቤትነት	-4594
▁የላቀ	-4595
▁ይታያል	-4596
ፋፋት	-4597
ውቀት	-4598
▁ጭንቅ	-4599
80	-4600
▁ለንደን	-4601
የእ	-4602
▁Y	-4603
ጂኒያ	-4604
በሳ	-4605
▁ጀልባ	-4606
▁በማዕ	-4607
▁የግድ	-4608
▁ይጠበ	-4609
ወዝ	-4610
ታወቅ	-4611
▁ሞክ	-4612
▁መሬ	-4613
ሲብ	-4614
▁ደንብ	-4615
▁የሰላም	-4616
▁አምባሳ	-4617
▁የደን	-4618
▁አውታረመረብ	-4619
CA	-4620
ረዱ	-4621
▁የተደረጉ	-4622
▁የሚገል	-4623
ፅን	-4624
▁የነርቭ	-4625
▁በመን	-4626
▁ዒላማ	-4627
▁ድግግሞሽ	-4628
ባን	-4629
▁አሳል	-4630
ወጣው	-4631
▁አጣ	-4632
▁የነዳጅ	-4633
▁አዘ	-4634
▁የተጠቀ	-4635
▁አምላክ	-4636
▁የፍት	-4637
/201	-4638
▁ስህተት	-4639
ኔን	-4640
ጣቢያ	-4641
▁ኤፕሪል	-4642
ጹም	-4643
▁የነበሩት	-4644
ow	-4645
▁ግጭ	-4646
ኒስት	-4647
▁አዝማሚያ	-4648
▁ውድቀት	-4649
▁አለም	-4650
ባህሪ	-4651
▁ኮንት	-4652
▁ያመ	-4653
▁መስፈር	-4654
▁ያደርጋል	-4655
▁ግም	-4656
▁የሚኖሩ	-4657
▁በሚቀጥ	-4658
▁መዝገ	-4659
▁የመኖሪያ	-4660
▁ጊዜያዊ	-4661
▁የግብርና	-4662
ረፍ	-4663
▁ፈረንሳይ	-4664
ጫወቱ	-4665
▁ህመም	-4666
▁በቤት	-4667
▁ልብስ	-4668
በታል።	-4669
▁ገዝ	-4670
▁የደህንነት	-4671
▁ውጪ	-4672
▁በጀት	-4673
▁ዘጠኝ	-4674
ዖት	-4675
▁ምዕራፍ	-4676
▁የእሳት	-4677
▁ጫማ	-4678
▁ፕሮግራሞች	-4679
▁እንግዳ	-4680
▁በሪ	-4681
ርዳት	-4682
▁ለሁለ	-4683
▁ተዘር	-4684
ካጎ	-4685
ሆነው	-4686
▁መረብ	-4687
▁ተናግሯል	-4688
ስተካከለ	-4689
▁የአገር	-4690
ዋስ	-4691
ረኞች	-4692
▁የአማራ	-4693
▁በመተባበር	-4694
▁የላይኛው	-4695
ጠኞች	-4696
ካተት	-4697
ፕሎማ	-4698
ካሚ	-4699
▁አብረው	-4700
▁ጭብ	-4701
▁ፖል	-4702
ዘገበ	-4703
▁ብቁ	-4704
ot	-4705
▁አንደ	-4706
ፓር	-4707
▁አስደ	-4708
▁ወሰነ	-4709
▁አካላዊ	-4710
▁(200	-4711
▁ተቃዋሚ	-4712
__	-4713
▁ኢትዮጵያን	-4714
▁ባሻገር	-4715
▁በሰኔ	-4716
▁በአገሪቱ	-4717
ra	-4718
▁የራሱን	-4719
▁በአቅራቢያ	-4720
ሜዲ	-4721
ያዣ	-4722
▁መቀመጫ	-4723
ሳሉ	-4724
▁ቀሪ	-4725
ገመት	-4726
▁መሥሪያ	-4727
በእ	-4728
ደራል	-4729
▁እንደምት	-4730
ኮስ	-4731
▁መቆጣጠ	-4732
▁በቶ	-4733
▁ስቱዲዮ	-4734
▁አልቻለም	-4735
▁v	-4736
ነታቸውን	-4737
▁የፔ	-4738
ኛውንም	-4739
▁የተሸፈ	-4740
▁አመልክ	-4741
▁ንጉሥ	-4742
▁በቻይና	-4743
ኒክስ	-4744
▁ተሰይ	-4745
▁አንጀለስ	-4746
ስትሮ	-4747
ፈልገው	-4748
▁የቤተሰብ	-4749
ሳል።	-4750
ኋለኛው	-4751
ኩን	-4752
▁ጠቀ	-4753
ዋሪ	-4754
▁ያርድ	-4755
▁ይወስ	-4756
▁ሴል	-4757
▁ተዘግ	-4758
▁ፓርላማ	-4759
▁በስተጀርባ	-4760
ቀጥል	-4761
▁የሂሳብ	-4762
▁ግሪ	-4763
ቬን	-4764
▁እትም	-4765
ንሳዊ	-4766
▁ጊዜያት	-4767
▁የባህል	-4768
▁ካሳ	-4769
▁በመለ	-4770
▁ተቀም	-4771
▁ኮከብ	-4772
አስ	-4773
▁አሲ	-4774
ሽናል	-4775
ነትና	-4776
ስማማ	-4777
▁አማራ	-4778
▁አያያዝ	-4779
▁የዩኤስ	-4780
ማግ	-4781
ዎቻቸውን	-4782
▁ጥልቅ	-4783
▁ማረጋገጫ	-4784
▁የአትክልት	-4785
▁በሱ	-4786
▁ይደግ	-4787
ፊልሙ	-4788
▁ህጋዊ	-4789
▁በመግለጽ	-4790
▁ማገ	-4791
▁አርቲስቶች	-4792
▁የኢንዱስትሪ	-4793
▁ሥራው	-4794
▁የመለ	-4795
▁ኤርትራ	-4796
▁በሦ	-4797
▁ሬጅ	-4798
ንስሳት	-4799
▁ይረዳ	-4800
▁ይጠቁ	-4801
▁ፓውንድ	-4802
▁የደረሰ	-4803
▁ቀድሞው	-4804
▁ንብር	-4805
70	-4806
ያንዳንዳቸው	-4807
▁ድንጋይ	-4808
▁በሬ	-4809
▁ውስን	-4810
▁የፋይናንስ	-4811
ጋጥ	-4812
▁ስፖር	-4813
▁መሰረታዊ	-4814
▁በቪ	-4815
▁መማር	-4816
▁ታላቁ	-4817
▁ሪኮርድ	-4818
▁አስረድ	-4819
▁ለነ	-4820
▁ጠየቀ	-4821
▁ሴሎች	-4822
▁ተመዝግ	-4823
▁የለውም	-4824
ዳበር	-4825
ናንት	-4826
▁ላለ	-4827
▁ወያኔ	-4828
▁ወረርሽኝ	-4829
ግበ	-4830
▁ስልጣ	-4831
ራዊቱ	-4832
ዛል	-4833
ንና	-4834
▁በማሸነፍ	-4835
▁እግዚአብሔር	-4836
ta	-4837
▁ቫይረስ	-4838
▁በመደበኛ	-4839
ሎሪዳ	-4840
▁በማስገባት	-4841
▁የረጅም	-4842
▁ዘፋ	-4843
ወግ	-4844
23	-4845
▁ድርሻ	-4846
▁መና	-4847
▁ተጀም	-4848
▁ሰፋ	-4849
▁ብስ	-4850
▁መንስ	-4851
ጠናከር	-4852
▁ጨዋታው	-4853
ክሬን	-4854
▁እውቀት	-4855
▁ለብዙ	-4856
ላላ	-4857
▁ጋዜጠኛ	-4858
▁የቀረበው	-4859
▁በቅደም	-4860
▁ሀገራት	-4861
▁ሞር	-4862
▁መዘ	-4863
ክፈል	-4864
ለቡ	-4865
▁የኔ	-4866
ፅዋት	-4867
▁ማብራ	-4868
▁ማይል	-4869
ለንደን	-4870
▁ቀጠለ	-4871
▁ሦስተኛው	-4872
▁ይሸ	-4873
ሰጠው	-4874
ነኝነት	-4875
ረቶች	-4876
▁ኩባንያው	-4877
▁ስድ	-4878
▁ለታ	-4879
▁የቪዲዮ	-4880
▁ጥፋ	-4881
መቻቸት	-4882
▁በተሻለ	-4883
▁ስሚዝ	-4884
▁ከሁለ	-4885
▁ፍር	-4886
ቫይ	-4887
ቋቋመው	-4888
ሊካን	-4889
▁ጥራ	-4890
os	-4891
ተም	-4892
▁በክልሉ	-4893
▁ሚያዝያ	-4894
▁የፍርድ	-4895
▁ውህደት	-4896
▁ከንቲባ	-4897
ፏል።	-4898
▁ታስ	-4899
ወይም	-4900
▁በተደረገው	-4901
ችሉም	-4902
ክሌር	-4903
▁ሪቻርድ	-4904
▁በከተማው	-4905
▁የሚጠጉ	-4906
▁ዝርዝ	-4907
▁ተሰብ	-4908
▁ቀደምት	-4909
▁በራሱ	-4910
▁ተጨባጭ	-4911
▁ተያይ	-4912
▁ተጋላጭ	-4913
▁አስከትሏል	-4914
▁ይገልጻል	-4915
▁የጨ	-4916
▁እሁድ	-4917
ዚል	-4918
ካኤል	-4919
▁በዋነኝነት	-4920
▁ካሜ	-4921
▁የተሻሻ	-4922
▁ዘፈኖች	-4923
ዳዩ	-4924
ፋስ	-4925
▁መስተጋ	-4926
▁ካፒቴን	-4927
▁ፕሬስ	-4928
ልስፍና	-4929
▁ኮሪያ	-4930
ቆት	-4931
▁ጀመሩ	-4932
▁አመራሮች	-4933
ኮር	-4934
▁ቅዳሜ	-4935
▁ክትትል	-4936
▁ይለያ	-4937
▁ብሪ	-4938
▁የሚገኙት	-4939
ኦሎጂ	-4940
▁ከሜ	-4941
▁የኤሌክትሮ	-4942
▁ዕለት	-4943
▁የሚታወቀው	-4944
ጋር	-4945
▁እንዳላቸው	-4946
ንቴ	-4947
▁ታይም	-4948
በራል	-4949
▁በዊ	-4950
▁1999	-4951
▁ተች	-4952
▁ነዉ	-4953
▁የተደረገው	-4954
ጮችን	-4955
▁ቀለ	-4956
▁ማያ	-4957
ቀቶች	-4958
▁አኒ	-4959
▁በሕዝብ	-4960
▁ከቅርብ	-4961
▁በቅርብ	-4962
▁የሚወ	-4963
▁በአራት	-4964
▁በሆኑ	-4965
▁ሱዳን	-4966
ቀሚያ	-4967
▁በአር	-4968
▁ሰማያዊ	-4969
▁ስለነ	-4970
▁ተጓዳኝ	-4971
ፋሉ	-4972
▁ይገመ	-4973
▁የሚያደርጉ	-4974
▁አወቃ	-4975
ስትሪክ	-4976
▁ብሔር	-4977
▁አውጭ	-4978
ስተካከል	-4979
ub	-4980
▁ለመቆጣጠር	-4981
▁በአፍሪካ	-4982
ውንት	-4983
▁ትብብር	-4984
▁አስፈላጊነት	-4985
▁ፈረሰ	-4986
ዊድን	-4987
ዝቡ	-4988
▁መገኘ	-4989
▁ይመለከ	-4990
ጀምር	-4991
ብሩ	-4992
▁ይችላሉ።	-4993
ሎምቢያ	-4994
ጻፈው	-4995
አሁን	-4996
▁ሚስተር	-4997
▁ለማን	-4998
▁ነገሥት	-4999
▁የቅርጫት	-5000
▁ማቀነባበ	-5001
▁ለሕ	-5002
▁በመያዝ	-5003
▁በአውስትራሊያ	-5004
ሱም	-5005
▁ጁኒየር	-5006
▁ይውላል	-5007
▁ተሸን	-5008
▁አይችልም	-5009
▁ይገኙበታል	-5010
ድሮ	-5011
▁የጃ	-5012
▁ይግባ	-5013
▁ሰንሰ	-5014
▁ግለሰብ	-5015
ካዳሚ	-5016
▁ቀበ	-5017
ይድሮ	-5018
▁ባላቸው	-5019
▁ለመተ	-5020
90	-5021
▁በውስ	-5022
▁ፈጠራ	-5023
▁ራስ	-5024
ሞከር	-5025
▁80	-5026
ቦራ	-5027
ጠናቀቁ	-5028
▁አለመሆኑ	-5029
ጠይቅ	-5030
▁አርት	-5031
▁ድልድይ	-5032
▁1998	-5033
▁ሰልፍ	-5034
ፍረት	-5035
▁ያመለክታል	-5036
▁መንፈስ	-5037
ኪስታን	-5038
▁ያለበት	-5039
▁በመጨረሻው	-5040
▁ሙስሊ	-5041
▁ይጠይቃል	-5042
ረቃ	-5043
▁ባህሪያትን	-5044
ጠባበ	-5045
በጣም	-5046
▁ብዙዎቹ	-5047
▁እርግጠኛ	-5048
▁በፌ	-5049
▁አፕ	-5050
▁ምግባር	-5051
▁ውል	-5052
▁የተጠበቀ	-5053
▁ጥልቀት	-5054
ዝቃ	-5055
▁ሚስት	-5056
▁ነበረች	-5057
የሁ	-5058
ጭበር	-5059
▁ማንነት	-5060
ir	-5061
ቨስትመንት	-5062
▁ተገንብ	-5063
ዶክስ	-5064
ዘገቡ	-5065
▁አሏቸው	-5066
▁ሰራዊት	-5067
▁ከመጀመሪያው	-5068
▁የተጋ	-5069
ታዩ	-5070
▁ለሁሉም	-5071
ቅያ	-5072
▁ክለቦች	-5073
▁የሎ	-5074
▁ቀጠ	-5075
▁ተካሂዷል	-5076
ስቲን	-5077
▁በአንፃ	-5078
ቾችን	-5079
▁ተቀላቀለ	-5080
ባይል	-5081
▁በሁለቱ	-5082
▁ቁሳቁስ	-5083
▁እርሻ	-5084
ሪዝም	-5085
▁ማንም	-5086
ሽታ	-5087
▁ባልተ	-5088
▁ሂደቶች	-5089
ስተዋወቅ	-5090
▁ሄንሪ	-5091
▁ለጥ	-5092
▁a	-5093
▁ቀመር	-5094
ንግል	-5095
ካተቱ	-5096
▁ገደብ	-5097
▁በመሆናቸው	-5098
▁ተቺ	-5099
ይቶች	-5100
▁ሰላማዊ	-5101
▁በእሱ	-5102
ቅደስ	-5103
▁ባለስልጣናት	-5104
▁አጋጣሚ	-5105
▁ኮርፖሬሽን	-5106
▁ፈሳሽ	-5107
▁የክብር	-5108
▁የንጉሠ	-5109
ክሪፕ	-5110
▁ዋስትና	-5111
▁ያተኮረ	-5112
▁ዝግጁ	-5113
▁ግድብ	-5114
▁ፌስቲቫል	-5115
ተርስ	-5116
▁አሮጌ	-5117
ሙስ	-5118
▁ሥልጣን	-5119
ራንስፖርት	-5120
ም፤	-5121
▁ማስታወቂያ	-5122
▁መሥራት	-5123
ስፋፋ	-5124
ቀን	-5125
ህነት	-5126
▁የስነ	-5127
ሲሲ	-5128
ከፋፈ	-5129
▁የእነዚህ	-5130
▁ምድብ	-5131
▁ቀድሞውኑ	-5132
▁የወደፊት	-5133
▁ግሬ	-5134
▁ቀውስ	-5135
▁ለሁለት	-5136
ሊድ	-5137
ዜሽን	-5138
▁ማንኛውንም	-5139
ጥን	-5140
▁ተራራ	-5141
▁ገልጿል።	-5142
ኗል።	-5143
ግዚቢ	-5144
መልስ	-5145
▁ኤሌክትሮ	-5146
▁በፀ	-5147
ናልድ	-5148
ከማቻ	-5149
ዶር	-5150
▁ለመወሰን	-5151
ጌል	-5152
▁ለሰ	-5153
▁በፕሮ	-5154
▁የተሞላ	-5155
ሸራተቻ	-5156
▁ይኖር	-5157
▁ብረት	-5158
▁መሃል	-5159
▁የፓርላማ	-5160
▁ሆኑ	-5161
▁ዲስ	-5162
▁ገባ	-5163
መተ	-5164
▁ቀንሷል	-5165
▁ሰነድ	-5166
▁ፊሊ	-5167
▁ማሰ	-5168
▁የትግራይ	-5169
▁ለረጅም	-5170
▁ይሰጣሉ	-5171
▁የተለመዱ	-5172
▁ብሄራዊ	-5173
▁የሚሆኑ	-5174
▁መነሻ	-5175
▁ጉድጓ	-5176
▁እንደነበረ	-5177
▁እንቅ	-5178
▁በዳ	-5179
▁ህንድ	-5180
▁ለመደገፍ	-5181
▁ሊን	-5182
▁ተቃራኒ	-5183
▁አማካይነት	-5184
▁የፓርቲ	-5185
▁በአቅራቢያው	-5186
▁አሥር	-5187
ቲንግ	-5188
▁ይኖ	-5189
መሰል	-5190
im	-5191
▁ቴሌቪዥን	-5192
ግብር	-5193
▁የሚለ	-5194
ናገሩ	-5195
▁In	-5196
▁ጎሳ	-5197
▁በጠቅላላው	-5198
▁አቅራቢ	-5199
ሊዛ	-5200
▁ሜሪ	-5201
ንዲህ	-5202
▁ለፍ	-5203
▁ቻርልስ	-5204
ጓሜ	-5205
ገልገ	-5206
ጥል	-5207
▁በፋ	-5208
▁ክንፍ	-5209
ምሩ	-5210
▁ዓይነቱ	-5211
▁ፍንዳ	-5212
▁ማብቂያ	-5213
▁ታየ	-5214
▁የመገናኛ	-5215
▁ጠቀሜታ	-5216
ቢዎች	-5217
▁እያንዳንዳቸው	-5218
▁ሌላኛው	-5219
▁ንጉሠ	-5220
▁ኮሚሽ	-5221
▁መፍጠር	-5222
ቀቀ	-5223
▁ቅርንጫፍ	-5224
ሁፍ	-5225
▁መንሸራተቻ	-5226
ኒንግ	-5227
▁አሠራር	-5228
▁መንስኤ	-5229
▁ለማም	-5230
▁ነበረበት	-5231
ላቸዋል	-5232
▁የወሰ	-5233
ራኒው	-5234
▁አስደሳች	-5235
▁ትዕይንት	-5236
▁ቁርጥ	-5237
▁ሱፐር	-5238
ንቀሳቀስ	-5239
▁ስብስቦች	-5240
▁ማጣሪያ	-5241
ከው	-5242
ep	-5243
ሣይ	-5244
ሚየር	-5245
ደገኛ	-5246
ገዋል።	-5247
▁ከሆኑት	-5248
▁ውጤቶቹ	-5249
ጻሚ	-5250
የሙ	-5251
ቃታማ	-5252
በዋል።	-5253
▁ልማ	-5254
ዝን	-5255
ልቬ	-5256
▁የሞት	-5257
▁የግንባታ	-5258
▁ከል	-5259
▁አብሮ	-5260
ዲህ	-5261
,3	-5262
▁70	-5263
▁ፖለቲካዊ	-5264
▁1996	-5265
ated	-5266
▁በፒ	-5267
▁ባሉት	-5268
▁ክላሲ	-5269
▁ለሙ	-5270
ክተሮች	-5271
ከናወነ	-5272
▁የሃይማኖት	-5273
▁የተለመደ	-5274
▁LED	-5275
▁ካሮላይ	-5276
▁ለማሳየት	-5277
▁በቱ	-5278
▁የተገደ	-5279
በታተን	-5280
ጄሪያ	-5281
ጋገብ	-5282
▁ቅርብ	-5283
▁መብራት	-5284
▁መንፈ	-5285
▁ራስን	-5286
ሞክራቲክ	-5287
ጠራቀሚያ	-5288
▁የተባለው	-5289
ካከለኛ	-5290
▁ተመራማሪዎች	-5291
▁ስርጭ	-5292
ጠራል	-5293
ሟላት	-5294
ዥም	-5295
▁ያንን	-5296
▁አሉ።	-5297
▁መዛ	-5298
▁ጠበቃ	-5299
ፖሊስ	-5300
▁የስር	-5301
▁ተገኝተዋል	-5302
▁በፖለቲካ	-5303
▁ይቀን	-5304
▁ሚዛን	-5305
▁ከጉ	-5306
ንደኛው	-5307
▁የተያዙ	-5308
▁እንደዚህ	-5309
▁ወደፊት	-5310
ገዳ	-5311
▁የመጣው	-5312
▁አስቀ	-5313
▁ቦር	-5314
▁መጽሐፍት	-5315
▁ሰባ	-5316
▁አቡ	-5317
▁ቴሌ	-5318
▁የሻ	-5319
ቲስቲክስ	-5320
▁35	-5321
▁ትርጓሜ	-5322
▁መምህራን	-5323
▁ነን	-5324
▁ቁሳቁሶች	-5325
▁መገናኛ	-5326
ኖን	-5327
▁ቅጽ	-5328
▁የሬዲዮ	-5329
▁ለመመርመር	-5330
▁ታይቷል	-5331
ገሉ	-5332
▁አካሂ	-5333
▁ተገደ	-5334
rib	-5335
ችበት	-5336
▁የእርስ	-5337
▁ውጥረት	-5338
▁መመለስ	-5339
▁በዙ	-5340
▁አዲ	-5341
▁ማሽ	-5342
▁ከጥቂት	-5343
▁ማስታወሻ	-5344
▁የተቀረ	-5345
▁ፒተር	-5346
▁ለስላሳ	-5347
▁ቀዶ	-5348
▁ተፋ	-5349
▁ፈጣሪ	-5350
▁ጀርባ	-5351
▁1997	-5352
▁በዌ	-5353
▁ዌስት	-5354
▁ተፎካካ	-5355
▁ስለመ	-5356
▁ለክ	-5357
▁ቦይ	-5358
▁የመነ	-5359
ኖይ	-5360
▁ሆቴል	-5361
▁ያልተለመደ	-5362
▁ከፍታ	-5363
-3	-5364
▁ቀረፃ	-5365
ውሮፕላን	-5366
ካሄዱ	-5367
▁ሬዲዮ	-5368
ሞክር	-5369
▁ቤቶችን	-5370
▁ክሊኒካዊ	-5371
▁ጳጳስ	-5372
ew	-5373
▁ተገድ	-5374
▁ወደብ	-5375
art	-5376
▁በኔ	-5377
▁የተመረ	-5378
ይቶ	-5379
ከናወነው	-5380
▁አስተዋፅዖ	-5381
▁ለኢ	-5382
መዋል።	-5383
ፓርት	-5384
▁ተወካይ	-5385
▁ቆይታ	-5386
▁ብራውን	-5387
,6	-5388
▁ሲሄድ	-5389
▁በጊዜ	-5390
▁ፎቅ	-5391
ip	-5392
▁መዋቅሮች	-5393
▁አስተማማ	-5394
▁ፈለ	-5395
▁አለቃ	-5396
▁ቆሻሻ	-5397
ገራሚ	-5398
▁ፓስ	-5399
▁በቀስ	-5400
▁ለግ	-5401
▁ያሳድ	-5402
▁ዲሲ	-5403
▁የተወለደው	-5404
▁ከፓ	-5405
▁ይገኛል።	-5406
▁ቢሆኑም	-5407
▁ሳያ	-5408
ታወቂያ	-5409
▁ቅድሚያ	-5410
ወሃት	-5411
▁ተሾመ	-5412
ግት	-5413
▁ሥራውን	-5414
▁አንዳንዶቹ	-5415
▁ለመርዳት	-5416
▁ሥራዎችን	-5417
▁አግኝተዋል	-5418
▁ሴራ	-5419
▁በዱ	-5420
▁ፍለጋ	-5421
ሮዎች	-5422
▁እሳት	-5423
▁በሕንድ	-5424
ጣቶች	-5425
▁የጣሊያን	-5426
ወስድ	-5427
ቪች	-5428
ከፋፈል	-5429
,4	-5430
ፀባር	-5431
ዘጋጀው	-5432
▁ካርታ	-5433
▁አውሮፕላኖች	-5434
▁ፕሮጀክቶች	-5435
▁ነበር፡፡	-5436
ልቀቅ	-5437
ሸር	-5438
,7	-5439
▁መደ	-5440
▁ልምድ	-5441
ዳማ	-5442
ጠበቁ	-5443
ቅናቄ	-5444
▁መገለጫ	-5445
ትራ	-5446
▁የእኛ	-5447
▁የተያዘ	-5448
▁የሚያሳይ	-5449
ገነባ	-5450
መስል	-5451
▁የተሠራ	-5452
ጆቹ	-5453
መንድ	-5454
ሠረቱ	-5455
▁ሕያው	-5456
▁ሃላፊ	-5457
▁ማጠራቀሚያ	-5458
▁ከኢትዮጵያ	-5459
24	-5460
▁የሚከተሉትን	-5461
▁እራሱን	-5462
▁የፍቅር	-5463
▁1950	-5464
ፕሬዚ	-5465
▁ለወደ	-5466
ትመት	-5467
▁በቴክ	-5468
▁አወቃቀር	-5469
▁በምትኩ	-5470
▁ማቅረብ	-5471
▁የውሂብ	-5472
▁በማንኛውም	-5473
▁መከላከል	-5474
ዳንቱ	-5475
ዛው	-5476
▁ይሠ	-5477
ፍትዌር	-5478
▁ቀርቧል	-5479
▁ተለውጧል	-5480
▁የሐሳብ	-5481
ቀበ	-5482
ov	-5483
▁ይጫወ	-5484
▁መቁ	-5485
▁የዊ	-5486
ወሩ	-5487
ሊዝም	-5488
▁ሀሳ	-5489
▁መለኪያ	-5490
ለትም	-5491
ራሉ።	-5492
ጊስ	-5493
▁አስተናጋ	-5494
▁ታይምስ	-5495
ሌክ	-5496
▁የቅድመ	-5497
▁እርምጃዎች	-5498
▁ተደርገዋል	-5499
▁የቁጥጥር	-5500
▁በቲ	-5501
▁መብራቶች	-5502
▁ለማወቅ	-5503
▁የተደራ	-5504
▁ከተለያዩ	-5505
▁በተወሰነ	-5506
▁ኃይለኛ	-5507
▁ለመያዝ	-5508
▁ለመረዳት	-5509
▁ዜማ	-5510
▁አመለካከ	-5511
ስቡክ	-5512
▁የቶ	-5513
▁በስፋት	-5514
▁ተስተካክ	-5515
▁አርቲስት	-5516
▁አከባቢ	-5517
ከትል	-5518
▁በእጅጉ	-5519
▁ለማሳደግ	-5520
ጠቃለያ	-5521
▁የዱር	-5522
▁አቅርበዋል	-5523
▁የሰራተኛ	-5524
ጋንዳ	-5525
▁በፔ	-5526
▁ተወላጆች	-5527
ከባ	-5528
ናትን	-5529
ድኃ	-5530
መለከተው	-5531
▁በአከባቢው	-5532
ዕል	-5533
ባህሪያት	-5534
▁1.	-5535
ቆጠር	-5536
▁በአይ	-5537
▁የእንጨት	-5538
thi	-5539
▁ተሰይሟል	-5540
▁የጄ	-5541
ምፖ	-5542
▁ከቡ	-5543
▁አድርጓል።	-5544
▁እንደሚያመለክቱት	-5545
▁የች	-5546
ሚካል	-5547
▁አለ።	-5548
▁ከማን	-5549
ሟል።	-5550
com	-5551
▁ከሳ	-5552
ናቸውን	-5553
ጓጓ	-5554
ቢት	-5555
ምረዋል	-5556
▁ልቦና	-5557
▁ማይክል	-5558
ክሳይድ	-5559
▁የአም	-5560
ያተ	-5561
▁የመሳሰ	-5562
▁ሰሜናዊ	-5563
▁ማስታወሻዎች	-5564
▁አስታወቀ	-5565
ቴት	-5566
▁በተቃራኒው	-5567
▁በበር	-5568
▁ይሆናል።	-5569
ዛዥ	-5570
▁በአዲሱ	-5571
▁ከጎ	-5572
ማሪያ	-5573
ዝገባ	-5574
▁ምርጫዎች	-5575
ቀለኛ	-5576
▁ችሏል	-5577
▁ጥፋት	-5578
▁ጭንቀት	-5579
▁በፎ	-5580
▁አቻ	-5581
▁ጂኦ	-5582
ተረ	-5583
▁ካናዳ	-5584
▁የክልሉ	-5585
▁ሰዶ	-5586
▁ዝም	-5587
▁..	-5588
▁አሊ	-5589
ሸን	-5590
▁የመግ	-5591
▁ቫን	-5592
▁መስራች	-5593
▁ሻምፒዮን	-5594
ያያዙ	-5595
▁and	-5596
▁አስገራሚ	-5597
▁ደስታ	-5598
ቀና	-5599
▁አቅርቦ	-5600
▁ስላል	-5601
▁የኮምፒ	-5602
ቂያዎች	-5603
ግሩ	-5604
ደርጋ	-5605
▁ቀዳዳ	-5606
▁ደሴቶች	-5607
ዋሚዎች	-5608
ከስ	-5609
ሐንስ	-5610
▁ወረዳዎች	-5611
▁የአገሬው	-5612
▁ማርክ	-5613
▁የዳሰሳ	-5614
▁ለመግለጽ	-5615
▁በትንሽ	-5616
▁ምደባ	-5617
▁አቋቋመ	-5618
▁ሀይ	-5619
▁የእንግሊዝኛ	-5620
▁con	-5621
ጎዳ	-5622
▁ሙያ	-5623
ቀየር	-5624
▁ቆይቷል	-5625
▁ቢል	-5626
▁በዛሬው	-5627
▁እንደገለጹት	-5628
▁ለኢትዮጵያ	-5629
▁ሲሆን፣	-5630
▁ደቡባዊ	-5631
ዊው	-5632
▁አቋር	-5633
ራቾች	-5634
▁ምዕራባዊ	-5635
▁አስች	-5636
▁በካናዳ	-5637
▁--	-5638
▁1992	-5639
ber	-5640
▁ግዴታ	-5641
▁የቴክኖሎጂ	-5642
▁ሽግግር	-5643
▁ስታዲየም	-5644
ቃይ	-5645
ቤን	-5646
▁ያደረጉ	-5647
ጨና	-5648
ፈርት	-5649
▁ያለፈ	-5650
▁የምና	-5651
▁የኖ	-5652
▁በሉ	-5653
ርቶዶክስ	-5654
▁የማስተ	-5655
▁በአገር	-5656
▁(201	-5657
ስትሪያ	-5658
ደሮች	-5659
▁ትክክለኛነት	-5660
▁ዑደት	-5661
የሩ	-5662
ተቶች	-5663
ኝ።	-5664
ውውር	-5665
▁ቦታዎችን	-5666
▁የመተ	-5667
▁ያለመ	-5668
ድገት	-5669
▁ክሮ	-5670
ፈጸም	-5671
▁የሳን	-5672
▁500	-5673
ሚኒስት	-5674
▁ማዕቀፍ	-5675
▁ዋሽንግተን	-5676
▁በድጋሚ	-5677
▁መስቀል	-5678
▁ቤተሰ	-5679
▁ባሕር	-5680
▁እብ	-5681
,8	-5682
▁ለመመለስ	-5683
▁አስተማሪ	-5684
▁አይሁዳ	-5685
▁1995	-5686
▁እውነታ	-5687
▁ታዳጊ	-5688
▁ተፈራ	-5689
ዋሳ	-5690
▁አምባሳደር	-5691
▁ዲያ	-5692
▁ፖለቲከኞች	-5693
▁አንድን	-5694
ኪንግ	-5695
▁l	-5696
ንቀሳቀሱ	-5697
▁ልደት	-5698
▁1994	-5699
▁ተበ	-5700
▁ተከታታ	-5701
▁በመውሰድ	-5702
▁የሉ	-5703
ገስ	-5704
▁ያስፈልጋል	-5705
▁ካሮላይና	-5706
ፋሪ	-5707
▁ምንድ	-5708
▁የገበያ	-5709
▁ቤተመንግስት	-5710
▁ደስ	-5711
ዳዳሪዎች	-5712
ፋቸው	-5713
▁ማቀነባበሪያ	-5714
▁በሎ	-5715
▁185	-5716
▁ዝቅ	-5717
▁ዴል	-5718
▁ከን	-5719
▁የተደገ	-5720
በዚህ	-5721
▁ሄር	-5722
▁በየካቲት	-5723
▁የብሔራዊ	-5724
ሙያ	-5725
ቺካጎ	-5726
▁ፍራንክ	-5727
▁የሌላቸው	-5728
ሥራት	-5729
ቃቸው	-5730
▁በካር	-5731
▁ለመገምገም	-5732
▁ድርድር	-5733
ዲንግ	-5734
▁አቀረበ	-5735
ናገረው	-5736
▁ቅሪ	-5737
በትም	-5738
ስካ	-5739
▁የቦታ	-5740
▁ጌታ	-5741
▁በነበረው	-5742
▁ማእ	-5743
▁ጭማሪ	-5744
▁ለሌ	-5745
▁ማስተካከ	-5746
ይዙ	-5747
▁ካንሰር	-5748
▁ለምር	-5749
▁ግቦች	-5750
▁ወል	-5751
ጉል	-5752
▁በጃፓን	-5753
ጉት	-5754
▁90	-5755
ለምሳሌ	-5756
ከተለው	-5757
▁ሃገ	-5758
▁ዲዛይ	-5759
▁ሀብቶች	-5760
▁ታሪኮች	-5761
▁ድረ	-5762
ከሰተ	-5763
▁ዘይት	-5764
ቀነሰ	-5765
▁በፈረንሳይ	-5766
▁ካሊፎርኒያ	-5767
▁እንዳሉት	-5768
ለፈ	-5769
ውንዴ	-5770
ሀብ	-5771
▁des	-5772
ፕን	-5773
▁ይቅርታ	-5774
▁ለመውሰድ	-5775
ጋኒ	-5776
▁በዶ	-5777
▁በሺ	-5778
▁ማህበረሰቦች	-5779
▁ጭነት	-5780
ከርድ	-5781
▁ምስሎች	-5782
ያል።	-5783
ራለች	-5784
ችላ	-5785
▁መውሰድ	-5786
▁በጃ	-5787
▁መስተጋብር	-5788
ቢይ	-5789
▁ጥገኛ	-5790
▁ክፍተት	-5791
▁በና	-5792
ልዎ	-5793
▁የልብ	-5794
▁ሂል	-5795
▁ደጋፊዎች	-5796
አል	-5797
▁እንደሚያሳዩት	-5798
▁ጃን	-5799
▁ይሠራል	-5800
▁ትርፍ	-5801
▁ከውጭ	-5802
ሚት	-5803
ተንተን	-5804
በሰ	-5805
▁ማዕድን	-5806
ቫይረስ	-5807
ወለደ	-5808
ጣጌ	-5809
▁ተግዳ	-5810
▁ይዘው	-5811
▁እንደነበሩ	-5812
▁ሐይቅ	-5813
▁የአእምሮ	-5814
▁አስቆጥሯል	-5815
ቢያን	-5816
▁ገብነት	-5817
▁ደረ	-5818
▁ፓራ	-5819
▁የሀገር	-5820
ዋይ	-5821
▁ማርቲን	-5822
ራፍ	-5823
ህፈት	-5824
▁ሞቃታማ	-5825
▁የጸ	-5826
▁እስራ	-5827
▁ፈጥ	-5828
▁አስር	-5829
▁እንዲሰ	-5830
▁ሜካ	-5831
▁ባንዲ	-5832
▁ወድ	-5833
▁ምስጢ	-5834
oc	-5835
▁መጻሕ	-5836
▁አቃቤ	-5837
▁ተመራማሪ	-5838
▁ቤቱን	-5839
▁የተቀመጡ	-5840
ቷቸዋል	-5841
▁እንደሚገባ	-5842
መነ	-5843
▁አያስ	-5844
▁አንደኛው	-5845
ነቅ	-5846
▁ክን	-5847
▁ይበ	-5848
ማርክ	-5849
▁የአለም	-5850
ንድስና	-5851
▁በቻ	-5852
▁በግራ	-5853
ኅበራዊ	-5854
ናሽናል	-5855
▁ካልተ	-5856
▁መቆጣጠሪያ	-5857
▁ማውጫ	-5858
▁ሩብ	-5859
▁ከሁሉም	-5860
▁የዌ	-5861
▁ስቶ	-5862
▁የሚቻል	-5863
▁በዘር	-5864
▁እሴት	-5865
▁ያገ	-5866
▁ተላል	-5867
ዋወጥ	-5868
▁ይሆን	-5869
ካቾች	-5870
ደሩ	-5871
▁በጄ	-5872
▁ከቤት	-5873
▁አሌክ	-5874
▁ጥቃቶች	-5875
ጠንቀቂያ	-5876
▁የጭነት	-5877
▁ድርብ	-5878
▁ያላ	-5879
▁ብሔ	-5880
▁ሊቃ	-5881
▁ግጥም	-5882
▁የሲቪል	-5883
▁ካምፕ	-5884
▁በሸ	-5885
▁ነው፣	-5886
▁መዳረሻ	-5887
▁የአካባቢው	-5888
▁ይጠቀማል	-5889
▁ጽሑፎች	-5890
▁ይባ	-5891
▁#	-5892
▁አግባብ	-5893
▁አንስቶ	-5894
▁የጎን	-5895
▁የተገነባ	-5896
▁የመኪና	-5897
▁ተጠቃሚዎች	-5898
▁እሴቶች	-5899
▁ከሚገኙት	-5900
ፈጠረ	-5901
▁እነሱም	-5902
▁በዚሁ	-5903
▁መስኮች	-5904
▁ሚዛ	-5905
ጎዱ	-5906
▁ተከላካይ	-5907
▁የተፃ	-5908
▁የመስክ	-5909
ከናው	-5910
▁መድኃኒ	-5911
ቿን	-5912
▁መለስ	-5913
▁ማብራሪያ	-5914
▁ዴሞክራሲያዊ	-5915
▁ሃይል	-5916
▁አምራች	-5917
ሳቱ	-5918
▁የተካሄደው	-5919
")	-5920
▁በአንፃራዊነት	-5921
▁እድገ	-5922
▁ንቅናቄ	-5923
▁የምስራቅ	-5924
▁ከሲ	-5925
▁ትዕይን	-5926
ታደራዊ	-5927
▁እጥፍ	-5928
ተስ	-5929
▁በተና	-5930
ለኪው	-5931
ጠጥ	-5932
▁ብሬ	-5933
▁አገሪቱ	-5934
ደደ	-5935
▁ትንበያ	-5936
▁አጥብ	-5937
▁በአም	-5938
▁ተሳታፊዎች	-5939
ግሉ	-5940
▁በሳን	-5941
▁ጥብቅ	-5942
▁1991	-5943
ጋው	-5944
▁እኩልነት	-5945
▁ድምፆ	-5946
▁ልጁ	-5947
ካዳሚክ	-5948
ቢኔ	-5949
▁በዝቅተኛ	-5950
▁መረጃን	-5951
▁ቅጂ	-5952
▁(199	-5953
▁ከዩ	-5954
▁የማን	-5955
▁(2	-5956
ሁት	-5957
▁መልእክት	-5958
▁ለገ	-5959
▁ሆን	-5960
▁ማቆሚያ	-5961
ዲና	-5962
መታት	-5963
▁በሁለተኛ	-5964
▁ተሽከርካሪ	-5965
▁አደባባይ	-5966
▁ፍጹም	-5967
▁በሚገኙ	-5968
▁አንቀጽ	-5969
▁ዳኞች	-5970
▁መተግበ	-5971
▁የተፈጠረ	-5972
199	-5973
▁ስነ	-5974
▁እንደሚሆን	-5975
▁ተሽከርካሪዎች	-5976
▁ለሌሎች	-5977
ቶቻቸው	-5978
▁ተመድ	-5979
▁ቄ	-5980
ኖሩም	-5981
▁በእንዲህ	-5982
▁ካብ	-5983
ናኛ	-5984
▁ከጦር	-5985
▁እንዳልሆነ	-5986
▁በተሳካ	-5987
ጧል።	-5988
ሜል	-5989
▁ኤሌክትሪክ	-5990
▁እንዲያው	-5991
▁ሽንፈት	-5992
ab	-5993
ጣፋ	-5994
የተወለደው	-5995
ፋለች	-5996
በበ	-5997
▁በጂ	-5998
▁ጨምሯል	-5999
ቢው	-6000
▁ግሪን	-6001
ላይት	-6002
ኩም	-6003
▁ለቅ	-6004
▁1993	-6005
▁ማዕከ	-6006
ፅፅ	-6007
▁አለመሆኑን	-6008
ቀሰ	-6009
▁በመሆኑም	-6010
▁ወኪል	-6011
ጠመ	-6012
▁ይደረ	-6013
▁ብድር	-6014
▁የለም።	-6015
ጻፍ	-6016
▁በጥብቅ	-6017
ክርስቲያ	-6018
▁ጋዝ	-6019
▁ሳው	-6020
▁ህዝቦች	-6021
▁የተወ	-6022
▁አስተዋው	-6023
▁+	-6024
ፒንስ	-6025
▁በሚያስ	-6026
ዝሃ	-6027
ላቸውም	-6028
▁በመሬት	-6029
▁በሕግ	-6030
▁ከዋ	-6031
▁ልምዶች	-6032
▁የቡድኑ	-6033
▁አጠቃቀ	-6034
45	-6035
ጫወተ	-6036
▁እንዲሆኑ	-6037
ረንሣይ	-6038
▁ቅርስ	-6039
▁ሁኔታዎችን	-6040
▁ሜታ	-6041
▁ትራክ	-6042
▁የሚገባ	-6043
▁ጭምር	-6044
▁የአገልግሎት	-6045
ቃዊ	-6046
▁ለጋ	-6047
▁የጀርባ	-6048
▁አካባቢያዊ	-6049
ሴል	-6050
ልቦና	-6051
▁ማውጣት	-6052
▁ሰከ	-6053
▁ከእሱ	-6054
▁ግቦችን	-6055
ለሰብ	-6056
▁የመም	-6057
▁በመቃወም	-6058
▁አልነበሩ	-6059
▁የኦሮሞ	-6060
▁አጀ	-6061
ዘዋል	-6062
ርጅ	-6063
▁የሚደረግ	-6064
▁ተሟ	-6065
▁ህል	-6066
▁ኤግዚቢ	-6067
▁ለማሳካት	-6068
ግሮ	-6069
▁በርስ	-6070
▁ችላ	-6071
▁እንዳያ	-6072
▁ወሰን	-6073
▁ይይዛሉ	-6074
ምንቱ	-6075
▁የማዕድን	-6076
▁መቋቋም	-6077
▁ታውን	-6078
▁አብይ	-6079
▁ማሪ	-6080
▁አጠገብ	-6081
,0	-6082
ወቀ	-6083
▁ሕይወ	-6084
ነገር	-6085
▁በመር	-6086
▁የኮን	-6087
▁ሃይማኖታዊ	-6088
▁ክለቡ	-6089
▁አብዮት	-6090
▁ሊፈ	-6091
ሚንግ	-6092
ክቶሪያ	-6093
▁አሳይተዋል	-6094
ፋዊ	-6095
ረንስ	-6096
ጎብ	-6097
▁በተፈጥሮ	-6098
▁ጉዳዩን	-6099
▁ከሙ	-6100
▁ይጨምራል	-6101
▁በመፍጠር	-6102
▁የፀሐይ	-6103
ዎችና	-6104
▁ይከተ	-6105
▁ስጋ	-6106
crib	-6107
ግነት	-6108
▁ትችት	-6109
▁ለራ	-6110
▁ይጠራ	-6111
▁ስፖ	-6112
ሰኞ	-6113
ታወቀው	-6114
eb	-6115
ess	-6116
▁ተዋናዮች	-6117
ኒኬሽን	-6118
▁የዋጋ	-6119
ቅያኖስ	-6120
▁የጌ	-6121
ጊት	-6122
ዱል	-6123
▁መሣሪያዎችን	-6124
▁እንደማ	-6125
▁ሪከርድ	-6126
▁ፋውንዴ	-6127
▁ተደጋጋሚ	-6128
▁ማጥፋት	-6129
▁("	-6130
ድና	-6131
▁አብያተ	-6132
▁ባለቤቶች	-6133
ዝርዝር	-6134
ላዊነት	-6135
▁ጣቢያው	-6136
▁ሬይ	-6137
▁ምና	-6138
ደይ	-6139
ሚል	-6140
▁ተረጋግጧል	-6141
ነታ	-6142
ሄር	-6143
▁ገብረ	-6144
▁ተመጣጣ	-6145
▁አሳድ	-6146
▁የተገኘው	-6147
ቆል	-6148
▁ኤድዋርድ	-6149
▁የሰብአዊ	-6150
▁የግራ	-6151
ሊሲ	-6152
ብሮ	-6153
▁ማዳ	-6154
▁የአስተዳደር	-6155
ጫዋ	-6156
▁ክፍሎችን	-6157
ሬሽኑ	-6158
ገሪቱን	-6159
▁ዘጋቢ	-6160
▁ሆነዋል	-6161
▁ቢኖርም	-6162
ሃብ	-6163
▁ቅዱስን	-6164
▁ካሬ	-6165
▁ጠዋት	-6166
ሺፕ	-6167
▁ብቅ	-6168
▁ለኮ	-6169
▁የተሻ	-6170
▁ከፈ	-6171
▁ተደም	-6172
▁በሽታዎች	-6173
ታኢ	-6174
ፈለገ	-6175
▁ለኦ	-6176
▁የድህረ	-6177
ሪቲ	-6178
▁ሚሜ	-6179
▁ማሽን	-6180
▁አሃዶች	-6181
ነጋ	-6182
▁ጥምር	-6183
ድኃኒት	-6184
ዛኝ	-6185
ዘገበው	-6186
▁ጋብቻ	-6187
▁ደንቦች	-6188
ራቱ	-6189
ታወስ	-6190
▁|	-6191
ደራጀት	-6192
▁በንግድ	-6193
ቀንስ	-6194
ማቲክ	-6195
▁መንቀጥ	-6196
▁ሆኪ	-6197
ንባ	-6198
ለቀቀ	-6199
▁ሆነ።	-6200
▁ነበ	-6201
▁ድብደባ	-6202
▁በመግባት	-6203
ልቬንያ	-6204
▁ዲጂታል	-6205
▁ችግሮችን	-6206
መጣው	-6207
▁ተያይዞ	-6208
▁ከድ	-6209
▁መምህር	-6210
▁ቅርጽ	-6211
▁መሪነት	-6212
ቶቻቸውን	-6213
▁በሥራ	-6214
▁በዝግ	-6215
ካች	-6216
▁ዝናብ	-6217
ጠቃል	-6218
▁የትራንስፖርት	-6219
▁የአገሪቱ	-6220
▁የአፍ	-6221
▁ታህሳስ	-6222
ቶም	-6223
▁በአስ	-6224
ዋሃድ	-6225
▁ለመስራት	-6226
▁ማጠቃለያ	-6227
ርኩ	-6228
ከሰተው	-6229
▁የጅምላ	-6230
ዩ።	-6231
▁ሀላፊ	-6232
▁ኖሮ	-6233
ቪዬት	-6234
▁ሙዚቀ	-6235
▁የአከባቢ	-6236
▁የጨረ	-6237
ቃቂ	-6238
▁ዕቅ	-6239
▁ዜጋ	-6240
ጩኸ	-6241
▁ለወደፊቱ	-6242
▁ገጽታዎች	-6243
▁ከተማዋ	-6244
▁አትሌቶች	-6245
▁ልዑል	-6246
▁የራሳቸውን	-6247
ጿል	-6248
▁ኮድ	-6249
ላሴ	-6250
▁ወርቅ	-6251
ደንዛዥ	-6252
▁ላይም	-6253
▁የር	-6254
ዕት	-6255
ጄኔቲክ	-6256
▁ሳይንሳዊ	-6257
▁እለት	-6258
▁እኮ	-6259
ዘርላንድስ	-6260
▁ገም	-6261
▁በአለም	-6262
,9	-6263
▁በአጭር	-6264
ራቸውን	-6265
▁መድሃ	-6266
▁በዘመናዊ	-6267
ገባኛል	-6268
▁ዘው	-6269
ቲካል	-6270
▁ሚካኤል	-6271
▁ትናንት	-6272
▁ማሳያ	-6273
▁መቼ	-6274
▁ተጓዘ	-6275
▁እንዲያስ	-6276
ለቱ	-6277
▁መሰል	-6278
ቶት	-6279
ሸት	-6280
▁አሻ	-6281
ቪየት	-6282
▁ዳንኤል	-6283
▁በመጥቀስ	-6284
ብሮች	-6285
ኩልቲ	-6286
▁ጥቃቅን	-6287
▁ቆጠራ	-6288
▁ፎር	-6289
ታኝ	-6290
▁አድማ	-6291
▁ኦሊ	-6292
.0	-6293
▁የኮር	-6294
▁በጨዋታው	-6295
▁በካሊፎርኒያ	-6296
ባቸዋል	-6297
▁ቫይ	-6298
▁በሚቀጥለው	-6299
▁የዜና	-6300
ዚክስ	-6301
▁ሳል	-6302
▁ምልከ	-6303
eg	-6304
ቆመ	-6305
▁ወንድም	-6306
▁መታሰቢያ	-6307
ይለር	-6308
ዚላንድ	-6309
▁ጥናቱ	-6310
▁ባደረገው	-6311
ጣው	-6312
ዋናው	-6313
ሾሙ	-6314
ቡስ	-6315
▁ፍላጎቶች	-6316
ቀኑ	-6317
▁ጎጆ	-6318
▁describ	-6319
▁st	-6320
▁ማከማቻ	-6321
ራትን	-6322
ስብ	-6323
▁መጫወት	-6324
▁ብት	-6325
▁አጥቂ	-6326
መቶች	-6327
እኔ	-6328
▁መደብ	-6329
thiop	-6330
ዞን	-6331
ገተኛ	-6332
▁ሰንጠረ	-6333
▁የኒ	-6334
ሚር	-6335
▁ዘመኑ	-6336
▁ቋንቋዎች	-6337
▁ያረጋግ	-6338
▁በእርግጥ	-6339
ግባቡ	-6340
ትናም	-6341
▁described	-6342
▁መለወጥ	-6343
▁ክልላዊ	-6344
ገለፀው	-6345
ሜትር	-6346
▁ተብሏል።	-6347
▁በማዕከላዊ	-6348
▁ተመጣጣኝ	-6349
▁ለካ	-6350
▁ፕሮቶ	-6351
▁ኮንግረስ	-6352
▁አንጻ	-6353
▁ታን	-6354
▁አፅን	-6355
▁ፍንዳታ	-6356
▁አለው።	-6357
▁ነበር፤	-6358
▁ትረ	-6359
▁የተቋቋመው	-6360
▁ውኃ	-6361
▁ያስፈልጋ	-6362
▁ጉዳዩ	-6363
▁ባለስልጣን	-6364
▁አንቶኒ	-6365
▁45	-6366
▁መያዝ	-6367
ክልና	-6368
▁ከመስ	-6369
ቆር	-6370
▁ባስ	-6371
ስትሪክት	-6372
▁የበረራ	-6373
▁ምላ	-6374
▁መግባት	-6375
ፋው	-6376
▁መሀ	-6377
▁ከቦ	-6378
▁ሲያስ	-6379
▁አደገኛ	-6380
▁አይችሉም	-6381
▁የሚመራው	-6382
-18	-6383
ድኒ	-6384
ዉን	-6385
▁ዘዴዎችን	-6386
▁ለማሸነፍ	-6387
▁በረራ	-6388
ም፡፡	-6389
▁አውድ	-6390
▁ሚን	-6391
▁ውስጥም	-6392
▁መስፈርት	-6393
▁የራሱ	-6394
▁ዕፅ	-6395
▁ተብሏል	-6396
ቦራቶሪ	-6397
▁በገንዘብ	-6398
▁አለማ	-6399
ቲቱ	-6400
ንሲልቬንያ	-6401
▁አድራጎት	-6402
▁ተጀምሯል	-6403
ርሞ	-6404
▁ዲፕሎማ	-6405
▁:	-6406
▁ግሎ	-6407
▁የእርሱ	-6408
ስለ	-6409
▁ነጥቦችን	-6410
▁በባህ	-6411
አዲስ	-6412
ጣን	-6413
▁32	-6414
መንግስት	-6415
ልክት	-6416
ወሰድ	-6417
ጠቢያ	-6418
▁".	-6419
ይቱ	-6420
▁መርሃግብር	-6421
ውያንን	-6422
ቸስተር	-6423
ባቱ	-6424
▁የሚሸ	-6425
og	-6426
▁ሥዕል	-6427
▁የተሳሳተ	-6428
▁በበኩላቸው	-6429
▁ሃሳብ	-6430
▁ጆንስ	-6431
▁ጥግግት	-6432
▁ፖር	-6433
▁ባታ	-6434
ሳንደር	-6435
▁ገልጸዋል	-6436
ሰባሰብ	-6437
▁በአማካይ	-6438
▁የእንስሳት	-6439
▁መንገዱ	-6440
ላለፈ	-6441
▁1940	-6442
▁አስገድ	-6443
▁ከክርስቶስ	-6444
▁የምርመራ	-6445
ጋጣሚ	-6446
▁አርታኢ	-6447
▁የሚያደርግ	-6448
▁አቀራረ	-6449
▁ተፈጥሯዊ	-6450
ድረክ	-6451
ሃዮ	-6452
▁በመነ	-6453
▁ተሰብስ	-6454
ዎት	-6455
ፖለቲካ	-6456
▁መለየት	-6457
▁ከዚያን	-6458
▁ካርድ	-6459
ንድፈ	-6460
▁የተነደ	-6461
ጫን	-6462
▁አናት	-6463
▁የበጎ	-6464
▁ቀጣዩ	-6465
▁ኢንጂ	-6466
▁ከፋ	-6467
▁ፈጽ	-6468
▁ፐር	-6469
ሙር	-6470
▁ኮከ	-6471
▁ሆል	-6472
ክቱ	-6473
▁ገድ	-6474
▁በቃ	-6475
▁ስፒ	-6476
▁ወዳ	-6477
35	-6478
▁1989	-6479
▁የወሲብ	-6480
▁ታካሚ	-6481
▁አስታውቋል።	-6482
▁ቤዝቦል	-6483
ዬን	-6484
▁ሮክ	-6485
▁ተሟጋ	-6486
ማሌ	-6487
▁ተይዞ	-6488
▁የጀመረው	-6489
ዊተር	-6490
ሲስኮ	-6491
▁ገንዘ	-6492
▁አስተዳደ	-6493
▁በሳይ	-6494
▁የሚቻለው	-6495
ወጣል	-6496
ቶሎጂ	-6497
▁ሲባል	-6498
ቀይ	-6499
▁ምስጋና	-6500
▁ባዶ	-6501
▁እሷም	-6502
▁የሚባል	-6503
▁ባደረጉት	-6504
▁ጆንሰን	-6505
▁ከቤተ	-6506
▁መንግስታዊ	-6507
ተገባ	-6508
ቃለች	-6509
የቱ	-6510
ins	-6511
▁ምስክር	-6512
▁ተንቀሳቃሽ	-6513
▁የማህበረሰብ	-6514
▁መሆኗ	-6515
▁የቼ	-6516
ባንያው	-6517
▁መገልገ	-6518
▁ይጀምራል	-6519
ሾችን	-6520
▁ኢንተርናሽናል	-6521
▁የስፔን	-6522
▁ቶን	-6523
▁የይገባኛል	-6524
▁ኮምፒ	-6525
▁ሰንሰለት	-6526
▁ጤ	-6527
ቋርጥ	-6528
ሺጋን	-6529
▁መራ	-6530
▁ሳንቲ	-6531
▁እመ	-6532
▁የልጅ	-6533
ዞር	-6534
▁የሶስት	-6535
ዩም	-6536
▁ሴና	-6537
▁ቡድኑን	-6538
ኮራ	-6539
▁አደጋዎች	-6540
▁ጥን	-6541
ባክ	-6542
▁መውጣት	-6543
▁ዓም	-6544
▁በተደረገ	-6545
▁አርክ	-6546
▁ነዳጅ	-6547
▁1988	-6548
▁ወስዷል	-6549
▁ተቆጣጣሪ	-6550
▁ፎቶግራፍ	-6551
ct	-6552
ቀሳቀስ	-6553
ክሎ	-6554
▁ሚስቱ	-6555
ian	-6556
▁ራሳቸውን	-6557
▁ምትክ	-6558
ወገጃ	-6559
SA	-6560
ሞቱ	-6561
▁አንተ	-6562
▁ለዚህም	-6563
▁በኤፕሪል	-6564
ኖርዌይ	-6565
▁እስረኞች	-6566
▁የተገኙት	-6567
▁አሰራር	-6568
▁1930	-6569
▁የተቀና	-6570
ፊን	-6571
▁ድንጋጌ	-6572
▁ተለዋዋጭነት	-6573
▁ለቆ	-6574
▁ያደረጉት	-6575
ሲል	-6576
ቀትን	-6577
▁ግኝቶች	-6578
ዎር	-6579
▁አስቀድሞ	-6580
▁እንዳለባቸው	-6581
ዕለት	-6582
▁የሚሆነው	-6583
▁መዝናኛ	-6584
▁ረዘም	-6585
▁በማህበራዊ	-6586
ጨው	-6587
ረቻ	-6588
በሪ	-6589
.5	-6590
▁ተወዳዳሪ	-6591
ቲያ	-6592
▁ለል	-6593
▁የአየርላንድ	-6594
▁ስልክ	-6595
▁አርብ	-6596
▁ተዛማጅ	-6597
▁ናሙናዎች	-6598
ce	-6599
▁ይጠበቃል	-6600
▁ተጠናቀቀ	-6601
▁ሃይማኖት	-6602
▁ቤል	-6603
▁በወን	-6604
▁የማጣ	-6605
▁ቅሬታ	-6606
ገለግል	-6607
ጣሚዎች	-6608
▁በሦስተኛው	-6609
▁የተጣ	-6610
▁አሰልጣኞች	-6611
ንግሥ	-6612
▁የዩኒቨርሲቲ	-6613
▁ይግባኝ	-6614
ፈለጉ	-6615
▁እንዳስ	-6616
▁ኤፒ	-6617
ቸል	-6618
▁ብሉ	-6619
▁አሳሳቢ	-6620
▁የሁሉም	-6621
▁በች	-6622
▁የጦርነት	-6623
▁ይወክ	-6624
▁ዮሐንስ	-6625
▁ተስማም	-6626
▁መልዕክት	-6627
▁የሮማ	-6628
▁ዳግም	-6629
▁በቦታው	-6630
▁የአስቸኳይ	-6631
▁ሬጅመንት	-6632
▁በሚገኝ	-6633
ባሲ	-6634
▁የመታ	-6635
▁እስያ	-6636
ክሲዮን	-6637
ዘኛ	-6638
▁ትርዒቶች	-6639
▁በየአ	-6640
▁ፋውንዴሽን	-6641
▁Q	-6642
የሚ	-6643
ይነ	-6644
▁አፅንዖት	-6645
ን፣	-6646
ርጋ	-6647
▁ህጎች	-6648
ደቱ	-6649
▁የትራ	-6650
▁ሰኞ	-6651
▁ጥንቃቄ	-6652
▁ሩሲያ	-6653
ht	-6654
▁በዚያን	-6655
▁መጠየ	-6656
75	-6657
ሳሾች	-6658
▁ዘዴን	-6659
▁ቱቦ	-6660
▁ከብዙ	-6661
▁እያደረገ	-6662
▁ማወቅ	-6663
ክሌት	-6664
▁መስመራዊ	-6665
▁መፍትሔ	-6666
▁ክበብ	-6667
▁ትራምፕ	-6668
ጓጓዣ	-6669
▁በአት	-6670
በባ	-6671
ሄደ	-6672
▁እያሉ	-6673
▁የህግ	-6674
,2	-6675
▁g	-6676
▁)	-6677
▁ሕዝቦች	-6678
▁አንዱን	-6679
ጅን	-6680
ጣጠ	-6681
▁ባዮሎጂ	-6682
▁ምኞ	-6683
▁ምዝገባ	-6684
▁አዘጋጅቷል	-6685
▁ንብርብር	-6686
▁ሃሪ	-6687
ሊካ	-6688
▁በአምስት	-6689
▁ስላለው	-6690
ዮርጊስ	-6691
ባቂ	-6692
▁ከራ	-6693
▁መመርመር	-6694
▁ጊዜው	-6695
▁በስተደቡብ	-6696
ዓመቱ	-6697
▁ፍራንሲስኮ	-6698
▁ማጉ	-6699
▁የፕሬ	-6700
▁ነበሩት	-6701
ለቅለቅ	-6702
qu	-6703
▁የመቃብር	-6704
▁ለማየት	-6705
▁ማረጋገጥ	-6706
▁አለብን	-6707
▁ነጋዴዎች	-6708
▁የፍትህ	-6709
▁አስቀም	-6710
ሰዋል።	-6711
ጹህ	-6712
▁ተገናኝ	-6713
▁መሰና	-6714
▁ከሚገኘው	-6715
▁ቢኖሩም	-6716
ጥቅ	-6717
▁ጠላት	-6718
ዕና	-6719
ሳቤ	-6720
ሌም	-6721
▁ሰርቷል	-6722
▁ዲስትሪክት	-6723
▁ተደ	-6724
▁ሆነች	-6725
▁ምክንያታዊ	-6726
▁ካምፓ	-6727
▁የፀጥታ	-6728
ጭን	-6729
▁አጀንዳ	-6730
ፈሩ	-6731
▁ክርስቲያናት	-6732
all	-6733
ለብ	-6734
▁ይቀጥላል	-6735
▁ያጠቃል	-6736
ሊየን	-6737
▁የተቋቋመ	-6738
▁ምቹ	-6739
ጀልባ	-6740
▁ተጣ	-6741
▁ማስተካከያ	-6742
▁ከሩ	-6743
ሎው	-6744
▁ይቀንሳል	-6745
▁ማወ	-6746
▁ታላላቅ	-6747
ረከ	-6748
▁ማዕዘን	-6749
ደድ	-6750
▁ተመልሶ	-6751
▁ይመለከታል	-6752
መልከ	-6753
ለያይ	-6754
▁ሚሊየን	-6755
▁33	-6756
▁የሚመራ	-6757
▁ፌዴሬሽን	-6758
▁የጠፈር	-6759
▁ደመወዝ	-6760
▁የሚሰጡ	-6761
ዳዲስ	-6762
▁ይወሰዳል	-6763
ጻጸ	-6764
▁ክሩ	-6765
▁ኮሎኔል	-6766
▁ታክ	-6767
▁የበለ	-6768
ክራ	-6769
ዝናኛ	-6770
▁እንደሚቻል	-6771
ረደ	-6772
ኑት	-6773
▁ለመጀመር	-6774
ላለፉ	-6775
▁የተሟላ	-6776
▁ተገልጿል።	-6777
ኬቶች	-6778
▁Z	-6779
▁ስፔክት	-6780
ሸንፍ	-6781
▁የመመ	-6782
▁በታሪክ	-6783
▁e	-6784
▁ዓላማዎች	-6785
▁ከሴ	-6786
rote	-6787
ዲያና	-6788
ስተው	-6789
ላስቲክ	-6790
▁ካልሆነ	-6791
▁ማክሰኞ	-6792
▁የተቀመጠ	-6793
ዛወር	-6794
▁ሃገር	-6795
▁በማቅረብ	-6796
▁ተተክቷል	-6797
ሴትስ	-6798
▁ማዕከላት	-6799
▁ጠርዝ	-6800
ኮም	-6801
▁ደግ	-6802
▁መንግሥታት	-6803
▁ለማስተ	-6804
ማርያም	-6805
▁ግር	-6806
▁የሚሉ	-6807
▁ስራዎች	-6808
▁ልጃገረ	-6809
ችለው	-6810
▁የቋንቋ	-6811
▁ኔት	-6812
▁ሽያጭ	-6813
▁በቀን	-6814
▁ማህበራት	-6815
▁ያሰ	-6816
ኪንስ	-6817
ክበር	-6818
▁አወጣ	-6819
-4	-6820
ጻፈ	-6821
ክተሩ	-6822
!.	-6823
▁በአግባቡ	-6824
▁ከሮ	-6825
▁ሰብሳቢ	-6826
▁የዝግ	-6827
ሞቹ	-6828
▁ቅዱ	-6829
ቨርስቲ	-6830
▁ከሦስት	-6831
ሊንስ	-6832
▁36	-6833
▁ሠራተኛ	-6834
▁ዌልስ	-6835
▁ታጣ	-6836
ላይን	-6837
▁ዩኤስ	-6838
▁ገለፃ	-6839
▁St	-6840
▁መጣጥ	-6841
ቶቻችን	-6842
▁ተዘጋጅቷል	-6843
▁ለጎን	-6844
▁ሚስጥ	-6845
▁ግምገማዎች	-6846
ልበ	-6847
▁አሽከርካ	-6848
▁የአመ	-6849
ስፋ	-6850
▁ያለማ	-6851
ክፈት	-6852
▁መሸ	-6853
ፍረስ	-6854
ደቀ	-6855
▁ስሞች	-6856
▁የምታ	-6857
▁የተስተካከለ	-6858
▁በዘመ	-6859
▁ተናጋሪ	-6860
ቅዶ	-6861
ታሪ	-6862
▁ካስ	-6863
▁ብክ	-6864
ከመ	-6865
▁ዝግጅቶች	-6866
ቹሴትስ	-6867
ሰራጨት	-6868
ኞቹን	-6869
ማሊያ	-6870
▁ከአራት	-6871
▁ከጠ	-6872
▁የኋለኛው	-6873
ኔዥያ	-6874
▁ያም	-6875
▁ካት	-6876
▁መኪ	-6877
▁የእስያ	-6878
ጦታ	-6879
▁እንግሊዛ	-6880
▁የተከሰተው	-6881
▁ይሰማ	-6882
▁የኮሮና	-6883
▁ደስተኛ	-6884
▁የቆየ	-6885
▁ተቃዋሚዎች	-6886
ለላ	-6887
▁ሜጀር	-6888
▁እየሰራ	-6889
ላንቲክ	-6890
▁ክፍሉ	-6891
▁ኢህአዴግ	-6892
▁እንደተናገሩት	-6893
▁አረጋግጧል	-6894
▁ከሰል	-6895
ዛይን	-6896
▁በቡድን	-6897
▁ሬድ	-6898
▁1920	-6899
▁የተሰኘ	-6900
ፋፍ	-6901
▁ተወግ	-6902
▁ግሩ	-6903
ሊኖይ	-6904
▁አለበት።	-6905
▁184	-6906
ግስ	-6907
ክቸ	-6908
ወጣት	-6909
▁ማስወገጃ	-6910
▁1987	-6911
▁አቤቱ	-6912
▁ኒኮ	-6913
▁አሳስ	-6914
▁ስለሚያ	-6915
▁መስራት	-6916
▁ለውጦችን	-6917
▁በመመ	-6918
ፈፀም	-6919
ቀዝቀ	-6920
▁መረቦች	-6921
ንግግር	-6922
▁ቶም	-6923
."	-6924
▁ፋኩልቲ	-6925
ለቶች	-6926
▁የተባሉ	-6927
▁ኬሚ	-6928
▁ሴንቲ	-6929
▁አድርጋ	-6930
▁ለማጥ	-6931
▁ብዙዎች	-6932
▁ተማሪዎችን	-6933
▁በሚለው	-6934
▁ክፉ	-6935
▁በሩሲያ	-6936
ችም	-6937
▁የምክር	-6938
ቄት	-6939
▁መረጋጋት	-6940
▁ይናገራል	-6941
▁1986	-6942
ገለጸው	-6943
▁አገልግሎቶችን	-6944
▁መሆናቸው	-6945
▁ይፈጥራል	-6946
ity	-6947
ፁም	-6948
▁ጀርሲ	-6949
ቀዝቀዣ	-6950
▁የሰብዓዊ	-6951
ዋጋት	-6952
ፌር	-6953
▁በድንገት	-6954
ናቀ	-6955
▁መረዳት	-6956
▁መስፈርቶች	-6957
▁አሳዛኝ	-6958
▁መንግሥቱ	-6959
▁ቅርጾች	-6960
▁ባት	-6961
ንጂ	-6962
▁ሥዕሎች	-6963
▁ለመግባት	-6964
▁ተሳታፊ	-6965
ፔራ	-6966
▁መንፈሳዊ	-6967
▁በሴቶች	-6968
▁ማስጠንቀቂያ	-6969
ሶን	-6970
▁ጉድለት	-6971
ስማሙ	-6972
ፕል	-6973
▁የውስጥ	-6974
ፍስ	-6975
ንማርክ	-6976
▁አንድም	-6977
▁ችሎት	-6978
▁ክር	-6979
▁የሚደግ	-6980
ቀረበ	-6981
ሪሽ	-6982
▁ማድ	-6983
▁ኢየሱስ	-6984
▁ጎዳናዎች	-6985
▁ደህንነቱ	-6986
▁ጋዜጠኞች	-6987
▁አምራቾች	-6988
ቦር	-6989
▁ማጣት	-6990
▁የጎደ	-6991
ቼን	-6992
▁መስቀለኛ	-6993
ሳሰል	-6994
መለክት	-6995
ap	-6996
AC	-6997
▁ቀጥሏል	-6998
▁ሞገድ	-6999
▁ትዝ	-7000
▁የሚያስተ	-7001
▁ይጓ	-7002
ወለዱ	-7003
▁ኮሌ	-7004
ኒየም	-7005
ረቡ	-7006
ወርክ	-7007
ሣዊ	-7008
▁በተግባር	-7009
▁ላሉት	-7010
▁የተማሪ	-7011
▁ፈል	-7012
ጀንቲ	-7013
ቻችንን	-7014
▁በግብ	-7015
▁ባንዲራ	-7016
▁1984	-7017
▁ስርዓቱ	-7018
▁ብርሃ	-7019
▁ራይ	-7020
▁ቦምብ	-7021
ዕም	-7022
▁ምሁር	-7023
ጪው	-7024
▁ለመድረስ	-7025
▁ከሀ	-7026
▁መንቀጥቀጥ	-7027
ጭበርበር	-7028
▁ሳይንቲ	-7029
▁ለኤ	-7030
▁እህት	-7031
▁ለመቀበል	-7032
▁በማጣ	-7033
▁ለመቅረ	-7034
▁አስመልክ	-7035
▁በትንሹ	-7036
▁አቀባይ	-7037
▁ባቡር	-7038
▁መጠበቅ	-7039
▁ማስተላለፍ	-7040
ቀሩ	-7041
በይ	-7042
▁ምግ	-7043
▁ለባ	-7044
▁በማግኘት	-7045
ምንም	-7046
▁300	-7047
▁መስጠ	-7048
▁የታተመ	-7049
▁በቋሚ	-7050
▁የማድረግ	-7051
▁ትርዒት	-7052
▁የሰውነት	-7053
ደረሰበት	-7054
▁በአስተ	-7055
▁አጋጥ	-7056
▁በመግ	-7057
ወጠ	-7058
ሰሶ	-7059
▁ዋት	-7060
▁የበር	-7061
ሰነ	-7062
▁ሰይ	-7063
▁ከአምስት	-7064
▁ሜትሮ	-7065
▁የከፍተኛ	-7066
ያቸውን	-7067
ንጆ	-7068
▁ቀኝ	-7069
▁አድናቆት	-7070
▁በመምራት	-7071
▁ሲታይ	-7072
▁ተከተ	-7073
▁ፈጠረ	-7074
▁በሶስት	-7075
▁መስፋፋት	-7076
▁በጦርነቱ	-7077
▁ያገኛ	-7078
▁አባላትን	-7079
FL	-7080
▁የአሠራር	-7081
.)	-7082
▁አደረጉ	-7083
ሸነፉ	-7084
ዮኖች	-7085
▁ከቆ	-7086
▁በልዩ	-7087
ሞተ	-7088
▁ታግ	-7089
ዷል።	-7090
ጨመሩ	-7091
▁ቀጣይ	-7092
▁ቴክኒክ	-7093
▁Ch	-7094
▁ግጥሚያዎች	-7095
▁34	-7096
ዋቂዎች	-7097
▁በጣሊያን	-7098
▁*	-7099
▁መኖ	-7100
▁አቀና	-7101
▁አልሆነ	-7102
ውጣ	-7103
▁ኮል	-7104
▁(3	-7105
ዶስ	-7106
ሳተፈ	-7107
▁የሚቻልበት	-7108
ላላፊ	-7109
ጠቃሚ	-7110
▁ድራይ	-7111
ፈሻ	-7112
▁አባቱ	-7113
▁ሕዝባዊ	-7114
▁በለንደን	-7115
▁ትል	-7116
▁ጥፋተኛ	-7117
ውነተኛ	-7118
est	-7119
▁ህብረተሰብ	-7120
▁በቀለ	-7121
▁እነሱን	-7122
▁እንደመሆኑ	-7123
▁የሚሰጥ	-7124
▁Ethiop	-7125
▁በዝርዝር	-7126
▁ባሕረ	-7127
▁ለዘ	-7128
▁የሴት	-7129
▁ማታ	-7130
ጩኸት	-7131
▁የልጆች	-7132
ቴድ	-7133
▁አላስ	-7134
▁ኦባማ	-7135
▁ዱካ	-7136
▁ሰለባ	-7137
ክታር	-7138
ቁን	-7139
ገዱ	-7140
▁ሌሎቹ	-7141
▁1985	-7142
▁ዓመቷ	-7143
▁የኑክሌር	-7144
▁ሕፃናት	-7145
ሬል	-7146
▁ጅምር	-7147
ዝቃዛ	-7148
▁አመጣጥ	-7149
--------	-7150
▁በዋሽንግተን	-7151
▁ለሶ	-7152
መረጡ	-7153
ጣሬ	-7154
▁ለሀ	-7155
ክብት	-7156
▁ለማጥፋት	-7157
በስበስ	-7158
▁የገጠር	-7159
▁ስፓ	-7160
AR	-7161
ist	-7162
ዞና	-7163
▁ይሞክ	-7164
▁የእርሻ	-7165
ክስፎርድ	-7166
▁አያው	-7167
▁መያዣ	-7168
▁ከኒው	-7169
▁ግራንድ	-7170
▁ይሆናሉ	-7171
▁ውለዋል	-7172
ድል	-7173
ተነ	-7174
▁ተግዳሮ	-7175
▁ዊሊያምስ	-7176
ጎራ	-7177
▁የተሸፈነ	-7178
▁በተሰኘው	-7179
▁ትዕዛ	-7180
▁ለእያንዳንዱ	-7181
ጣል።	-7182
ወሰዱ	-7183
▁የሚሉት	-7184
ቀዱ	-7185
▁ማርያም	-7186
▁ግንኙነቶችን	-7187
▁ክርስቶስ	-7188
▁ይታያሉ	-7189
▁በጦርነት	-7190
▁እየተደረገ	-7191
▁አንጻር	-7192
ገለፁ	-7193
▁ጥላቻ	-7194
ዝናብ	-7195
▁እረፍት	-7196
▁የመድኃኒት	-7197
▁ኅብረት	-7198
ፈፃፀም	-7199
▁ኮሜዲ	-7200
▁ኢንዱስት	-7201
▁በእውነተኛ	-7202
ሆንበት	-7203
▁ከሕ	-7204
▁ባቡ	-7205
በረሰቡ	-7206
▁የእነሱ	-7207
ላኩ	-7208
▁አለን	-7209
ጀልባው	-7210
▁ትው	-7211
ክሰን	-7212
▁ጎር	-7213
▁ግቢ	-7214
▁የተመሰረተው	-7215
ጋጭ	-7216
▁ሰብዓዊ	-7217
▁እንዳሉ	-7218
ምቤ	-7219
▁በመቀጠል	-7220
▁ስኮት	-7221
▁አንዲት	-7222
ዓቱ	-7223
የትኛውም	-7224
▁አስተናጋጅ	-7225
ሜትሪክ	-7226
▁እጩዎች	-7227
▁የታጠቁ	-7228
ማርኛ	-7229
▁አልነበሩም	-7230
መልከቻ	-7231
▁የኢትዮጵያን	-7232
▁ደረሰ	-7233
ak	-7234
▁ያለባቸው	-7235
▁ባልና	-7236
ፓርትመንት	-7237
▁ቀለል	-7238
▁ምሰሶ	-7239
▁የቬ	-7240
▁በትግራይ	-7241
ስተዋው	-7242
▁እንደሚያሳየው	-7243
▁ጣሊያን	-7244
▁አቀባ	-7245
ቀቱ	-7246
▁ለቀጣ	-7247
▁ለሁለተኛ	-7248
▁በየቀኑ	-7249
▁ሀሳቦች	-7250
▁ሐውልት	-7251
▁ፍልስፍና	-7252
▁ክፍፍል	-7253
▁ሰጠው	-7254
▁ግለሰ	-7255
▁to	-7256
▁ለመመስረት	-7257
▁ወላጆች	-7258
▁ድርጅቱ	-7259
▁ከደቡብ	-7260
▁ከዓ	-7261
▁ትግራይ	-7262
▁ተናግራ	-7263
▁በአራ	-7264
ጎበ	-7265
▁ብልህ	-7266
▁የሚጠራው	-7267
▁የምዕራብ	-7268
▁የጭንቅ	-7269
▁በአማራ	-7270
▁ከወጣ	-7271
▁ቢጫ	-7272
ፎርሜሽን	-7273
▁የፌደራል	-7274
▁1983	-7275
▁ለቀ	-7276
▁ያሸነፈ	-7277
▁ቤተመቅደስ	-7278
ጠሉ	-7279
▁ባክ	-7280
▁ቆር	-7281
▁የተፈጠረው	-7282
▁የያዙ	-7283
ሲንግ	-7284
ግቢ	-7285
▁ንባብ	-7286
▁ለማዘጋጀት	-7287
ጋግ	-7288
▁የኮሌጅ	-7289
▁እስራኤል	-7290
▁ፈንታ	-7291
▁ካፕ	-7292
27	-7293
▁ሁልጊዜ	-7294
▁ፕራ	-7295
▁አይመስ	-7296
▁ኦርቶዶክስ	-7297
ወሰደ	-7298
▁ማዘጋጃ	-7299
ዋርት	-7300
▁በከባድ	-7301
▁የተማረ	-7302
▁ተፎካካሪ	-7303
▁ሲፈ	-7304
▁የአደጋ	-7305
▁የአከባቢው	-7306
▁ፍሎ	-7307
▁ኮረብ	-7308
▁ጨረር	-7309
▁አተገባ	-7310
▁wrote	-7311
▁ዋይት	-7312
▁ጽፏል	-7313
ብሰባ	-7314
▁ትች	-7315
▁መቆጣጠር	-7316
▁በውሃ	-7317
▁የሃይድሮ	-7318
ምፔ	-7319
ድጓ	-7320
▁ይጠብ	-7321
▁መገንባት	-7322
ነቀ	-7323
▁ወይስ	-7324
ሐስ	-7325
▁ጥያቄዎችን	-7326
▁ምሳሌዎች	-7327
ሚና	-7328
ስተናገድ	-7329
▁ታማኝ	-7330
ጣሪዎች	-7331
ሮክ	-7332
ጠዋል።	-7333
▁አንዷ	-7334
ንዴ	-7335
▁ዘፋኝ	-7336
▁በራሳቸው	-7337
▁ተደምስ	-7338
▁የመክፈቻ	-7339
▁ፋይናንስ	-7340
ጌድ	-7341
ሮጥ	-7342
ቱጋል	-7343
▁አስመዝግ	-7344
ሽት	-7345
▁በፍርድ	-7346
▁ዝውውር	-7347
ኒማ	-7348
▁የተዋሃ	-7349
ቴጅ	-7350
▁ውክልና	-7351
▁38	-7352
▁ራዕ	-7353
ፅፅር	-7354
▁ለመልቀቅ	-7355
▁የተረጋገጠ	-7356
▁በተለየ	-7357
▁አንደኛ	-7358
▁የክፍል	-7359
▁ወንበ	-7360
▁የተደገፈ	-7361
▁የተረጋጋ	-7362
▁በአገ	-7363
▁ዘረ	-7364
▁በቬ	-7365
▁ከዲ	-7366
▁የሸክላ	-7367
ለጡ	-7368
▁ዳርቻዎች	-7369
▁መርሆ	-7370
▁ጀግና	-7371
▁ጭብጥ	-7372
መናል	-7373
ate	-7374
▁የሚችለው	-7375
▁ሁኔታን	-7376
ስኮፒ	-7377
AS	-7378
▁ጅማ	-7379
ዊዘርላንድ	-7380
▁ጤናማ	-7381
▁ሣ	-7382
▁ፍትህ	-7383
▁ቨርጂኒያ	-7384
▁እንችላ	-7385
▁አልበሙ	-7386
▁ተኩ	-7387
ሊቲ	-7388
▁ለሚያ	-7389
▁1972	-7390
▁ይመስለኛ	-7391
ጃን	-7392
▁1945	-7393
ሊፒንስ	-7394
▁ያገኛል	-7395
▁አስተማማኝ	-7396
▁ባልደረባ	-7397
▁ዓሣ	-7398
▁conta	-7399
▁ዩኒቨርሲቲዎች	-7400
▁የመጨረሻውን	-7401
▁ግጭቶች	-7402
▁ለቢ	-7403
▁180	-7404
▁ሰንጠረዥ	-7405
ታወት	-7406
▁አሳት	-7407
▁ጆሴፍ	-7408
▁ኃይለ	-7409
▁ተጠቅሟል	-7410
ፋሎት	-7411
ገልገል	-7412
ላለሁ	-7413
ቫይረሱ	-7414
▁ቅንጣቶች	-7415
▁ልዕ	-7416
ዳንታዊ	-7417
▁ኪሜ	-7418
▁የመርከብ	-7419
▁ማሪያ	-7420
od	-7421
▁ከቀድሞው	-7422
▁ያጠቃልላል	-7423
ጠቀሰው	-7424
BC	-7425
▁ሊያስከትል	-7426
▁የተገነቡ	-7427
▁የቀጥታ	-7428
▁መሐመድ	-7429
ዛማ	-7430
ወል	-7431
ጠባበቂያ	-7432
ነህ	-7433
▁የአይሁድ	-7434
▁እቅ	-7435
▁የባህ	-7436
▁ከሞተ	-7437
ዲያን	-7438
ቃን	-7439
▁ገደቦች	-7440
▁መዘግ	-7441
▁ጭንቅላት	-7442
▁የሚያን	-7443
ዝግብ	-7444
▁1982	-7445
▁የፎቶ	-7446
ሌዎች	-7447
ሲያን	-7448
▁ገዳይ	-7449
▁የሚሰራ	-7450
▁አብዛኛውን	-7451
ፖል	-7452
▁አደራ	-7453
▁ጥቅሞች	-7454
▁ለማቋቋም	-7455
ፆታ	-7456
▁ተጭ	-7457
▁ኮሚሽነር	-7458
ዋዕት	-7459
ary	-7460
ሰለ	-7461
▁ለመጫወት	-7462
▁ዕጣ	-7463
▁ሮዝ	-7464
▁ጂን	-7465
ግራፊያዊ	-7466
▁ያምና	-7467
▁ባንኮች	-7468
ቲካዊ	-7469
ጎም	-7470
▁ዳራ	-7471
ከዚህ	-7472
▁የሚነ	-7473
▁ዣ	-7474
▁በመስመር	-7475
▁ኢንፌ	-7476
ዮርክ	-7477
ሠራተኛ	-7478
▁ለተለያዩ	-7479
▁ብሮድ	-7480
▁ምስረታ	-7481
▁ደረጃዎችን	-7482
▁ፕሪሚየር	-7483
▁አየ	-7484
▁እየቀነሰ	-7485
▁ስሙ	-7486
▁መከራ	-7487
ቦቻቸው	-7488
▁አሲድ	-7489
ንደዚህ	-7490
▁የእስራኤል	-7491
ዘረዘ	-7492
▁የመልሶ	-7493
▁ወንድማማ	-7494
▁ሰጡ	-7495
if	-7496
▁አይቻል	-7497
▁የቴሌ	-7498
▁በመምጣቱ	-7499
▁በግልፅ	-7500
ዳቸውን	-7501
ሎግ	-7502
▁እቃ	-7503
▁በሻ	-7504
▁ወፍ	-7505
▁ተተኪ	-7506
▁ድርጊቶች	-7507
ራዶ	-7508
▁ጠባቂዎች	-7509
▁ወጪዎች	-7510
▁በምን	-7511
▁የግሪክ	-7512
ዘሮ	-7513
ርቫ	-7514
▁ሠር	-7515
▁አገልግለዋል	-7516
ጭሩ	-7517
▁ለመመ	-7518
ወያየት	-7519
ናስ	-7520
ሙኤል	-7521
▁የምስክር	-7522
ነሪንግ	-7523
ባስ	-7524
▁ባለሥልጣን	-7525
▁እንዲኖር	-7526
ካኔ	-7527
▁ተለቋል	-7528
▁ማዘጋጀት	-7529
▁አምስተኛ	-7530
▁ይመስላል።	-7531
▁ፈንድ	-7532
▁ስታቲስቲክስ	-7533
▁በብራ	-7534
▁መዋቅራዊ	-7535
▁በመሄድ	-7536
▁በዋናው	-7537
ቀደው	-7538
▁በቀጣይ	-7539
▁ቮል	-7540
ደቶች	-7541
▁አእምሮ	-7542
▁ሰም	-7543
▁ነበሯቸው	-7544
ሮቹን	-7545
▁ሮያል	-7546
▁ማሸነፍ	-7547
ሳትን	-7548
▁1979	-7549
▁ያገለግላል	-7550
▁በዛ	-7551
ባሪዎች	-7552
▁ስኮ	-7553
▁በሰጡት	-7554
▁የነፃነት	-7555
▁በእስር	-7556
▁የኦሎምፒክ	-7557
ሰጣቸው	-7558
▁ይጠራል	-7559
ርሱ	-7560
▁የባንክ	-7561
▁በአካባቢ	-7562
▁ጃፓን	-7563
ያኖ	-7564
▁ድጋ	-7565
▁ተፈራረመ	-7566
▁ጠበ	-7567
▁የብዙ	-7568
▁በክልል	-7569
▁በጥንቃቄ	-7570
▁ጉባዔ	-7571
▁ንጣ	-7572
▁ያስችለዋል	-7573
ከሪያ	-7574
▁አየርላንድ	-7575
▁ሒ	-7576
ከፋፈሉ	-7577
▁ዛፍ	-7578
▁አርሶ	-7579
የሰ	-7580
▁እሷን	-7581
▁ተቺዎች	-7582
ive	-7583
ዳጅነት	-7584
▁ሳም	-7585
▁እንድን	-7586
▁የድንበር	-7587
▁የሚያው	-7588
▁ስሪ	-7589
ስልምና	-7590
ረዳው	-7591
ሃይ	-7592
▁የታወቀ	-7593
▁የጂኦ	-7594
▁ተቀበለ	-7595
ዩተር	-7596
ክክር	-7597
▁ላላቸው	-7598
▁መጠለያ	-7599
ባበሩት	-7600
ገለግሉ	-7601
▁ጎረ	-7602
ጓደ	-7603
በትና	-7604
▁ይታወሳል።	-7605
ንድራ	-7606
▁አካባቢው	-7607
▁ገዳ	-7608
ጣኝ	-7609
▁ሌሎችም	-7610
ጂየም	-7611
▁የጽሑፍ	-7612
ዳክ	-7613
▁በዓመት	-7614
ሕአዴግ	-7615
▁በነሐሴ	-7616
ሩስ	-7617
▁ቀዳሚ	-7618
▁የስኮትላንድ	-7619
▁በማስተ	-7620
▁አስከፊ	-7621
▁ክህሎ	-7622
▁ታት	-7623
ዛጋቢ	-7624
▁በባለ	-7625
▁በመምታት	-7626
▁ከአሜሪካ	-7627
ገቢያ	-7628
▁ሞኖ	-7629
▁ለማምጣት	-7630
▁ማጣቀሻ	-7631
▁የንጉ	-7632
▁የመካከለኛው	-7633
▁ተሰም	-7634
▁ጠባብ	-7635
▁ፍቃ	-7636
ግድ	-7637
▁ጠላ	-7638
▁የወያኔ	-7639
▁ለበርካታ	-7640
▁መጠይ	-7641
ፎን	-7642
▁ያደረ	-7643
▁1968	-7644
▁በቼ	-7645
▁መናገር	-7646
ድረው	-7647
ፈዋል።	-7648
▁መንገዶችን	-7649
▁አክቲቪ	-7650
28	-7651
▁contains	-7652
ናቃ	-7653
▁በሰላም	-7654
ሰልጣ	-7655
▁ለበ	-7656
▁የቀረቡ	-7657
▁ቆስ	-7658
▁ክሎ	-7659
ጋኒስታን	-7660
ንተርኔት	-7661
ደንት	-7662
▁ተጥ	-7663
▁ለቤተ	-7664
▁ቴክኒካዊ	-7665
ተኞቹ	-7666
ውር	-7667
▁እንደሚገኝ	-7668
ሕር	-7669
▁ከሥ	-7670
▁አሞ	-7671
▁የተቀናጀ	-7672
▁መገ	-7673
ፐብሊካን	-7674
ቀርባ	-7675
▁አቀፉ	-7676
ላችንም	-7677
▁አስተዳዳሪ	-7678
ክርክ	-7679
▁እየታ	-7680
▁ጥይት	-7681
▁መበታተን	-7682
ችኛው	-7683
ሰናል	-7684
26	-7685
▁ፍሬድ	-7686
ጾችን	-7687
▁የሚከተሉት	-7688
▁ድምፆች	-7689
▁እንዲሰጥ	-7690
▁ይፈልጋ	-7691
▁ይኼ	-7692
▁ዕር	-7693
II	-7694
▁መርህ	-7695
▁ብሪታንያ	-7696
ክሊ	-7697
▁የሰጠ	-7698
ዙን	-7699
▁ምልክቶችን	-7700
up	-7701
ብራት	-7702
ቆሙ	-7703
se	-7704
▁አገላለ	-7705
▁1976	-7706
▁አውጪ	-7707
▁አብዛኞቹ	-7708
▁የሚያካት	-7709
▁የዘመ	-7710
▁ይጠቁማል	-7711
▁1981	-7712
ላንት	-7713
▁ታዳ	-7714
ጠይቁ	-7715
▁ከጆ	-7716
▁ማኅበር	-7717
▁የከተማው	-7718
▁(198	-7719
▁የጉዞ	-7720
ጆታ	-7721
▁ዴሞክራሲ	-7722
▁የተን	-7723
▁ሥጋ	-7724
ሴይ	-7725
▁ከሱ	-7726
▁በሕገ	-7727
▁75	-7728
ፎቹ	-7729
▁ምህዳ	-7730
▁እስራት	-7731
▁ለማምረት	-7732
▁እራሳቸውን	-7733
▁ገመድ	-7734
▁ተዘርግ	-7735
▁ተዕለት	-7736
ፓል	-7737
▁ኤምባሲ	-7738
▁ጠፍጣፋ	-7739
▁ክሪክ	-7740
ጀንቲና	-7741
▁ለጉ	-7742
ንሰርት	-7743
37	-7744
▁ሰራሽ	-7745
▁የታሰበ	-7746
▁መዝገቦች	-7747
▁ዘርፎች	-7748
▁ንጉስ	-7749
▁ሜክሲኮ	-7750
▁ያጋጠ	-7751
▁በማሰብ	-7752
▁1974	-7753
ፍሉ	-7754
▁የመማር	-7755
IS	-7756
▁ከገ	-7757
▁ማስወገድ	-7758
▁ሰጥቷል	-7759
▁CO	-7760
▁አስታውቀዋል	-7761
▁በጤና	-7762
▁የፈለ	-7763
▁ፍሪ	-7764
▁እገዳ	-7765
▁የተለያየ	-7766
ታወቅም	-7767
▁37	-7768
ዳል።	-7769
ምቦ	-7770
ይይት	-7771
ደስ	-7772
▁ሚዛናዊ	-7773
▁ያለማቋረጥ	-7774
ቭስኪ	-7775
ሬዝ	-7776
▁የታይ	-7777
▁የግብር	-7778
ጫወተው	-7779
ክታ	-7780
ዋሳት	-7781
▁ባህሪያት	-7782
▁የበሽታ	-7783
▁አስተዋውቋል	-7784
▁ቦታን	-7785
▁በምዕራ	-7786
▁አልጋ	-7787
▁ጊዮርጊስ	-7788
ላህ	-7789
▁ገልፀዋል።	-7790
▁በተገ	-7791
▁ማስተላለፊያ	-7792
▁ዝርዝሮች	-7793
▁k	-7794
▁ስክሪፕ	-7795
▁ከባለ	-7796
▁ሚል	-7797
▁ወቅቶች	-7798
har	-7799
▁ግዜ	-7800
▁እርምጃዎችን	-7801
ሶታ	-7802
ታደር	-7803
▁was	-7804
▁ከሊ	-7805
ዘዝ	-7806
መሮች	-7807
ሲባዊ	-7808
33	-7809
▁ነፋሱ	-7810
▁ያካሂ	-7811
▁የሚከሰቱ	-7812
▁°	-7813
▁የሚፈልጉ	-7814
▁በመሠረቱ	-7815
▁አልቻሉም	-7816
ያውቅ	-7817
ኝታ	-7818
198	-7819
ክሉ	-7820
▁ቅርጸ	-7821
▁የቫ	-7822
▁በአፍ	-7823
ውሎስ	-7824
▁ያብራ	-7825
▁ካፒታል	-7826
ልስጤ	-7827
▁ካቶሊክ	-7828
ፕቲካል	-7829
▁በመው	-7830
▁ሞለኪው	-7831
ገደብ	-7832
▁ወጥቶ	-7833
▁አጥንት	-7834
ተገበር	-7835
▁ታዋቂው	-7836
▁ፍትሃዊ	-7837
▁ከማንኛውም	-7838
▁አንቲ	-7839
ሪፍ	-7840
ኩር	-7841
▁ጠቅላላ	-7842
▁ትሬ	-7843
ንጎ	-7844
▁ውጤቱ	-7845
▁ትእ	-7846
▁የሽብር	-7847
▁አላማ	-7848
▁በውስጡ	-7849
▁በመጫወት	-7850
▁መወሰን	-7851
▁ለህዝብ	-7852
ገነቡ	-7853
-5	-7854
▁አትሌቲክስ	-7855
▁መቻ	-7856
▁ክሪኬት	-7857
▁ሕብረ	-7858
▁በኃ	-7859
▁መሆኗን	-7860
▁ገብቷል	-7861
▁የአስ	-7862
▁በኦሮሚያ	-7863
▁ሆስፒ	-7864
▁አንባቢ	-7865
▁ድንቅ	-7866
▁ቦታው	-7867
ጀመርያ	-7868
▁መሄድ	-7869
ልኝ	-7870
▁የዝ	-7871
NN	-7872
ሊያም	-7873
▁መጽሐፉ	-7874
ጦት	-7875
▁1975	-7876
▁ዳንስ	-7877
ቴሪያ	-7878
▁የብራ	-7879
▁ጃክሰን	-7880
▁ከፍተኛውን	-7881
65	-7882
ቀበሉ	-7883
▁ዛሬም	-7884
▁ጠመንጃዎች	-7885
▁መቶኛ	-7886
▁ፈታኝ	-7887
▁መግለጫዎች	-7888
▁ያደርጋሉ	-7889
ፖርተር	-7890
▁አሽ	-7891
▁ተንታ	-7892
ኪዮ	-7893
ትንሽ	-7894
▁ወታደሮችን	-7895
▁ለጊዜው	-7896
▁ተደራሽ	-7897
▁ተጎድ	-7898
ደውን	-7899
ኪኦሎጂ	-7900
ሽከረ	-7901
ላዎች	-7902
▁ትሮ	-7903
▁ተቋቋመ	-7904
▁የተቋቋሙ	-7905
▁እስከሚ	-7906
ቀውን	-7907
ፍር	-7908
▁1944	-7909
▁ሕጋዊ	-7910
▁ሰፈር	-7911
ኒካ	-7912
▁የከፋ	-7913
ዎቻችን	-7914
▁የበለፀ	-7915
ሶቹ	-7916
▁የስኳር	-7917
▁ማቲ	-7918
▁ቴክኒኮች	-7919
▁ኤሚ	-7920
▁አምባገነ	-7921
ሮንቶ	-7922
▁የተገደበ	-7923
▁ንግግ	-7924
ገሰ	-7925
▁በየዓመቱ	-7926
▁ፍሰ	-7927
▁ቁጥሮች	-7928
▁ግርማ	-7929
ጎልበት	-7930
▁ልን	-7931
▁ትርኢት	-7932
▁ሲስተ	-7933
▁ተከፍ	-7934
▁ችግሩ	-7935
▁ተራሮች	-7936
ገደሉ	-7937
ፕራይ	-7938
▁ከጦርነቱ	-7939
▁1978	-7940
▁ንፁ	-7941
ፈጠረው	-7942
▁የተፈጸ	-7943
▁መጠጥ	-7944
▁1971	-7945
ቪክ	-7946
ሙላት	-7947
▁ካላቸው	-7948
▁አስፈጻሚ	-7949
ፍያ	-7950
▁ሐኪሞች	-7951
ያኑ	-7952
▁የሚታወቅ	-7953
▁ሰማይ	-7954
ዳድር	-7955
ኳስ	-7956
ግባራዊ	-7957
▁የሚሆን	-7958
▁አባቶች	-7959
ፍጨ	-7960
▁ቾ	-7961
▁ለማስተዋወቅ	-7962
▁1973	-7963
▁በበረ	-7964
▁የመሆን	-7965
▁ቤተሰቡ	-7966
ግሬ	-7967
▁ክሌ	-7968
▁ጥረቶች	-7969
▁በአብዛኛዎቹ	-7970
▁ደረቅ	-7971
ኬስትራ	-7972
ፋሪዎች	-7973
▁ሃን	-7974
▁የማር	-7975
▁የሆኑትን	-7976
▁አሌክሳንደር	-7977
ልሲ	-7978
▁የገባ	-7979
▁አስመልክቶ	-7980
ኔስ	-7981
▁ህዝቡ	-7982
▁ማራዘ	-7983
▁ቀርበዋል	-7984
ሃንጋሪ	-7985
ገልጽ	-7986
ant	-7987
ጽዳት	-7988
ለሪ	-7989
ገጥ	-7990
100	-7991
▁የመዋ	-7992
▁ጉድጓድ	-7993
ቃላት	-7994
▁እየተካሄደ	-7995
29	-7996
▁አድርገዋል።	-7997
▁የአስተ	-7998
ሃድሶ	-7999
▁ገዢ	-8000
▁የፖላንድ	-8001
▁ስፕሪ	-8002
▁ለዓ	-8003
ኸር	-8004
ገኘውን	-8005
▁ጉዳቶች	-8006
▁የቀዶ	-8007
▁400	-8008
▁ቅነሳ	-8009
እኮ	-8010
▁አፈፃፀ	-8011
▁የዕድሜ	-8012
▁ፖስት	-8013
▁ሐኪም	-8014
ኳን	-8015
▁የተያያዙ	-8016
ሪቲሽ	-8017
▁ሰአት	-8018
▁አቋቁ	-8019
ዊክ	-8020
ዊንስ	-8021
▁ሆኗል።	-8022
ንሳስ	-8023
▁ይጥ	-8024
▁በኢኮኖሚ	-8025
▁ሳለ	-8026
▁አቡነ	-8027
▁ሲኖ	-8028
▁2.	-8029
▁ድንገተኛ	-8030
▁መላው	-8031
▁ከከተማ	-8032
ደዱ	-8033
ሞንት	-8034
▁ከተመ	-8035
▁ተፋሰስ	-8036
▁በደል	-8037
ጠፉ	-8038
▁ተሻሽ	-8039
▁ሱቅ	-8040
▁ውጊ	-8041
▁የቁጥር	-8042
▁ይልቁ	-8043
ቆጠሩ	-8044
▁ከሆ	-8045
ታሪክ	-8046
▁የመግቢያ	-8047
▁ኤንድ	-8048
▁ማራኪ	-8049
▁ኦርጋ	-8050
ፕሬዚዳንት	-8051
▁በመጠ	-8052
▁ስብሰባዎች	-8053
▁በመታ	-8054
ፈጥሩ	-8055
▁ሦስቱ	-8056
ናችን	-8057
▁ያስታው	-8058
▁ማስረጃዎች	-8059
ኪስ	-8060
ብሪ	-8061
▁ጎራ	-8062
ጠየቁ	-8063
ይሊ	-8064
▁ይቀበ	-8065
▁ተኩስ	-8066
▁”	-8067
▁ከሰው	-8068
▁መልዕክ	-8069
▁ይመር	-8070
ኝም	-8071
▁ማሰብ	-8072
▁የፕላ	-8073
▁በአንዱ	-8074
▁ይመረም	-8075
ደቡ	-8076
▁እንደሌለው	-8077
▁የተሸ	-8078
▁የአባ	-8079
▁በመካከለኛው	-8080
▁ለአጭር	-8081
▁ለማዳበር	-8082
▁አራተኛው	-8083
▁አብር	-8084
▁ይገነ	-8085
ሎና	-8086
▁ካላ	-8087
▁እግረኛ	-8088
▁ማት	-8089
▁ማሻሻያዎች	-8090
ጣጌጥ	-8091
▁ማገጃ	-8092
▁ውዝግብ	-8093
አክ	-8094
ሎክ	-8095
ill	-8096
▁የፕሮጀ	-8097
ርጂያ	-8098
ፈጠሩ	-8099
▁ጳጳሳት	-8100
▁(1)	-8101
▁የተሻሻለ	-8102
ቆዩ	-8103
▁ወደሚገኘው	-8104
ነገረ	-8105
ነጋገር	-8106
▁ሥርወ	-8107
▁ዕድገት	-8108
▁ሚስጥራዊ	-8109
ባውያን	-8110
ቀመጠ	-8111
▁በሥነ	-8112
▁ኃይልን	-8113
▁ቆንጆ	-8114
ጠናቅ	-8115
▁በኃይል	-8116
▁በጥልቀት	-8117
▁መደረጉ	-8118
und	-8119
▁በጥይት	-8120
ላሊት	-8121
▁ይደር	-8122
ለቀቁ	-8123
▁ከነበረው	-8124
ሌዥያ	-8125
ሞኑን	-8126
ገጽ	-8127
▁ሊያሳ	-8128
▁አጋጣሚዎች	-8129
▁ማዕቀ	-8130
▁አፕሊ	-8131
▁የጠቅላይ	-8132
ጥሩ	-8133
▁በመፍ	-8134
▁እንደሌለ	-8135
▁የእድገት	-8136
▁ይኸ	-8137
▁ሃገራት	-8138
▁አደረጃ	-8139
▁የቀን	-8140
▁1977	-8141
▁በጨ	-8142
▁ታዲያ	-8143
▁ካታ	-8144
ሽታው	-8145
▁ከኬ	-8146
▁አታ	-8147
▁ተለዋዋጮች	-8148
▁አወዛጋቢ	-8149
▁እንቅስቃሴዎችን	-8150
ንደኛ	-8151
▁መፅ	-8152
▁ትክክል	-8153
▁ሲደርስ	-8154
▁ሽፋ	-8155
ደኝነት	-8156
▁ጨለማ	-8157
▁1967	-8158
▁150	-8159
ለመደው	-8160
▁ዘግቧል።	-8161
▁መሻሻል	-8162
▁ለመቋቋም	-8163
77	-8164
▁ሮድ	-8165
▁ከዘ	-8166
▁ድራይቭ	-8167
▁ይጠቀማሉ	-8168
▁መመዘኛ	-8169
ጴዛ	-8170
ሹራንስ	-8171
ጎብኘት	-8172
95	-8173
ማኒ	-8174
▁በመግለ	-8175
▁ስፖርተኞች	-8176
▁አስተያየቶች	-8177
ሻሊስት	-8178
▁የሚመረ	-8179
▁የዛ	-8180
ወዳ	-8181
▁ወንበር	-8182
ባችን	-8183
▁ማይክ	-8184
▁የተመረጡ	-8185
▁ግራም	-8186
▁ረዥም	-8187
▁ከዛ	-8188
▁በማያ	-8189
▁የአሁኑን	-8190
▁ጥምርታ	-8191
▁ሻምፒዮናዎች	-8192
▁የገቢ	-8193
ጽና	-8194
▁የኦሮሚያ	-8195
▁ለማዳን	-8196
▁ሚድ	-8197
ኖም	-8198
▁ቀጭን	-8199
▁ከምር	-8200
▁የክረምት	-8201
▁ተቋማ	-8202
ጀርስ	-8203
▁ማረፊ	-8204
▁ከእነሱ	-8205
▁መጠኖች	-8206
▁ማመንጫ	-8207
▁በግማሽ	-8208
▁ዝንባ	-8209
▁ቴክሳስ	-8210
▁ታውቋል	-8211
▁1969	-8212
▁የለውጥ	-8213
▁ማቅረ	-8214
▁48	-8215
▁ቅጠ	-8216
ሰቃ	-8217
▁ወይዘሮ	-8218
▁ህት	-8219
▁አይሁዳውያን	-8220
▁ከቁ	-8221
▁ሥርዓቶች	-8222
▁የአካዳሚክ	-8223
▁ልት	-8224
▁ክሶች	-8225
▁አቀፋዊ	-8226
▁ኮርፕስ	-8227
ev	-8228
▁ምእ	-8229
▁ዴቪስ	-8230
▁ሰጪዎች	-8231
▁አበባ፣	-8232
ጋገ	-8233
▁ስለነበረ	-8234
NA	-8235
▁ከተማው	-8236
ስፊክ	-8237
ቀመጡ	-8238
▁ጥንቅር	-8239
▁ይከራ	-8240
▁1942	-8241
ስቷል	-8242
▁ግኝት	-8243
▁በአንደኛው	-8244
▁እድሜ	-8245
ደርሰን	-8246
ነርጂ	-8247
ሜትሪ	-8248
▁እውን	-8249
ካስ	-8250
▁መተማመን	-8251
▁ጠቁመዋል	-8252
▁ውበት	-8253
▁አረጋ	-8254
ሊው	-8255
ማኝ	-8256
▁ቡድኖችን	-8257
▁ተሰጥቷቸዋል	-8258
▁ማመቻቸት	-8259
ru	-8260
ዩብ	-8261
ራፒ	-8262
ተርን	-8263
▁ለመግዛት	-8264
▁ይመለ	-8265
ቤቶች	-8266
av	-8267
ቦርድ	-8268
▁ባለሀብ	-8269
ፈልጋቸው	-8270
▁ያደ	-8271
ችልም።	-8272
▁አጥባቂ	-8273
ik	-8274
ባቸዋል።	-8275
▁ጀግ	-8276
▁ፍራንሲስ	-8277
▁ቮን	-8278
▁ወይንም	-8279
▁ተልእኮ	-8280
▁የእይታ	-8281
▁ሰብስ	-8282
▁ስጦታ	-8283
▁በጨዋታ	-8284
ዘዘ	-8285
▁በሴንት	-8286
▁ለማውጣት	-8287
ፑር	-8288
▁አድራሻ	-8289
▁እንደም	-8290
▁ዕዳ	-8291
▁ሰዶማውያን	-8292
▁ተመዝግቧል	-8293
▁ፖርት	-8294
▁የተዛመደ	-8295
▁በተለያየ	-8296
▁ሪፖርቶች	-8297
▁ፈረሰኞች	-8298
የውን	-8299
ሰተኛ	-8300
▁አተገባበር	-8301
ትርያ	-8302
▁ውቅያኖስ	-8303
▁በደቡባዊ	-8304
▁በመደገፍ	-8305
ሀት	-8306
▁ትርጉ	-8307
▁አነሳ	-8308
▁ህዝባዊ	-8309
ዚን	-8310
ማጭ	-8311
▁ናቸው፡፡	-8312
ጎራባች	-8313
▁ጨር	-8314
▁ከስድስት	-8315
ፈልገውን	-8316
▁የሚሠራ	-8317
ስካር	-8318
▁መቀበል	-8319
▁የሚጀም	-8320
▁የድጋፍ	-8321
▁መርዛማ	-8322
ባልደረ	-8323
ሰንዘር	-8324
ሪክስ	-8325
▁ዘል	-8326
አም	-8327
▁ቤታቸው	-8328
ጣቱን	-8329
ኖርበት	-8330
ጠናቀቀው	-8331
▁እየሆነ	-8332
ell	-8333
BA	-8334
▁በዙሪያው	-8335
ስተዋል	-8336
ቤክ	-8337
ከርከር	-8338
▁ቁርጠኝነት	-8339
ወድቅ	-8340
▁ይታወቃል።	-8341
▁የተሠሩ	-8342
▁የሚያስከት	-8343
▁III	-8344
▁በሜክሲኮ	-8345
▁የተለመደው	-8346
▁የነሐስ	-8347
ሳያ	-8348
▁(4	-8349
▁ይገባል።	-8350
ነል	-8351
▁ከሰሜን	-8352
ወከል	-8353
▁አስፈሪ	-8354
▁አገኘች	-8355
▁ባለመቻሉ	-8356
▁ከመን	-8357
▁ነበረባቸው	-8358
ለይ	-8359
▁ቴዎ	-8360
ኖራቸውን	-8361
▁ፍሎሪዳ	-8362
ራችን	-8363
▁አሳድሯል	-8364
▁መሆኑንም	-8365
ቃጠል	-8366
▁ከሁለተኛው	-8367
▁የዓሣ	-8368
▁ትራፊክ	-8369
▁በእሳት	-8370
ኒያን	-8371
▁የጣ	-8372
▁የታተ	-8373
▁ባለሥልጣ	-8374
▁ለመከታተል	-8375
ባኤ	-8376
ት።	-8377
▁የተበ	-8378
ተኮስ	-8379
▁!	-8380
▁ጓደኞች	-8381
▁በፌዴራል	-8382
ንዶን	-8383
▁ይገኛሉ።	-8384
▁ክላሲካል	-8385
▁እንዲያገኙ	-8386
▁ሽብር	-8387
▁የሞተር	-8388
ost	-8389
▁በደረ	-8390
▁መርማሪ	-8391
▁ያነሳ	-8392
▁ቅሪተ	-8393
▁ይጫወታል	-8394
▁ለፓ	-8395
▁1941	-8396
ቨርጂኒያ	-8397
ይዩ	-8398
ከፋፈለ	-8399
ድድሩ	-8400
▁በመል	-8401
ርያ	-8402
ንሲን	-8403
our	-8404
▁ያስችላቸዋል	-8405
ቴና	-8406
▁ሙር	-8407
▁ልጆችን	-8408
ሸፈን	-8409
▁ቀድ	-8410
▁ማራዘሚያ	-8411
▁ይቻላል።	-8412
▁የመዝናኛ	-8413
▁የጾታ	-8414
▁በመጨመር	-8415
▁በቀጣዮቹ	-8416
▁ክላርክ	-8417
▁በስፔን	-8418
▁ይስ	-8419
▁እንግሊዝኛ	-8420
▁ይመራ	-8421
▁ከሥራ	-8422
▁አስተዳደራዊ	-8423
▁ግብይት	-8424
▁ሀብታም	-8425
▁ፍፃሜው	-8426
ዎች፣	-8427
▁የሠ	-8428
▁ድራ	-8429
ወን	-8430
ቸዋ	-8431
▁የእኔ	-8432
ቁረጥ	-8433
▁ጣፋ	-8434
▁ይን	-8435
▁ድንበ	-8436
▁ዳግማዊ	-8437
ዊነት	-8438
36	-8439
▁መስኮ	-8440
▁ማስተር	-8441
?”	-8442
ቡዕ	-8443
ሰሜን	-8444
መራር	-8445
▁ተጨዋ	-8446
ሟሉ	-8447
▁ነባር	-8448
▁ለማለት	-8449
▁ተቀባዮች	-8450
▁በታላቁ	-8451
▁የቆዳ	-8452
▁እንዲያደርጉ	-8453
ፌዴሬሽን	-8454
▁ሶስተኛ	-8455
▁ሊኖረው	-8456
▁የሚመነ	-8457
▁በኒ	-8458
▁ረድቷል	-8459
ሌቲክስ	-8460
ቶል	-8461
▁ተቀባይ	-8462
▁የሳንባ	-8463
▁ከአዲስ	-8464
ast	-8465
▁ትልልቅ	-8466
▁አክብ	-8467
▁መኪኖች	-8468
▁አዘዘ	-8469
▁ስትል	-8470
).	-8471
▁ያቀረበ	-8472
▁በሙከራ	-8473
▁ተጠብ	-8474
▁1964	-8475
▁ያለም	-8476
ly	-8477
▁የተገናኘ	-8478
‹‹	-8479
ሊኮ	-8480
▁ለማከናወን	-8481
▁ማግኘ	-8482
▁የወንድ	-8483
▁ያልተለመዱ	-8484
ጠበቀው	-8485
ገዝ	-8486
▁ተጫዋቾችን	-8487
▁መቅ	-8488
ናማ	-8489
▁የአጥ	-8490
▁ዊልሰን	-8491
▁መወሰ	-8492
ine	-8493
▁ኤግዚቢሽን	-8494
▁ተዋህ	-8495
▁ማምረት	-8496
▁በስድስት	-8497
በዝ	-8498
▁በአው	-8499
▁እንዲያውም	-8500
▁ቀድሞ	-8501
▁አፈር	-8502
▁የመነሻ	-8503
▁በተራ	-8504
ላከ	-8505
▁አብራር	-8506
34	-8507
▁ህልውና	-8508
ገነዘበ	-8509
▁ለቡ	-8510
ክፍል	-8511
ሕፈት	-8512
▁ወርቃ	-8513
ዎል	-8514
▁ይወያ	-8515
▁ተከራክ	-8516
ወስዱ	-8517
ሚስ	-8518
ጠነኛው	-8519
▁ንግሥት	-8520
▁አገላለጽ	-8521
▁ሊኖር	-8522
▁ሂደቱ	-8523
▁በሺዎች	-8524
ጣጣፊ	-8525
መውን	-8526
▁ያንግ	-8527
▁ነፋሶች	-8528
▁ተነግ	-8529
▁ናኖ	-8530
▁ከቢ	-8531
ሬዳ	-8532
▁በስታ	-8533
▁ኮሚቴው	-8534
▁ሕፃ	-8535
ዞችን	-8536
▁ለሲ	-8537
▁ሳጥን	-8538
▁ዕውቀት	-8539
▁በአስራ	-8540
▁ልጃገረዶች	-8541
▁ልቀት	-8542
▁መድኃኒቶች	-8543
ኑም	-8544
▁የመጀመሪያዋ	-8545
▁ብን	-8546
▁በየጊዜው	-8547
▁ላለው	-8548
▁የቡድ	-8549
ለትን	-8550
ዛይ	-8551
▁አረቢያ	-8552
ረሰቦች	-8553
▁ይረዳል	-8554
▁በእን	-8555
____	-8556
▁ያሳድራል	-8557
ቨርስ	-8558
▁ምርቶችን	-8559
▁ፓን	-8560
▁የተደራጀ	-8561
▁ተጫዋቹ	-8562
ሜትሮ	-8563
ነውን	-8564
▁ኬንያ	-8565
ዉድ	-8566
EC	-8567
▁ጫካ	-8568
▁ፍል	-8569
ከፈተ	-8570
▁ጣሪያ	-8571
▁መድኃኒት	-8572
▁ምረቃ	-8573
▁በሚሆንበት	-8574
▁ብሎክ	-8575
▁የከተማዋ	-8576
out	-8577
ለድ	-8578
ክርክሪት	-8579
▁ተካሂደዋል	-8580
▁አዝ	-8581
ድሮስ	-8582
▁1966	-8583
▁በቴሌቪዥን	-8584
▁ከቅ	-8585
▁ለመዋጋት	-8586
▁ማዕረ	-8587
▁39	-8588
▁የሚው	-8589
▁አይገባ	-8590
▁ተስፋዬ	-8591
▁ሃያ	-8592
▁ሃም	-8593
▁የተከለ	-8594
▁ዩሮ	-8595
▁ያድር	-8596
▁መሞ	-8597
38	-8598
▁ሀይል	-8599
▁በሀገሪቱ	-8600
ጆችን	-8601
▁ለሰው	-8602
▁ተከታዮች	-8603
ታየው	-8604
▁አኒሜሽን	-8605
ፖሊታን	-8606
ኔዲ	-8607
32	-8608
ብዛም	-8609
▁የታችኛው	-8610
ራለን	-8611
▁የአሜሪካን	-8612
▁አዛዥነት	-8613
▁በፕ	-8614
▁ስለማይ	-8615
▁ይገለ	-8616
▁የሥልጣን	-8617
▁እንቅስቃሴን	-8618
ቅደሱ	-8619
▁44	-8620
ፍታ	-8621
▁የተቃውሞ	-8622
ቺን	-8623
▁ጎብኝ	-8624
▁ቆየ	-8625
ጠብቅ	-8626
▁ዋነኛ	-8627
▁ጀብ	-8628
ዋንያን	-8629
ፒን	-8630
78	-8631
▁ባለመሆኑ	-8632
ነሰ	-8633
▁ይላል።	-8634
▁ለሦስት	-8635
ነብ	-8636
▁65	-8637
▁የፕሬዚ	-8638
ነርሱ	-8639
ባረር	-8640
▁ፕሮፌሽናል	-8641
▁አይቀር	-8642
▁በዜ	-8643
▁ማሻሻል	-8644
ርሻ	-8645
▁ላለፉት	-8646
▁የኡ	-8647
ኑስ	-8648
▁ውሳኔዎች	-8649
▁የጀመረ	-8650
የኢትዮጵያ	-8651
▁1965	-8652
▁በፖሊስ	-8653
ግረኛ	-8654
▁1943	-8655
▁ጥርጣሬ	-8656
▁የተያያዘ	-8657
▁መቃብር	-8658
▁ሶፍትዌር	-8659
▁በቫ	-8660
ግዳል	-8661
▁ሌን	-8662
▁አቤቱታ	-8663
▁ትምህርቶች	-8664
ግሬሽን	-8665
ሹን	-8666
▁ተግባራትን	-8667
ጠብቁ	-8668
▁ቀጥሎ	-8669
እስ	-8670
▁አልበሞች	-8671
▁ይከሰ	-8672
ዴሽ	-8673
▁ባወጣው	-8674
▁ለሆኑ	-8675
▁በይነ	-8676
▁ተመሳሳይነት	-8677
▁ትውስታ	-8678
ምፕሰን	-8679
ጻናት	-8680
ጌት	-8681
▁ይጋ	-8682
▁አደሮች	-8683
▁አገልጋ	-8684
▁ቆዳ	-8685
ጠባ	-8686
▁ተሸካሚ	-8687
ff	-8688
▁ዘሮች	-8689
▁አማር	-8690
ፕቲ	-8691
▁ደንበኞች	-8692
▁በአጋጣሚ	-8693
▁በተወሰኑ	-8694
▁የተዛ	-8695
በላሸት	-8696
▁በአጭሩ	-8697
ኛል።	-8698
▁ኢንቨስትመንት	-8699
ember	-8700
▁ይናገራሉ።	-8701
▁ቅዱሳን	-8702
▁ይጠቅ	-8703
ሴቲቱ	-8704
ዝነስ	-8705
▁ማለፍ	-8706
66	-8707
ክሩ	-8708
ጥበት	-8709
▁ፕሮግራሞችን	-8710
▁$	-8711
ምፕተን	-8712
ስቲንግ	-8713
▁ሳውዝ	-8714
▁ሰላጤ	-8715
▁ጎልማ	-8716
▁ጳውሎስ	-8717
▁መመል	-8718
ላለም	-8719
▁ለሪ	-8720
▁ራዕይ	-8721
▁የተገናኙ	-8722
▁ትውል	-8723
ID	-8724
▁ጨርቅ	-8725
▁አስተዳዳሪዎች	-8726
ud	-8727
▁አልነበረም።	-8728
▁የትራፊክ	-8729
▁እያሳ	-8730
▁ገንዳ	-8731
ang	-8732
▁ኮከቦች	-8733
▁መሠረተ	-8734
▁ባንዱ	-8735
ሞላ	-8736
▁የአመጋገብ	-8737
ጠሩት	-8738
ምብል	-8739
▁በቁጥር	-8740
▁ተገንብቷል	-8741
▁የተቀበ	-8742
▁አስረድተዋል።	-8743
▁በብዛት	-8744
ነቁ	-8745
▁ለማጠናከር	-8746
ሃር	-8747
▁ሪከርድስ	-8748
ፈረን	-8749
ውሮፕላ	-8750
▁አቀባበል	-8751
▁በፈቃ	-8752
▁ሥራን	-8753
መዘገበ	-8754
▁ፖለቲከኛ	-8755
▁አሃድ	-8756
▁የጎርፍ	-8757
▁ኢትዮ	-8758
▁ተሻ	-8759
39	-8760
▁ትኩስ	-8761
ናር	-8762
▁የፖሊሲ	-8763
▁ፖሊሲዎች	-8764
▁እንደማይችል	-8765
▁ባለፈ	-8766
▁ጥቅል	-8767
▁አፋ	-8768
▁ብላክ	-8769
▁ለሕዝብ	-8770
ሳችን	-8771
▁ሃውስ	-8772
▁የተባለውን	-8773
▁ሚንስት	-8774
▁የአቶ	-8775
▁ካሪ	-8776
ምቢ	-8777
▁ሌሊት	-8778
▁ቻናል	-8779
▁የሚያመለክ	-8780
▁ላለመ	-8781
▁ውፍረት	-8782
▁ሞዴሊንግ	-8783
▁አካሂዷል	-8784
▁መጠነኛ	-8785
▁የግብረ	-8786
▁በማግ	-8787
▁የጄኔቲክ	-8788
▁የተዋቀረ	-8789
▁ገንብ	-8790
▁ሁለተኛውን	-8791
▁አገል	-8792
▁የኤሌክትሮኒክ	-8793
ምህንድስና	-8794
መንዌል	-8795
▁for	-8796
▁አድናቂዎች	-8797
▁ከዴ	-8798
▁ሲታ	-8799
ምፎ	-8800
▁ፎቶግራ	-8801
ካራ	-8802
▁ንስ	-8803
ንክሪት	-8804
▁የዓመቱ	-8805
▁እያስ	-8806
▁የልደት	-8807
▁ማስገባት	-8808
▁55	-8809
ገለፁት	-8810
▁ሚሺጋን	-8811
ዥረት	-8812
▁የገቡ	-8813
ያንግ	-8814
ሲኖ	-8815
▁ሎስ	-8816
▁አፕሊኬ	-8817
▁ቀልጣ	-8818
ምም	-8819
▁ኦሮሞ	-8820
▁ሰከንዶች	-8821
▁የዛሬ	-8822
ተገበሩ	-8823
▁የዋለው	-8824
▁ሰነዶች	-8825
ታይፕ	-8826
ies	-8827
▁ሰርጥ	-8828
▁ወንጀሎች	-8829
▁ተመልክቷል	-8830
▁እምብዛም	-8831
▁ተጣጣፊ	-8832
ሀሳ	-8833
ደተኞች	-8834
▁አውጥቷል	-8835
▁ኑሮ	-8836
▁በእርግጠኝነት	-8837
▁ይልቁንም	-8838
▁ምስሎችን	-8839
▁አስተባባሪ	-8840
ነን	-8841
▁ሕዝቡ	-8842
ጫኑ	-8843
▁ከጋ	-8844
▁የወይን	-8845
▁ያተኩ	-8846
▁3.	-8847
መንዌልዝ	-8848
▁በእግር	-8849
ገለጠ	-8850
ኖረውም	-8851
▁ጠመ	-8852
▁ከተደረገ	-8853
▁አሽከርካሪዎች	-8854
▁የጉልበት	-8855
▁ዱቄት	-8856
▁ሳሙኤል	-8857
▁መሳሪያዎችን	-8858
▁ለማሟላት	-8859
▁ፊርማ	-8860
ውጣጡ	-8861
RA	-8862
▁r	-8863
▁አካሄድ	-8864
ዌን	-8865
▁የጎሳ	-8866
▁ለይ	-8867
ማቾች	-8868
▁ሰሞኑን	-8869
▁ሊለ	-8870
ፈላጊ	-8871
ቀላቀሉ	-8872
▁ካቢኔ	-8873
ሁሉ	-8874
ማለትም	-8875
ጓል።	-8876
▁ጊዜን	-8877
▁የጋዜ	-8878
▁መስሪያ	-8879
▁።በ	-8880
▁በመቀነስ	-8881
▁የተለዩ	-8882
▁የተሰራ	-8883
▁በአሥራ	-8884
▁ሊዮ	-8885
ፍሪ	-8886
▁በፊልሙ	-8887
▁ከሶስት	-8888
▁የመቋቋም	-8889
ዋቸው	-8890
▁ቀልጣፋ	-8891
▁ጣፋጭ	-8892
▁ደሳ	-8893
▁ለማቆየት	-8894
ድርሻ	-8895
▁ማቆም	-8896
ናሉ	-8897
▁ቅጽል	-8898
▁ሪኮርድን	-8899
▁ማምረቻ	-8900
▁ተሰራጭ	-8901
▁የነበሩትን	-8902
▁ይውላሉ	-8903
▁ብራያን	-8904
ፃፍ	-8905
▁ከሆኑ	-8906
▁49	-8907
▁የተሰጡ	-8908
▁ዋሻ	-8909
ቾቹ	-8910
ሪዞና	-8911
▁የወለል	-8912
▁የቀለም	-8913
▁ሊውል	-8914
▁ብጥብ	-8915
▁አመለካከቶች	-8916
ክትሬት	-8917
▁አሳታ	-8918
▁ኦፕሬሽን	-8919
▁ፍጆታ	-8920
▁የትብብር	-8921
▁ኦል	-8922
▁አሸንፈዋል	-8923
ታሎች	-8924
▁ምንድን	-8925
▁ያገለገሉ	-8926
▁በዩኒቨርሲቲ	-8927
▁በደም	-8928
▁አክራሪ	-8929
▁ለመግደል	-8930
▁ጄን	-8931
ክሰ	-8932
▁እንቅፋት	-8933
▁(2)	-8934
▁ተወያይ	-8935
▁ስብዕና	-8936
▁የአንጎል	-8937
ቻው	-8938
▁ለሴቶች	-8939
የመው	-8940
▁ግምቶች	-8941
▁ዋር	-8942
ass	-8943
▁ከዋናው	-8944
▁መግባባት	-8945
▁አጫ	-8946
ኔዝ	-8947
▁ትይዩ	-8948
64	-8949
▁ይመረምራል	-8950
▁ዘፈኑ	-8951
▁አደረገው	-8952
▁ማመልከቻ	-8953
ላጅ	-8954
▁በተሳ	-8955
▁ተከፈተ	-8956
iz	-8957
▁አውራጃዎች	-8958
▁ያገለግላሉ	-8959
▁ያላት	-8960
▁ህዳሴ	-8961
▁ሰፈ	-8962
▁እናቀርባ	-8963
ሳሌም	-8964
ie	-8965
ረጋገጡ	-8966
▁ይላሉ።	-8967
▁ክትባት	-8968
▁ባሳ	-8969
▁ዘንግ	-8970
ግም	-8971
▁በመላ	-8972
▁የሃይ	-8973
▁ግብፅ	-8974
▁መጻሕፍት	-8975
ተንበይ	-8976
▁መግባ	-8977
▁ብዝሃ	-8978
:-	-8979
▁የጭንቀት	-8980
▁የአፈፃፀም	-8981
▁እኔም	-8982
ዳብ	-8983
▁በምርጫ	-8984
ክሊን	-8985
▁ባይሆንም	-8986
ላንታ	-8987
ንላንድ	-8988
▁ኢንዱስትሪዎች	-8989
▁ማል	-8990
ዲክ	-8991
▁በፓሪስ	-8992
ቻለሁ	-8993
ቆጠረ	-8994
▁በመጀመሪያዎቹ	-8995
▁እቲ	-8996
▁አማራጮች	-8997
▁አረብ	-8998
ርና	-8999
▁ኢንጂነሪንግ	-9000
▁ቦታውን	-9001
▁ቀጠሮ	-9002
እን	-9003
▁ስርዓቶችን	-9004
▁የተተ	-9005
▁ተሰር	-9006
▁መገኘት	-9007
ኔቲክ	-9008
▁ጠረ	-9009
ያለሁ	-9010
ነዚያ	-9011
▁የጎደለው	-9012
▁ሐሳቦች	-9013
▁ረቡዕ	-9014
▁ሽማግ	-9015
79	-9016
ለኞች	-9017
▁ካም	-9018
▁የግንዛቤ	-9019
▁እሴ	-9020
▁ሁኔታው	-9021
▁የቱርክ	-9022
▁ወታደር	-9023
ጠለጠ	-9024
▁ምልከታ	-9025
▁ጠቅሷል	-9026
ዘዋ	-9027
▁ለድር	-9028
ገለጽ	-9029
▁የሰዎች	-9030
▁ተቆጥ	-9031
▁ስብከት	-9032
ወቅቱ	-9033
▁ምናባዊ	-9034
▁ማነቃ	-9035
▁መንግስቱ	-9036
▁ጥንድ	-9037
▁ጥረ	-9038
ምብሪጅ	-9039
ኤንኤን	-9040
▁እንቁራሪ	-9041
▁የአውሮፕላን	-9042
▁አስታውቀዋል።	-9043
▁ለፍርድ	-9044
ቡቲ	-9045
▁የተሳተፉ	-9046
ናግ	-9047
▁ማሳየት	-9048
▁ጀመረ።	-9049
▁የባለሙያ	-9050
ሜራ	-9051
▁የኮምፒተር	-9052
ደንጋጭ	-9053
ምረው	-9054
▁የሚጠራ	-9055
▁ወስዶ	-9056
▁ጠመዝማ	-9057
▁ይደግፋል	-9058
,1	-9059
▁በኡ	-9060
ኑፋ	-9061
▁ጌታቸው	-9062
▁በኢን	-9063
▁ኪዳን	-9064
ኦን	-9065
▁ዳሳሽ	-9066
▁ከቤ	-9067
▁ደሳለኝ	-9068
▁ተጋብ	-9069
ፈታ	-9070
በን	-9071
▁ዶናልድ	-9072
▁(20	-9073
▁ችግሩን	-9074
▁የኬሚካል	-9075
▁የሽግግር	-9076
▁የስልክ	-9077
ወጀ	-9078
▁ስምን	-9079
▁ሮቢን	-9080
▁ሄክታር	-9081
▁ዝግመተ	-9082
▁ዐቢይ	-9083
ክርስቲያኑ	-9084
▁ታናሽ	-9085
▁ካራ	-9086
▁በመደበኛነት	-9087
▁ድምፃ	-9088
▁ምርመራዎች	-9089
▁ይፈል	-9090
▁ተሸል	-9091
▁ከፒ	-9092
▁የብርሃን	-9093
ሳሪያ	-9094
▁አስታወቀ።	-9095
▁የስለላ	-9096
ቾት	-9097
▁ከኩ	-9098
ፈለገው	-9099
ለውም	-9100
▁እንዳልተ	-9101
▁ሸቀ	-9102
ነጢ	-9103
▁በይነገ	-9104
▁ዝተ	-9105
▁እንዴ	-9106
ንድሮ	-9107
▁የማያቋርጥ	-9108
▁ቅርፃ	-9109
▁ሕዋሳት	-9110
ቆና	-9111
▁የሚጠቀሙ	-9112
ሳር	-9113
ሌክስ	-9114
ሰበው	-9115
▁ተለይተው	-9116
76	-9117
▁የተደ	-9118
▁የሚውሉ	-9119
▁በተቻለ	-9120
▁ግሩፕ	-9121
▁የሚደርሱ	-9122
ካላዊ	-9123
▁ዜጎችን	-9124
ኬል	-9125
ድብ	-9126
ታተነ	-9127
ዛመድ	-9128
ክሮች	-9129
▁አመቱ	-9130
▁ሥልጣ	-9131
▁ተስተካክሏል	-9132
▁በጉዳዩ	-9133
▁መርከቦችን	-9134
▁እርካታ	-9135
▁ልኬት	-9136
▁የሰር	-9137
▁ጃንዋሪ	-9138
ug	-9139
▁ሰበ	-9140
▁መጠየቅ	-9141
▁የመሳሰሉ	-9142
ኩ።	-9143
▁በሠ	-9144
▁ዘግቧል	-9145
ጫወቻ	-9146
ኗኗ	-9147
▁ለመውጣት	-9148
ገኘም	-9149
▁ደርሶበታል	-9150
▁በብሪታንያ	-9151
▁መጥፋት	-9152
▁1939	-9153
▁የሚገኘውን	-9154
ገዙ	-9155
▁ቧንቧዎች	-9156
ጥረው	-9157
▁de	-9158
▁ስፍራዎች	-9159
ore	-9160
▁ክራ	-9161
▁መዛባት	-9162
▁ጊል	-9163
▁ኮሙ	-9164
▁የቀረበውን	-9165
▁እንመ	-9166
ንግዲህ	-9167
AA	-9168
ነጢሳዊ	-9169
▁ቄስ	-9170
ያችን	-9171
▁ጠርቶ	-9172
▁ነበር፣	-9173
▁ኤሪክ	-9174
▁አገልጋይ	-9175
▁በወታደራዊ	-9176
▁ጥሰት	-9177
▁ኢንች	-9178
▁ከዓለም	-9179
▁ክሪስቲ	-9180
ዮስ	-9181
▁ተቋር	-9182
▁ሆይ	-9183
▁ሐረግ	-9184
▁ሲሆን፤	-9185
▁ይታወሳል	-9186
ነዳ	-9187
▁ገጾች	-9188
▁የካቶሊክ	-9189
▁ፀሐ	-9190
ES	-9191
▁አውቶማቲክ	-9192
▁ሲመጣ	-9193
ናገረ	-9194
ዦች	-9195
▁ኒውስ	-9196
▁ለመሄድ	-9197
▁በቀኝ	-9198
ኳል	-9199
▁ሪፖርተር	-9200
ያዛ	-9201
▁የሚያሳዩ	-9202
▁ችለዋል	-9203
▁ቀርቶ	-9204
▁ያገኙ	-9205
▁ይበልጣ	-9206
▁የመጠባበቂያ	-9207
ቃተ	-9208
▁የሚታየው	-9209
31	-9210
▁መጥለቅለቅ	-9211
▁ተካት	-9212
▁የሮያል	-9213
▁በአስር	-9214
▁ሙስና	-9215
ሮይ	-9216
▁ጥሬ	-9217
▁ቁርጥራጮች	-9218
ቢኤስ	-9219
▁Al	-9220
ጠናከረ	-9221
ሎቹን	-9222
▁ምሽግ	-9223
ታሉ።	-9224
ቶማን	-9225
▁የተናገሩት	-9226
▁በሚገባ	-9227
ታችንን	-9228
ጸው	-9229
▁እኩ	-9230
▁ተዘርዝ	-9231
መሳሰል	-9232
▁በስራ	-9233
▁ሙዚቀኞች	-9234
▁እንግዲህ	-9235
▁በመቶዎች	-9236
▁ጠበቆች	-9237
▁ፓርቲው	-9238
▁በእንግሊዝኛ	-9239
▁በጊ	-9240
▁ኣይ	-9241
▁የላቸውም	-9242
ሸዋ	-9243
በቡ	-9244
ight	-9245
▁በክፍል	-9246
▁አቀራረቦች	-9247
end	-9248
**	-9249
▁ሌተናል	-9250
▁የሥልጠና	-9251
ሴምበር	-9252
ስኮንሲን	-9253
▁(5	-9254
▁ባላ	-9255
▁ሐሳ	-9256
▁ከደ	-9257
▁በደረጃ	-9258
▁ወንበዴ	-9259
▁ፊሊፕ	-9260
▁መጠቀ	-9261
▁ወሲባዊ	-9262
▁አከ	-9263
ጂንግ	-9264
▁ለመለወጥ	-9265
▁መመሪያዎች	-9266
ካኝ	-9267
ክልሉ	-9268
▁የጉዳይ	-9269
▁ሥርዓቱ	-9270
ኩረት	-9271
▁ጎንደር	-9272
ክንዮ	-9273
መለከታቸው	-9274
ዛሪ	-9275
▁ያለምንም	-9276
ኒሽ	-9277
▁መግነጢሳዊ	-9278
ይሮ	-9279
▁1962	-9280
▁የሚከናወነው	-9281
ect	-9282
▁መከ	-9283
▁ስድስተኛ	-9284
ሪገን	-9285
▁መመለ	-9286
▁ጨረታ	-9287
ኑፋክቸ	-9288
▁ኮርስ	-9289
አቶ	-9290
▁ይዛመ	-9291
ዋወቅ	-9292
▁ኮንቬን	-9293
!”	-9294
▁እንችላለን	-9295
▁ሴቶችን	-9296
ER	-9297
▁ጋለሪ	-9298
▁የሚያደር	-9299
▁የአፈር	-9300
▁ዛፎች	-9301
▁ማክስ	-9302
ፕሊን	-9303
ድግ	-9304
ዋዋሪ	-9305
▁አለኝ	-9306
▁ሁለቱንም	-9307
▁ተቃው	-9308
ቃቱ	-9309
▁ዴሞክራቲክ	-9310
▁አሥርተ	-9311
▁የግለሰብ	-9312
▁የሜክሲኮ	-9313
▁ስህተቶች	-9314
ous	-9315
▁42	-9316
▁መስኮት	-9317
ረናል	-9318
▁በሎስ	-9319
▁ጋላ	-9320
ጨመ	-9321
በሙ	-9322
▁ይናገራሉ	-9323
▁የተቀረጹ	-9324
▁አጋሮች	-9325
ከሙ	-9326
ዮተ	-9327
▁ራግቢ	-9328
▁1963	-9329
▁በማር	-9330
▁መምጣት	-9331
artic	-9332
ኮቭ	-9333
▁ሂሳብ	-9334
▁የተዘጋጁ	-9335
ከታተሉ	-9336
▁ገበያዎች	-9337
▁ኦፔራ	-9338
▁ላቦራቶሪ	-9339
ሊውድ	-9340
▁ይወክላል	-9341
▁ቅናሽ	-9342
መለከቱት	-9343
▁የሚሰሩ	-9344
▁ካሊ	-9345
▁ሉዊ	-9346
ለሽ	-9347
ለወጠ	-9348
▁ገብቶ	-9349
▁መስፍን	-9350
▁የተውጣጡ	-9351
▁ኢንተርፕራይ	-9352
▁እንዲወጡ	-9353
The	-9354
▁መንደሮች	-9355
▁ደንቦችን	-9356
ሞራ	-9357
▁የካፒ	-9358
እነዚህ	-9359
ማል።	-9360
ብይ	-9361
▁ደርሰዋል	-9362
▁በኤሌክትሮ	-9363
ነታችን	-9364
ፈልግም	-9365
▁ናይት	-9366
▁ጽህፈት	-9367
▁ወንድሙ	-9368
▁ታማኝነት	-9369
▁ሆቴ	-9370
▁ወረቀቶች	-9371
ሽከርካሪ	-9372
▁ጠመዝማዛ	-9373
▁ሲቪል	-9374
▁ዳርቻው	-9375
▁በሃይ	-9376
ብራራት	-9377
▁የማግኘት	-9378
▁የሀገሪቱ	-9379
▁የሚደረጉ	-9380
▁የተፈጠሩ	-9381
ያስፖ	-9382
▁ድጎ	-9383
▁ከመው	-9384
▁እንደሚሉት	-9385
ነሳሳት	-9386
68	-9387
ዛመዱ	-9388
▁ለመምራት	-9389
▁ጦ	-9390
▁የተደበ	-9391
ዝቦል	-9392
▁ከዳ	-9393
ደባባይ	-9394
ard	-9395
▁ፕሮቲ	-9396
ችኋ	-9397
ዋክብት	-9398
▁ጠፍቷል	-9399
▁ቴይለር	-9400
ገነዘቡ	-9401
▁ከበርካታ	-9402
ለቁ	-9403
▁ተግዳሮቶች	-9404
ችሁን	-9405
▁ይኖሩ	-9406
▁ተባረ	-9407
▁ቀዝቃዛ	-9408
▁በመጽሐ	-9409
▁ለዓለም	-9410
▁ለሚገኙ	-9411
ኃን	-9412
▁ውድድሩ	-9413
▁አዲሱን	-9414
▁የጊ	-9415
▁መኖራቸውን	-9416
▁ነውና	-9417
▁ዘመናት	-9418
ዊች	-9419
48	-9420
ቶክ	-9421
▁ለሌላ	-9422
ቬስት	-9423
▁የሞቱ	-9424
▁የሰጠው	-9425
▁።የ	-9426
ስተሮች	-9427
▁ከሰዓት	-9428
▁ተካ	-9429
▁ከመሆኑ	-9430
▁ቡናማ	-9431
▁መዘግየት	-9432
▁አይታወቅም	-9433
▁ሙስሊም	-9434
▁መፈለግ	-9435
▁ዉስጥ	-9436
ዙሪ	-9437
▁ለማክበር	-9438
▁ድርጣቢያ	-9439
ዴን	-9440
በረታታት	-9441
▁on	-9442
▁በቅዱስ	-9443
▁የፅ	-9444
▁አልተሳካ	-9445
ሚክስ	-9446
ማኒያ	-9447
▁ከተመረ	-9448
▁ቀለበት	-9449
▁ማማ	-9450
ሄራዊ	-9451
▁መኖሩን	-9452
▁በልጅ	-9453
▁ሙያዊ	-9454
▁1918	-9455
ንታሪዮ	-9456
ውሎ	-9457
ኑፋክቸሪንግ	-9458
▁ዓይነቱን	-9459
መች	-9460
▁ያነሱ	-9461
▁ሲገባ	-9462
▁የሞባይል	-9463
▁በየአመቱ	-9464
▁ሜዳዎች	-9465
▁የሚባለው	-9466
▁ጊዜውን	-9467
ሪስት	-9468
▁በምድር	-9469
▁የሚሰጠው	-9470
▁ተደረገ	-9471
▁ይፈልጋል	-9472
▁በሙዚቃ	-9473
▁ያገኛሉ	-9474
ገለል	-9475
▁ሚዲ	-9476
▁ተጋላጭነት	-9477
ንቻ	-9478
▁መጻፍ	-9479
ack	-9480
▁ዜግነት	-9481
▁የፍሳሽ	-9482
▁ለሃ	-9483
▁የሊግ	-9484
▁ዲን	-9485
▁አንድሪው	-9486
▁ስምምነቶች	-9487
▁የዲዛይን	-9488
▁በሀገር	-9489
▁ላው	-9490
ጄኔራል	-9491
ነሲ	-9492
▁በቅድመ	-9493
ፉትን	-9494
▁አመላ	-9495
▁የደረጃ	-9496
▁ጠቁመዋል።	-9497
▁አሠ	-9498
ወቁ	-9499
▁መድረኮች	-9500
▁ተኳ	-9501
ጀርባው	-9502
:00	-9503
ማቅ	-9504
ቪዬሽን	-9505
▁ተከፋፍ	-9506
▁አርባ	-9507
▁ሻር	-9508
▁1948	-9509
▁ጋሪ	-9510
▁የስታ	-9511
▁ሃይሎች	-9512
ክሬ	-9513
aw	-9514
ኖሩት	-9515
▁ለዲ	-9516
▁የሚከ	-9517
▁የመከላከል	-9518
ሌስ	-9519
▁የሁለቱ	-9520
ጌታ	-9521
▁ተዋጊዎች	-9522
▁እነዚህም	-9523
▁ሺሕ	-9524
▁ታሪኩ	-9525
▁መርቷል	-9526
ፍራም	-9527
ዋጋ	-9528
▁አስተላል	-9529
▁ተረ	-9530
▁ከፊት	-9531
ገኘት	-9532
▁በታይ	-9533
ራጃ	-9534
ሪነት	-9535
ከልከል	-9536
▁ሲመ	-9537
▁ድማ	-9538
ሸራታች	-9539
▁እንደሚገኙ	-9540
ሌው	-9541
▁ሙከራዎችን	-9542
74	-9543
▁An	-9544
▁ሌሎችን	-9545
▁የግብፅ	-9546
▁ያተኮሩ	-9547
▁መብቶችን	-9548
ደች	-9549
▁ጂም	-9550
▁ሜይ	-9551
▁የሚገቡ	-9552
ንዶኔዥያ	-9553
ብረቱ	-9554
▁እናንተ	-9555
▁ዕው	-9556
MS	-9557
▁1946	-9558
▁እያደገ	-9559
ያዘው	-9560
▁ከእስር	-9561
ቦሮ	-9562
ቀረው	-9563
▁ተመልሷል	-9564
▁አላቸው።	-9565
▁መጠባበ	-9566
ስፓ	-9567
ሬዳዋ	-9568
▁ሄዶ	-9569
ነስተኛ	-9570
▁ማቀዝቀዣ	-9571
▁በአስቸኳይ	-9572
▁የእንፋሎት	-9573
▁ካርል	-9574
▁የሚደረገው	-9575
ለማችን	-9576
▁ጥራዝ	-9577
▁ቁመት	-9578
▁ዩኒቨርስቲ	-9579
ለታል	-9580
▁ተጣብ	-9581
▁ለመቀጠል	-9582
ደረው	-9583
▁ትቶ	-9584
▁ቫል	-9585
▁ወኪሎች	-9586
የርስ	-9587
▁ሽክርክሪት	-9588
▁ጭፍጨ	-9589
▁ተፅዕኖ	-9590
▁ይሞክራል	-9591
ታትን	-9592
▁ተዋንያን	-9593
▁በአካል	-9594
▁ድንጋዮች	-9595
▁ቅርጸት	-9596
▁ግብረመልስ	-9597
▁ያስረዳ	-9598
▁ዓይነ	-9599
▁የሚገልጽ	-9600
▁እንደሚከተለው	-9601
ጤት	-9602
▁በደስታ	-9603
▁ተሟጋች	-9604
ማለን	-9605
ፖች	-9606
▁ፋብሪካዎች	-9607
▁ዳዊት	-9608
▁የባህሪ	-9609
▁ብርቱ	-9610
▁ቴክኖሎጂዎች	-9611
ህተት	-9612
▁ብቻውን	-9613
▁በመባልም	-9614
▁ተመርጧል	-9615
▁እንዲሰጡ	-9616
▁የውሳኔ	-9617
ፈተሽ	-9618
ነቷ	-9619
▁ዲፓርትመንት	-9620
▁ብሩህ	-9621
▁የንግግር	-9622
▁በመዝ	-9623
▁ስታን	-9624
▁የተካተቱ	-9625
▁አለባቸው።	-9626
▁የምስል	-9627
ሰና	-9628
▁1961	-9629
ራዘም	-9630
-8	-9631
▁ተፅእኖዎች	-9632
▁ቱር	-9633
ጣቢያው	-9634
▁ከአሁን	-9635
▁ይከተላል	-9636
▁የሺ	-9637
ሰውን	-9638
▁is	-9639
▁ዉድ	-9640
▁ብሮድካ	-9641
▁ለማስተናገድ	-9642
ፕቶ	-9643
▁የሚመጡ	-9644
▁እናቀርባለን	-9645
▁ቁሳቁሶችን	-9646
▁re	-9647
ሊዮኖች	-9648
▁ፊልሙን	-9649
▁የንፋስ	-9650
ሞክሩ	-9651
▁ኩርባ	-9652
▁ጽሑፉ	-9653
▁ገብተዋል	-9654
ንዳንድ	-9655
▁ላንካ	-9656
▁የሚሄድ	-9657
▁ይደረጋል	-9658
ስተናገ	-9659
▁ዶር	-9660
ማርት	-9661
▁ሁሉን	-9662
▁ተገናኘ	-9663
▁መቃ	-9664
▁ስኩ	-9665
ትርፍ	-9666
▁መት	-9667
ሞታል	-9668
▁እርሱ	-9669
▁ማግኛ	-9670
▁ተረት	-9671
ባለች	-9672
▁ለከፍተኛ	-9673
▁95	-9674
▁በረከት	-9675
▁መድረስ	-9676
▁መነሳት	-9677
▁የኮርፖ	-9678
▁ተሳትፈዋል	-9679
▁እንዲተ	-9680
▁ትዕይንቶች	-9681
▁የጥበቃ	-9682
▁ኦዲ	-9683
በዛ	-9684
▁ሴናተር	-9685
▁አገናኝ	-9686
▁ቴክኒኮችን	-9687
የሞች	-9688
▁ለመፈለግ	-9689
▁ስለሌ	-9690
▁Com	-9691
▁ሂዩ	-9692
▁በቅርበት	-9693
▁ስትራቴጂካዊ	-9694
ካሚዎች	-9695
▁በኮን	-9696
ክላንድ	-9697
ባንድ	-9698
▁የድርጊት	-9699
▁ሊጉ	-9700
▁ሊቃውንት	-9701
▁ነር	-9702
▁ንጣፍ	-9703
▁ከረ	-9704
▁ለመሰብሰብ	-9705
▁ለማጠናቀቅ	-9706
ከአ	-9707
በቱ	-9708
▁ስለነበር	-9709
▁ሲኒማ	-9710
▁ማጠና	-9711
ሪዎቹ	-9712
▁ኮሎምቢያ	-9713
▁በቡድኑ	-9714
ነፃፀ	-9715
▁ሳምንታዊ	-9716
ዳፊ	-9717
▁አማርኛ	-9718
ሚኖ	-9719
▁የኑሮ	-9720
ደርጉት	-9721
▁En	-9722
ርነት	-9723
▁የሚመስ	-9724
ንስታ	-9725
▁በቀድሞው	-9726
▁ባለበት	-9727
▁ማወቂያ	-9728
CC	-9729
ጋለጥ	-9730
ሚልተን	-9731
67	-9732
▁ዝንጀ	-9733
ዋቱ	-9734
tt	-9735
▁ተገቢውን	-9736
▁የሚገኙትን	-9737
▁i	-9738
በሪያ	-9739
▁የአማ	-9740
▁እንደነዚህ	-9741
ዋሃ	-9742
▁ኦርኬስትራ	-9743
▁አሸናፊነት	-9744
▁አርማ	-9745
ሴክስ	-9746
▁የሚንቀሳቀሱ	-9747
▁መጀመ	-9748
ሰማው	-9749
▁1956	-9750
PS	-9751
▁እንድታ	-9752
▁አፀ	-9753
▁በሰሜናዊ	-9754
▁ሊሚት	-9755
==	-9756
▁በቋሚነት	-9757
99	-9758
▁ኦርጋኒክ	-9759
▁የካርቦን	-9760
ድያ	-9761
▁ቶር	-9762
▁ተንት	-9763
▁አኳ	-9764
▁ትግበራ	-9765
ላሚ	-9766
▁የተሰበ	-9767
ድራ	-9768
ጀምሩ	-9769
▁ካሜራ	-9770
▁የሶቪዬት	-9771
ዋጭ	-9772
ሊንግተን	-9773
ናውያን	-9774
▁ሐሙስ	-9775
▁1947	-9776
▁በመንግሥት	-9777
▁ኮንሰርት	-9778
▁አብራ	-9779
▁የቅን	-9780
ጎር	-9781
▁ተናግራለች።	-9782
▁ከሐ	-9783
▁ግሮ	-9784
▁ውይይቶች	-9785
▁ኤዲ	-9786
▁የመንፈስ	-9787
▁ደብሊው	-9788
▁ለመኖር	-9789
▁ተገልጿል	-9790
▁በቺካጎ	-9791
ሊፕ	-9792
▁ማሞ	-9793
▁በጨረ	-9794
▁የምህንድስና	-9795
▁1958	-9796
ክልል	-9797
ጠቀሱት	-9798
▁ይመስል	-9799
ፈጸሙ	-9800
▁ለመክፈል	-9801
▁የሚከሰተው	-9802
▁የተመራ	-9803
▁ሞል	-9804
▁ፓትርያ	-9805
▁አስቸኳይ	-9806
▁ሊኖራቸው	-9807
▁የተመሰረተ	-9808
▁አጥብቆ	-9809
▁ይከናወ	-9810
▁የሚታይ	-9811
▁በንጉ	-9812
▁ለቀው	-9813
▁የንድፈ	-9814
ቡል	-9815
ማም	-9816
▁መጽሔቶች	-9817
▁ዘለ	-9818
▁በጥቂት	-9819
▁ወላጅ	-9820
ood	-9821
▁በተዘ	-9822
▁ስቱዋርት	-9823
ቃለን	-9824
▁ክብረ	-9825
▁ሁከት	-9826
▁የትን	-9827
▁ሊሚትድ	-9828
▁ሜዲ	-9829
▁በተናጠል	-9830
▁ቀበቶ	-9831
▁የመታሰቢያ	-9832
▁ለእሱ	-9833
▁መገደ	-9834
▁ንብረቶች	-9835
ews	-9836
▁ናት።	-9837
▁አደጋን	-9838
ኖረ	-9839
ፖሎጂ	-9840
ሎታል	-9841
▁በእነሱ	-9842
▁የተዘጋጀ	-9843
የረ	-9844
▁ሁሌም	-9845
▁አክብሮት	-9846
▁ሻምፒዮ	-9847
ሊንተን	-9848
▁አምድ	-9849
▁የካሊፎርኒያ	-9850
▁መተላለፊያ	-9851
▁ተቆጣጠረ	-9852
▁ከፀ	-9853
▁አላት	-9854
▁የተስፋፋ	-9855
▁የቺ	-9856
▁ቀልድ	-9857
▁መሬቶች	-9858
ንዲስ	-9859
▁ዲፕሎማሲ	-9860
ፋይ	-9861
▁ህገወጥ	-9862
▁የረ	-9863
ደረሱ	-9864
▁ሳራ	-9865
▁በሕይወ	-9866
ብላ	-9867
▁ጠጅ	-9868
▁የጥናት	-9869
ዬት	-9870
▁የሚመጣ	-9871
▁ስፖንሰር	-9872
▁ፕሮቲን	-9873
▁ለማጥናት	-9874
▁ሞክሯል	-9875
▁ተጎጂ	-9876
▁ትእዛዝ	-9877
▁ጦርነቶች	-9878
ባቶች	-9879
▁እየሞ	-9880
▁ፈለገ	-9881
▁ተጀመረ	-9882
ብርሃን	-9883
ሪም	-9884
▁የአረብ	-9885
ተሚያ	-9886
▁ይገለጻ	-9887
▁የዝናብ	-9888
▁ባልሆኑ	-9889
▁ፀጉር	-9890
▁አድናቂ	-9891
▁ማዶ	-9892
▁ይከራከራ	-9893
▁ከቶ	-9894
▁በመረጃ	-9895
ቃወሙ	-9896
▁ሆፕ	-9897
ሚናል	-9898
▁የተሸፈኑ	-9899
▁ተለይቷል	-9900
▁ደንበ	-9901
▁የዋሉ	-9902
▁ዝንባሌ	-9903
▁ለመገናኘት	-9904
▁መድሃኒት	-9905
▁በዘመናዊው	-9906
▁ምርታማ	-9907
▁መታየት	-9908
69	-9909
▁የሆድ	-9910
▁ገዥው	-9911
▁ለመተካት	-9912
▁አመክንዮ	-9913
▁እንዲመ	-9914
▁ለመጨረሻ	-9915
▁የሚደርስ	-9916
▁ካህ	-9917
ሳቤጥ	-9918
▁የተጫወተ	-9919
▁ባለሀብቶች	-9920
ክስጅን	-9921
▁ትረካ	-9922
▁ምዕ	-9923
▁በነፃ	-9924
▁የሚስማማ	-9925
▁እንደሚያመለክተው	-9926
ላይዜሽን	-9927
▁መቀመጫዎች	-9928
ምስራቅ	-9929
TV	-9930
ሞል	-9931
ኅንነት	-9932
▁ታውቋል።	-9933
▁የሚን	-9934
▁ስቲቭ	-9935
በጥ	-9936
ኗኗር	-9937
▁ኦፕን	-9938
▁የተከሰተ	-9939
▁የተዘረዘ	-9940
▁መተግበሪያ	-9941
▁ከነዚህ	-9942
መረጥ	-9943
ፈጸመ	-9944
OS	-9945
▁ካምፓስ	-9946
▁ይደ	-9947
እክት	-9948
▁ተከታታዮቹ	-9949
▁ማስተዋወ	-9950
ንም።	-9951
▁ለመጨመር	-9952
▁መገምገም	-9953
ጣለች	-9954
▁ያሳያል።	-9955
▁አደረጃጀት	-9956
▁ከእነዚህም	-9957
▁ችሏል።	-9958
ዎርዝ	-9959
ማውዝ	-9960
▁የሚያስች	-9961
ኪም	-9962
▁በዕድሜ	-9963
▁አስመዝግቧል	-9964
▁የምልክት	-9965
ph	-9966
▁የጭንቅላት	-9967
በሌ	-9968
ደንቅ	-9969
▁ሥልጠና	-9970
▁ፈጽሞ	-9971
▁መቀጠል	-9972
▁ጽሁፍ	-9973
ህበራዊ	-9974
እኛ	-9975
▁ይሸፍ	-9976
▁በመገንባት	-9977
ቆስ	-9978
▁የጠበቀ	-9979
▁ቀርቦ	-9980
ric	-9981
▁የመማሪያ	-9982
ቋረ	-9983
▁ተጠርጣሪ	-9984
▁ኒክ	-9985
▁አፕሊኬሽኖች	-9986
▁በጫ	-9987
▁ስህተ	-9988
▁ኢንዴ	-9989
ጠየቀ	-9990
ans	-9991
▁አደረገ።	-9992
ርቻ	-9993
▁የሚዘ	-9994
▁አብራሪ	-9995
▁ለማካሄድ	-9996
መጃ	-9997
ment	-9998
▁በትዊተር	-9999
▁እንዲደረግ	-10000
▁አድራጊ	-10001
▁የቦምብ	-10002
ይቶችን	-10003
ንግዳ	-10004
▁ሃይድሮ	-10005
▁አሜሪካን	-10006
ትሪክስ	-10007
▁ጀመረች	-10008
ላዴል	-10009
ካከላቸው	-10010
በርክ	-10011
የኢ	-10012
PA	-10013
▁ማጉያ	-10014
▁አጋርነት	-10015
▁በማሳየት	-10016
ኬን	-10017
ኮታዊ	-10018
▁ተለቀቀ	-10019
▁ለመለካት	-10020
▁የቀብር	-10021
▁እናደርጋ	-10022
▁እየተን	-10023
▁ከመሬት	-10024
▁ባትሪ	-10025
ዋወጫ	-10026
▁መከታተል	-10027
ቀራ	-10028
▁ሁለቱን	-10029
▁አፈጻጸ	-10030
ሽና	-10031
▁ቁራጭ	-10032
▁ቢራ	-10033
▁የእውቀት	-10034
ፍትን	-10035
▁አለች	-10036
▁ለፈ	-10037
▁ታዳሚዎች	-10038
ራልድ	-10039
▁ውድድሩን	-10040
▁አደረገች	-10041
▁y	-10042
አሜሪካውያን	-10043
ውንም	-10044
▁ካደረገ	-10045
▁የሕንድ	-10046
▁ጤንነት	-10047
▁እያንዳንዱን	-10048
ከቡ	-10049
ገኝም	-10050
▁ሚኒስትሮች	-10051
▁ታደሰ	-10052
▁ስና	-10053
▁በሕክምና	-10054
▁ትክክለኛውን	-10055
▁ሐይ	-10056
ፋቱ	-10057
▁1959	-10058
▁ፕሮጀክቱ	-10059
▁ፍቅረ	-10060
▁ተክሎች	-10061
ያውቁ	-10062
▁ገዳም	-10063
▁የጥርስ	-10064
▁Th	-10065
▁ሻን	-10066
▁ልዩነቶችን	-10067
▁የተቃዋሚ	-10068
▁ሁላችንም	-10069
ቲስቲካዊ	-10070
▁ለመመልከት	-10071
ኬሚ	-10072
ፓርታማ	-10073
-200	-10074
▁የተበላሸ	-10075
ራብ	-10076
▁አልነበረው	-10077
▁እርጥብ	-10078
▁አንደርሰን	-10079
▁ኢሳ	-10080
▁£	-10081
▁አጥን	-10082
ጓጓዝ	-10083
▁ማኒ	-10084
▁ህብረተሰቡ	-10085
▁እንተ	-10086
▁ይወስዳል	-10087
▁የጠየ	-10088
▁ኢንቨስት	-10089
▁ጎልቶ	-10090
ነኛው	-10091
▁ቀና	-10092
▁የኤርትራ	-10093
ሾቹ	-10094
▁በመኪና	-10095
▁የተመዘገቡ	-10096
▁ተሽ	-10097
▁ኢሳት	-10098
መናን	-10099
▁በሮች	-10100
ort	-10101
▁ጓደኛው	-10102
ልስጤም	-10103
ዳለች	-10104
▁በየትኛውም	-10105
ንጋፖር	-10106
ዘዙ	-10107
▁አላው	-10108
ፍለ	-10109
▁ከድር	-10110
▁የእያንዳንዱ	-10111
▁ፍሳሽ	-10112
▁CNN	-10113
195	-10114
▁በወጣት	-10115
▁አምና	-10116
▁የክት	-10117
▁ግብርና	-10118
▁እንዲመለሱ	-10119
▁ከማይ	-10120
▁እንዲወጣ	-10121
ንፈ	-10122
ዘዣ	-10123
▁ሲዲ	-10124
▁ሜካኒካዊ	-10125
የማ	-10126
▁ጽሕፈት	-10127
▁የዕለት	-10128
▁ታዛ	-10129
▁ቁጣ	-10130
▁ያደረገውን	-10131
▁የማይቻል	-10132
▁የብድር	-10133
▁ፖሊሶች	-10134
▁ተመስ	-10135
▁አናሳ	-10136
▁ለማጣ	-10137
▁ኢትዮጵያዊያን	-10138
ላዴልፊያ	-10139
▁አጠቃቀምን	-10140
ራፍሬ	-10141
▁ዓይን	-10142
ፑል	-10143
▁የመብራት	-10144
IC	-10145
▁ኮንትራት	-10146
▁ንጉሣዊ	-10147
▁አካባቢን	-10148
ራመድ	-10149
▁አስፈላጊውን	-10150
ቅል	-10151
▁ዣን	-10152
▁መቅረ	-10153
▁ይሄን	-10154
ዮዋ	-10155
▁ኮም	-10156
▁የሚጠይቅ	-10157
▁ሜጋ	-10158
ገላ	-10159
▁ቹ	-10160
▁ለመተግበር	-10161
ከተለ	-10162
▁መዘጋ	-10163
ሲሲፒ	-10164
ሌሽን	-10165
▁አስባ	-10166
▁ይጓዛል	-10167
ሆማ	-10168
▁መሰብሰብ	-10169
▁ፈረስ	-10170
▁መንግስትን	-10171
▁ነገሥታት	-10172
ወገዱ	-10173
ረሶች	-10174
ቀኝ	-10175
▁41	-10176
▁ሊታ	-10177
▁በጆን	-10178
▁ልጆቹ	-10179
ረጋግጥ	-10180
▁ከሪ	-10181
▁ለሽ	-10182
ጴጥ	-10183
▁ሙስሊሞች	-10184
▁የኢህአዴግ	-10185
▁ውሂብ	-10186
▁Am	-10187
▁በፍቅር	-10188
▁ይታሰ	-10189
▁ይል	-10190
▁ሲያደርግ	-10191
▁አሳልፎ	-10192
ላይታ	-10193
▁ለመጠየቅ	-10194
መደው	-10195
▁ተለይቶ	-10196
▁የአምስት	-10197
ሃውስ	-10198
▁ለሞ	-10199
▁በመጣ	-10200
ስቱም	-10201
▁ወለዶች	-10202
ልጋሪያ	-10203
ere	-10204
የህ	-10205
▁የባዮ	-10206
▁ለተወሰነ	-10207
▁የአውታረ	-10208
▁partic	-10209
▁የተከፋፈሉ	-10210
▁ስሙን	-10211
▁ተሰጥኦ	-10212
▁ከተጠናቀቀ	-10213
▁በመንገድ	-10214
ከባድ	-10215
ንታኪ	-10216
▁ፊደል	-10217
▁ወሬ	-10218
▁ተከሰ	-10219
ያና	-10220
▁Sh	-10221
▁የኳ	-10222
▁ጥቂ	-10223
▁ጉድለቶች	-10224
▁ለድ	-10225
▁የየ	-10226
▁ከዩናይትድ	-10227
▁አብዮታዊ	-10228
▁የእግረኛ	-10229
▁ጩኸት	-10230
▁ይጠበቃል።	-10231
▁አረጋግጠዋል	-10232
▁በሞት	-10233
▁አይሆንም	-10234
ንግላ	-10235
▁የሚውል	-10236
63	-10237
▁ዘፈኖችን	-10238
▁በማኅበራዊ	-10239
▁ከመጀመሩ	-10240
▁በማዘጋጀት	-10241
▁ተወስዷል	-10242
▁የዚህን	-10243
47	-10244
ሚድ	-10245
▁በአራተኛው	-10246
▁ማካ	-10247
▁አዳም	-10248
▁የሆነችው	-10249
ሎቫ	-10250
▁የገለጹት	-10251
ባኖስ	-10252
▁ሳቢያ	-10253
▁የንብረት	-10254
▁ህትመቶች	-10255
▁ታሪክን	-10256
ሥራቃዊ	-10257
▁ብስክሌት	-10258
▁ውር	-10259
▁particip	-10260
ከርስ	-10261
▁ለማስተካከል	-10262
▁ቀለሞች	-10263
ተሪ	-10264
▁የሚገልጹ	-10265
▁የምዕራ	-10266
▁ተለያይ	-10267
▁ጭፍጨፋ	-10268
▁ክፍተቶች	-10269
▁ባቀረ	-10270
▁በጋዜ	-10271
▁መርፌ	-10272
▁መቁረጥ	-10273
▁አግድም	-10274
▁ተወዳጅነት	-10275
▁ሰብአዊ	-10276
ice	-10277
▁የኮንግ	-10278
ሳለች	-10279
ታስ	-10280
ለውጥ	-10281
▁በፈረንሣይ	-10282
ረቀት	-10283
▁አስማ	-10284
ust	-10285
▁የሚያመለክት	-10286
ው፣	-10287
ተናንት	-10288
▁ገልጧል	-10289
▁ላከ	-10290
▁ግድግዳዎች	-10291
▁ፊደ	-10292
▁ሉዓ	-10293
▁ፖፕ	-10294
▁በተናጥል	-10295
▁አለመረጋጋት	-10296
ታና	-10297
▁ከግን	-10298
ሰረተ	-10299
ne	-10300
EM	-10301
ቀጥሉ	-10302
▁የሚጀምረው	-10303
▁ምግቦች	-10304
-9	-10305
▁በማጥ	-10306
ነት፣	-10307
▁አስገ	-10308
ክስን	-10309
▁ከአስር	-10310
▁ምስጢራዊ	-10311
ልበርን	-10312
▁ቱሪዝም	-10313
ነሮች	-10314
▁ኬን	-10315
▁ብክለት	-10316
▁የጨረር	-10317
ሪኩ	-10318
የና	-10319
ial	-10320
▁ራይት	-10321
ንትሮ	-10322
▁በበኩሉ	-10323
▁የሚመለከቱ	-10324
ፋቸውን	-10325
▁1952	-10326
▁የሚያደርገው	-10327
62	-10328
▁ቁም	-10329
▁በዘፈቀደ	-10330
▁ወርቃማ	-10331
ጠራሉ	-10332
▁የግብይት	-10333
ንቅለ	-10334
▁የመካከለኛ	-10335
ry	-10336
ላቻ	-10337
ህንፃ	-10338
▁የተከፋፈለ	-10339
▁ያገኘው	-10340
▁ይታሰባል	-10341
▁ኃላፊዎች	-10342
▁ባለማ	-10343
CAA	-10344
▁ጊዜም	-10345
▁የቃላት	-10346
▁አስገድዶ	-10347
▁አቀራረብን	-10348
▁አግባብነት	-10349
▁ለመሳተፍ	-10350
▁ፍርሃት	-10351
▁ኮንቬንሽን	-10352
ክላሆማ	-10353
▁ቦል	-10354
▁ገዥዎች	-10355
▁አይፈ	-10356
▁ሚለር	-10357
▁ቦብ	-10358
▁ወንድማማቾች	-10359
▁ግራጫ	-10360
rom	-10361
ጡ።	-10362
▁የኮሚ	-10363
▁ኪራይ	-10364
▁ከቻይና	-10365
▁ያበ	-10366
▁መጠና	-10367
ወርቅ	-10368
▁ይገነዘ	-10369
▁ነዉ።	-10370
▁የዘፈቀደ	-10371
▁ሩቅ	-10372
▁ዓላማው	-10373
AT	-10374
ሬም	-10375
ርዱ	-10376
▁ምኞት	-10377
▁ሀገረ	-10378
▁ከከፍተኛ	-10379
▁እንዲኖራቸው	-10380
72	-10381
▁የሚታዩ	-10382
ገኙም	-10383
ገኙበት	-10384
▁ደብረ	-10385
▁ስሜታዊነት	-10386
▁ማድረጉን	-10387
▁ከፊ	-10388
▁ተወስኗል	-10389
▁መፍታት	-10390
▁ከጭ	-10391
ሰሙ	-10392
▁ቱርክ	-10393
ide	-10394
ሮቻቸው	-10395
መንቶች	-10396
▁ይገድ	-10397
▁ያድርጉ	-10398
▁አመል	-10399
ክራል	-10400
▁participated	-10401
▁ርዕዮተ	-10402
▁ኤጀንሲዎች	-10403
ዟል	-10404
44	-10405
▁የተጠ	-10406
▁የማዕከላዊ	-10407
▁የማሳ	-10408
▁መላምት	-10409
ናንተ	-10410
▁አያውቅም	-10411
▁ወፎች	-10412
▁እኛም	-10413
▁እርስዎ	-10414
ለቀቅ	-10415
ቆችን	-10416
▁ነግ	-10417
▁አበበ	-10418
ገረድ	-10419
▁ዳኒ	-10420
▁ከትምህርት	-10421
▁ደመና	-10422
▁የጁ	-10423
▁ጥይቶች	-10424
▁ስለማ	-10425
▁የሚያንፀባር	-10426
▁Ethiopia	-10427
ድረጉ	-10428
▁ወጥነት	-10429
ደረሰባቸው	-10430
▁እንዲፈጠር	-10431
▁የአክሲዮን	-10432
▁ኢቫ	-10433
▁አመስ	-10434
▁ይካሄ	-10435
ግራሙ	-10436
▁ከእሷ	-10437
-10	-10438
▁የማኅበራዊ	-10439
▁ማኅበራዊ	-10440
▁ላል	-10441
ዜማ	-10442
▁ጥበ	-10443
መፅ	-10444
▁ቡሽ	-10445
▁የታወቁ	-10446
▁ማርሻል	-10447
▁ሰጥተዋል	-10448
▁ተመድቧል	-10449
ሏት	-10450
▁እፈልጋ	-10451
▁ፓት	-10452
▁ያረጋግጣል	-10453
ስተርን	-10454
▁ይችል	-10455
▁ሲነፃፀሩ	-10456
▁መጀመር	-10457
▁የፓርቲው	-10458
▁ገልጻ	-10459
▁የስልጣን	-10460
▁1957	-10461
▁1949	-10462
▁በነጻ	-10463
▁ንፁህ	-10464
▁ገጣሚ	-10465
ቬል	-10466
▁የኢንቨስትመንት	-10467
▁አቅራቢዎች	-10468
▁መምረጥ	-10469
▁የሪፐብሊካን	-10470
ረቱ	-10471
▁ግንብ	-10472
▁አይታ	-10473
▁በስልክ	-10474
▁የተወለዱ	-10475
▁ክቡር	-10476
ነራል	-10477
▁ለአሜሪካ	-10478
ተሩ	-10479
ክክለኛው	-10480
▁አለመግባባት	-10481
▁ይታወቅ	-10482
ET	-10483
ያልፍ	-10484
▁በከተማዋ	-10485
▁የተጎዱ	-10486
▁አስደንጋጭ	-10487
▁ያወጣ	-10488
▁መሐንዲ	-10489
▁በትላልቅ	-10490
▁Un	-10491
▁በመከተል	-10492
▁ብሪጌድ	-10493
▁አሰፋ	-10494
▁የዓይን	-10495
ቸውም	-10496
▁የጡ	-10497
▁ጊታር	-10498
ኮሞ	-10499
▁የኅ	-10500
ስተካከሉ	-10501
▁ለእኔ	-10502
▁1955	-10503
▁ጀም	-10504
▁የፕሮግራም	-10505
▁ተሃድሶ	-10506
▁በሚጠራው	-10507
lic	-10508
▁መሃ	-10509
▁ልጃገረድ	-10510
▁መርሆዎች	-10511
▁ተመርጠዋል	-10512
ጣኔ	-10513
ዳሚው	-10514
▁መራጮች	-10515
▁ኢንግ	-10516
▁የኤክስ	-10517
▁እያደረጉ	-10518
▁ለሙሉ	-10519
ፕሲ	-10520
▁ቀንድ	-10521
▁ሁነታ	-10522
▁stated	-10523
ዎስ	-10524
▁መናፍ	-10525
2012	-10526
▁መታወቂያ	-10527
▁ከተመለሰ	-10528
▁ቢሊ	-10529
▁የስሜት	-10530
ውሮፕላኑ	-10531
▁ጡንቻ	-10532
▁1953	-10533
ባራ	-10534
ቀርበው	-10535
,500	-10536
▁ባለቤቱ	-10537
ሽቱ	-10538
ዚዮሎጂ	-10539
▁አደረ	-10540
▁ከበሮ	-10541
▁አንዳንዶች	-10542
ችው።	-10543
▁ደህና	-10544
▁ጉልበት	-10545
▁የዩክሬን	-10546
▁ሠራተኞችን	-10547
▁ሄዱ	-10548
ወራ	-10549
▁የመጀመሪያዎቹን	-10550
85	-10551
ሮኮ	-10552
▁ኢንቬስት	-10553
ጋቸውን	-10554
▁ኃይሉ	-10555
▁አሰቃቂ	-10556
ቃጠ	-10557
▁ኔትወርክ	-10558
▁በተገቢው	-10559
▁ኦን	-10560
▁ተሳፋሪ	-10561
ቻላቸው	-10562
ጂናል	-10563
▁አካላትን	-10564
▁ለማንኛውም	-10565
▁ነፍስ	-10566
▁ተደብ	-10567
ላሉ።	-10568
ሻንጉ	-10569
ኖክ	-10570
▁ለምርጥ	-10571
▁የኤች	-10572
▁ስፔን	-10573
ቢል	-10574
▁ሞገ	-10575
▁ምህዳራዊ	-10576
▁እንዲጨምር	-10577
▁ዓለማ	-10578
ጣቸውን	-10579
▁ወፍራም	-10580
▁ለቢቢሲ	-10581
ቆሮ	-10582
ተሻ	-10583
ና፣	-10584
ካሪ	-10585
▁ቢቢሲ	-10586
▁ከባህር	-10587
ኑኤል	-10588
▁ሁለገብ	-10589
▁ፓስፊክ	-10590
▁እመቤት	-10591
▁መሰናክ	-10592
▁ማዕበል	-10593
▁ፎርት	-10594
▁የኢራን	-10595
ንተናዊ	-10596
▁የፓን	-10597
▁የአደንዛዥ	-10598
▁አስወግ	-10599
▁ክርክሮች	-10600
▁እርሻዎች	-10601
ረሰብ	-10602
▁ርእ	-10603
▁እንጅ	-10604
▁ይወድ	-10605
▁ሞን	-10606
▁መገልገያዎች	-10607
▁ሁለንተናዊ	-10608
▁ከዶ	-10609
▁የቅኝ	-10610
ቀመጠው	-10611
ርሊ	-10612
ool	-10613
▁የእስር	-10614
▁በድንጋይ	-10615
ፎርም	-10616
ሃው	-10617
▁64	-10618
▁እዩ።	-10619
▁ተገነዘበ	-10620
▁በሁ	-10621
▁ፓይ	-10622
▁SR	-10623
▁እንዲኖረው	-10624
▁አጫጭር	-10625
ወርድ	-10626
ቋረጠ	-10627
▁የሁለተኛው	-10628
▁ሲን	-10629
▁እንደተናገረው	-10630
▁አመፅ	-10631
ወርወር	-10632
▁ዓለምን	-10633
ነሳው	-10634
▁አሕ	-10635
ስቲክ	-10636
▁በንቃት	-10637
▁የወጡ	-10638
▁መለካት	-10639
ርዶ	-10640
▁በባህላዊ	-10641
▁የመያዝ	-10642
▁የመምረጥ	-10643
▁ሮይ	-10644
ን።	-10645
ላፊነት	-10646
ጅቶች	-10647
▁ኮንሰር	-10648
ነፃፀር	-10649
▁ለመናገር	-10650
▁ብራን	-10651
▁እስከዛሬ	-10652
ቀቶችን	-10653
▁ኢንፌክሽን	-10654
▁ተሸልሟል	-10655
▁ጠይቀዋል	-10656
▁መንግሥታዊ	-10657
▁ግጥሞች	-10658
ens	-10659
LA	-10660
ራሾች	-10661
ለኞቹ	-10662
ነቷን	-10663
▁ሞዴሎችን	-10664
▁1951	-10665
▁ተባብ	-10666
▁ሊከሰት	-10667
▁ካቴድ	-10668
ዳሰስ	-10669
▁የተነደፈ	-10670
▁ምርጫው	-10671
▁ይጠበቅ	-10672
▁ዓመፅ	-10673
▁ይከፈ	-10674
▁የጠፋ	-10675
ቮን	-10676
▁የእስልምና	-10677
▁1919	-10678
▁በጠቅላይ	-10679
▁ማከናወን	-10680
ጋስ	-10681
▁4.	-10682
▁ራሳቸው	-10683
▁እንዳሳ	-10684
▁ከየ	-10685
ካሉ	-10686
▁አትሌት	-10687
ተርጎም	-10688
▁ይናገራል።	-10689
▁ስቲቨን	-10690
▁ለመሥራት	-10691
▁መሐንዲስ	-10692
▁በእስራኤል	-10693
▁ፀሐይ	-10694
▁መበ	-10695
ኤሺያ	-10696
▁ስካ	-10697
▁ቡድንን	-10698
▁ይኖራ	-10699
▁ድምር	-10700
▁ተመራጭ	-10701
▁በመተካት	-10702
▁የጥንት	-10703
▁ናብ	-10704
ዘመን	-10705
▁ቅጠሎች	-10706
▁የኤል	-10707
▁የማይችል	-10708
ቲዩብ	-10709
▁ያብራራል	-10710
▁ተዘርግቷል	-10711
''	-10712
▁የጥራት	-10713
ፋፊያ	-10714
▁አሳትሟል	-10715
ጣጠሚያ	-10716
ሲካ	-10717
ደርግም	-10718
▁ዞኖች	-10719
▁ሲመለስ	-10720
▁ጀርመ	-10721
▁ከሄ	-10722
▁የጋዝ	-10723
▁ገልጾ	-10724
▁ምቾት	-10725
▁ያምናሉ	-10726
▁አሥራ	-10727
▁ተሰየመ	-10728
▁በስኮትላንድ	-10729
ድቅ	-10730
▁ማባ	-10731
▁ስታር	-10732
ቆጣጠሩ	-10733
▁መመር	-10734
▁ዘመኑን	-10735
▁በብሪቲሽ	-10736
▁ተንቀሳቅ	-10737
ቲከት	-10738
▁ማስተማር	-10739
▁ገጹ	-10740
▁አድልዎ	-10741
ጡንቻ	-10742
▁መበስበስ	-10743
▁እናቶች	-10744
▁ስርአት	-10745
ርቃ	-10746
ወሀት	-10747
▁ውስብስብነት	-10748
▁እየተሰራ	-10749
▁ይሳተ	-10750
▁በፈቃደኝነት	-10751
▁1938	-10752
ሪል	-10753
▁እዩ	-10754
ንግን	-10755
ላድ	-10756
▁መክ	-10757
▁አስተዳደሩ	-10758
ህራ	-10759
▁አውደ	-10760
ሊኮፕ	-10761
▁ጊዜዎች	-10762
▁ለመምረጥ	-10763
▁የአራት	-10764
ሜኒያ	-10765
ሟቸው	-10766
የቱን	-10767
▁አልነበራቸው	-10768
▁በግብርና	-10769
ሮይድ	-10770
▁ፈረን	-10771
▁43	-10772
▁በኢንዱስትሪ	-10773
▁ሀሳቦችን	-10774
▁አገባ	-10775
ሪና	-10776
ኒዝም	-10777
▁ደሞ	-10778
▁አስተላላፊ	-10779
▁ፕላን	-10780
የሩሳሌም	-10781
▁አንዳ	-10782
ፋኖስ	-10783
ገግ	-10784
▁ቸር	-10785
▁ጮ	-10786
ሙላ	-10787
▁ለመተንተን	-10788
▁ወዳድ	-10789
▁የሁለትዮሽ	-10790
▁በመለየት	-10791
▁የደረሰው	-10792
▁በወንዶች	-10793
ፖርቱ	-10794
▁በኮምፒ	-10795
▁አክሊ	-10796
▁ቋት	-10797
▁የአድ	-10798
በሻ	-10799
ፋኑ	-10800
▁አንዳቸው	-10801
▁ብጥብጥ	-10802
▁ተነስቶ	-10803
▁የተጠቃሚ	-10804
መላ	-10805
▁በገጠር	-10806
ጭመ	-10807
ደራጀ	-10808
▁መግለጫው	-10809
▁በይነገጽ	-10810
▁ይቆጥ	-10811
▁ይሸፍናል	-10812
61	-10813
ቴክት	-10814
▁የሚያሳድሩ	-10815
▁እራሷን	-10816
▁በተባበሩት	-10817
▁እንዲያገኝ	-10818
ላቸዋል።	-10819
ርቢ	-10820
▁ግሪክ	-10821
▁ዘግይ	-10822
ላጎት	-10823
▁120	-10824
▁አንፃራዊ	-10825
▁መውጫ	-10826
▁ኪም	-10827
▁ጓደኞ	-10828
▁አገራዊ	-10829
ዓል	-10830
▁ሳይንቲስቶች	-10831
▁ከጄ	-10832
▁ብዙኃን	-10833
▁ለእነዚህ	-10834
▁የወሊድ	-10835
▁ስትራቴጂዎች	-10836
ድረሱ	-10837
▁ይፈጥራሉ	-10838
▁በአሥራዎቹ	-10839
▁የሰማ	-10840
▁ጎልማሳ	-10841
ኙን	-10842
-20	-10843
ያዋን	-10844
ስትራክሽን	-10845
ቦቹን	-10846
▁ማጭበርበር	-10847
▁ተገድለዋል	-10848
ደዋል።	-10849
▁በመዋ	-10850
▁የተቀየሰ	-10851
▁ትንታኔዎች	-10852
▁የተጣራ	-10853
▁በአሳ	-10854
▁ፍርስ	-10855
ራቃዊ	-10856
▁አከናው	-10857
▁አስረድተዋል	-10858
ታዋ	-10859
▁ተገም	-10860
▁አሰራ	-10861
▁ማእከል	-10862
▁አንበ	-10863
▁ሽጉ	-10864
በት፣	-10865
▁እግዚአብ	-10866
ቭላንድ	-10867
▁ይከፍ	-10868
ገናኛል	-10869
ሞስ	-10870
▁ምድቦች	-10871
▁እስኪያ	-10872
▁በኮሮና	-10873
TC	-10874
▁ለዴ	-10875
ቅዱ	-10876
▁1917	-10877
▁ቅጦች	-10878
ቆራረጥ	-10879
▁አባልነት	-10880
);	-10881
ዬል	-10882
ቤትነት	-10883
▁ምግባራዊ	-10884
▁ዱክ	-10885
▁የተዘ	-10886
ኮሎጂ	-10887
▁ለመቅ	-10888
▁አርበኞች	-10889
ናቀሉ	-10890
▁በጌ	-10891
ኮክ	-10892
▁የመጠቀም	-10893
▁ከአውሮፓ	-10894
▁አህጉ	-10895
SC	-10896
▁ከኪ	-10897
ዑዲ	-10898
▁ማተሚያ	-10899
▁በመጠየቅ	-10900
▁ዥረት	-10901
▁ይሰጣ	-10902
▁አበረታ	-10903
▁በመመርመር	-10904
▁ዕቅዶች	-10905
ሚራል	-10906
▁የአማርኛ	-10907
▁ወጪዎችን	-10908
ሯን	-10909
▁የሱዳን	-10910
ክንያ	-10911
▁እንዲመለስ	-10912
▁ቢሮዎች	-10913
▁ሲሄዱ	-10914
▁ሳህ	-10915
ገፋ	-10916
▁እናቱ	-10917
▁ክሪስቶ	-10918
ኔጅ	-10919
▁ይታወቃሉ	-10920
ድጓድ	-10921
ጽፍ	-10922
▁ተልኳል	-10923
ሚንቶ	-10924
ኖርም	-10925
▁የጥበብ	-10926
▁ለመን	-10927
▁ለዩ	-10928
ቮል	-10929
▁ከግማሽ	-10930
▁ከፕሮ	-10931
▁የተሻሉ	-10932
በረታቻ	-10933
▁ተፈት	-10934
▁ህወሓት	-10935
▁ከመሆኑም	-10936
▁በነበሩ	-10937
▁የሚያስፈልጉ	-10938
▁ስደተኛ	-10939
መኑ	-10940
▁ካገኘ	-10941
ርካሽ	-10942
▁እንዲቀጥል	-10943
▁ሴኔት	-10944
▁47	-10945
▁ይታመናል	-10946
▁ማኅበረሰብ	-10947
▁እት	-10948
ዲናል	-10949
▁ያስወ	-10950
ሽቅድ	-10951
▁ታጣቂዎች	-10952
ith	-10953
ኾነ	-10954
ሀን	-10955
ቶር	-10956
▁ቶኒ	-10957
▁ፕሮግራሙ	-10958
ጨረሻው	-10959
▁ባቡሮች	-10960
▁ሞተሮች	-10961
▁ብርሃኑ	-10962
▁ተደርጓል።	-10963
▁ሂደቱን	-10964
▁ኮምፒው	-10965
▁ጠቋሚ	-10966
▁1936	-10967
▁ወንድሞች	-10968
▁ዶን	-10969
▁ህትመት	-10970
ደበቅ	-10971
▁ተመልካቾች	-10972
▁ኦክሳይድ	-10973
▁ቮልቴጅ	-10974
ዘምራን	-10975
▁የሚወስደው	-10976
▁ያመለክታል።	-10977
ሲዮ	-10978
▁ወልደ	-10979
ምድም	-10980
▁ብሮ	-10981
▁የለበትም	-10982
ann	-10983
▁250	-10984
▁ድካም	-10985
ዬጎ	-10986
▁ይባላል	-10987
▁ከጠቅላላው	-10988
▁ሰሌዳዎች	-10989
▁1954	-10990
▁ሃብት	-10991
▁የአገሪቱን	-10992
ንከር	-10993
ዚያና	-10994
▁በቫይረሱ	-10995
▁በብቃት	-10996
▁ከእንግዲህ	-10997
ያሉ።	-10998
▁ከሚገኙ	-10999
▁ፋይበር	-11000
act	-11001
ራጅ	-11002
▁መስማት	-11003
በተጨማሪ	-11004
▁በጥቁር	-11005
▁ጎሳዎች	-11006
▁ከወደ	-11007
ሌቶች	-11008
▁እንዲገባ	-11009
▁ለማብራራት	-11010
▁ተቋማትን	-11011
▁ቢያስ	-11012
▁ከታች	-11013
▁ሳንቲም	-11014
▁በመቀላቀል	-11015
ook	-11016
▁ጫጫ	-11017
▁አምጥ	-11018
▁ጫፎች	-11019
▁ዜናዊ	-11020
▁የመጣውን	-11021
ሩ።	-11022
▁ማህደረ	-11023
▁አስከባሪ	-11024
▁የወጣት	-11025
▁ዘጠነኛው	-11026
▁ይገመታል	-11027
▁አርተር	-11028
▁ከኋላ	-11029
▁1)	-11030
▁ከላ	-11031
▁ቢሆንም፣	-11032
▁ቀርፋፋ	-11033
▁አንዴ	-11034
▁()	-11035
▁የጸጥታ	-11036
▁ከቡድኑ	-11037
▁ይመስለኛል	-11038
ቀዘ	-11039
▁የፕሬስ	-11040
ww	-11041
▁ከቀድሞ	-11042
▁ከሌላ	-11043
▁የግለ	-11044
▁ማንበብ	-11045
▁በነፃነት	-11046
ፌት	-11047
ዝላ	-11048
▁ይሄዳል	-11049
ርቲው	-11050
▁በቃል	-11051
ምምነት	-11052
▁ከመንግስት	-11053
▁በመምረጥ	-11054
▁በመካከለኛ	-11055
▁179	-11056
ላለች።	-11057
▁1937	-11058
▁እንደምን	-11059
uc	-11060
ርቻሮ	-11061
▁ሲጀምር	-11062
▁በግለሰብ	-11063
▁እንዲያደርግ	-11064
▁ኢራን	-11065
ንደሩ	-11066
▁ፉክክር	-11067
▁ይመጣል	-11068
▁አላውቅም	-11069
ኖልድ	-11070
▁ተይዘዋል	-11071
▁ጋዜጣዊ	-11072
▁የስዊድን	-11073
ኤምኤስ	-11074
▁አምል	-11075
ስኮት	-11076
▁ብራድ	-11077
▁በማስተዋወቅ	-11078
▁54	-11079
ብሎ	-11080
▁የአትሌቲክስ	-11081
▁ሰሚ	-11082
▁ባሪ	-11083
▁ስትሆን	-11084
▁ታሪኮችን	-11085
ጠቅላላ	-11086
▁ክፍልን	-11087
▁NCAA	-11088
▁ተሳፋሪዎች	-11089
▁አመልክቷል	-11090
▁ተገዢ	-11091
▁እንዲገቡ	-11092
▁ታችኛው	-11093
ተናል።	-11094
ሶም	-11095
▁ደራሲው	-11096
▁እስጢ	-11097
▁አምስተኛው	-11098
ቸዉን	-11099
ምቤላ	-11100
▁አይችልም።	-11101
▁የሚመጣው	-11102
▁ተለይተዋል	-11103
ፒክ	-11104
▁መስፈርቶችን	-11105
▁52	-11106
▁ሁኔታውን	-11107
ፈጠር	-11108
ገደለ	-11109
▁የአልኮል	-11110
▁መጠንን	-11111
▁በቴክሳስ	-11112
▁ከዕ	-11113
▁ኤርል	-11114
▁ኤልሳቤጥ	-11115
ኢን	-11116
ማኖታዊ	-11117
ፕቴ	-11118
▁ምላሾች	-11119
ያንን	-11120
ሊኒ	-11121
የንስ	-11122
▁እንጨት	-11123
▁በእኛ	-11124
▁በጽ	-11125
▁ካሉት	-11126
ብህ	-11127
▁መዝሙር	-11128
▁ለማስተዳደር	-11129
▁የምድር	-11130
ሬክ	-11131
▁ሚዲያዎች	-11132
▁የሰደደ	-11133
▁የሰለጠ	-11134
ቲሞር	-11135
▁ተም	-11136
ሞክራቶች	-11137
▁ፋሽን	-11138
▁፥	-11139
▁እል	-11140
▁እዚ	-11141
▁ማስመሰል	-11142
▁ፍሬድሪክ	-11143
▁መጓዝ	-11144
▁ሳተ	-11145
ገልግሎት	-11146
ውነት	-11147
▁የአመራር	-11148
▁አልሆነም	-11149
▁የታላቁ	-11150
▁ዘግይቶ	-11151
▁ልጁን	-11152
▁ከተማን	-11153
▁ጎልድ	-11154
ጎስ	-11155
ራቱን	-11156
▁የኤፍ	-11157
ግራቸው	-11158
ምፓየር	-11159
▁ያስቀም	-11160
▁ከቴ	-11161
ያዎችን	-11162
▁ብዝሃነት	-11163
are	-11164
ፈጽ	-11165
▁ባለአ	-11166
ለይም	-11167
ላዋ	-11168
ዳስ	-11169
ያማ	-11170
▁ስኳር	-11171
▁መገናኘት	-11172
▁እንቅልፍ	-11173
▁ማካተት	-11174
▁ያቀረበው	-11175
ፋሮ	-11176
HL	-11177
▁ስለም	-11178
▁ኳሱን	-11179
ፓጋንዳ	-11180
ታለች።	-11181
▁ንዝ	-11182
ጦርነት	-11183
▁ሲደርሱ	-11184
ST	-11185
▁ለመቀላቀል	-11186
ባሉት	-11187
ንስኪ	-11188
▁0,0	-11189
▁አካቷል	-11190
▁አውቶቡስ	-11191
▁ጥናቶችን	-11192
▁ጠረጴዛ	-11193
▁ይተገ	-11194
▁1910	-11195
ጠፍ	-11196
▁እንዲታ	-11197
▁የሚኖር	-11198
▁በእንደዚህ	-11199
▁በሰጠው	-11200
▁አዋጁ	-11201
ለቃ	-11202
▁ሰጥቶ	-11203
▁ዓመፀ	-11204
▁የሰጡት	-11205
▁ሰፈሮች	-11206
ሰቡን	-11207
ሾም	-11208
▁መክፈል	-11209
ዛወሩ	-11210
▁ወጣቱ	-11211
▁በተሳሳተ	-11212
▁ጎማ	-11213
▁ተሰጥቶት	-11214
▁የሞር	-11215
▁በሰላማዊ	-11216
▁ዕጢ	-11217
▁አይጦች	-11218
ኖቹን	-11219
▁ተገለጠ	-11220
ቐለ	-11221
ባበስ	-11222
▁መንኮራ	-11223
▁ጀልባዎች	-11224
ሽቅድምድም	-11225
▁የወደፊቱ	-11226
ዕምሮ	-11227
▁ተጠናቅ	-11228
▁በአየርላንድ	-11229
▁የሐሰት	-11230
ዟል።	-11231
መጣጠነ	-11232
ጫል	-11233
▁ዲያሜ	-11234
▁ዕድሎች	-11235
ቻይዝ	-11236
▁ወንዞች	-11237
▁ሽልማቶችን	-11238
▁ከሽ	-11239
▁ጆርጂያ	-11240
▁ዳይሬክተሩ	-11241
▁ለትምህርት	-11242
▁85	-11243
ስተላል	-11244
▁ኦስ	-11245
▁ትናገ	-11246
▁ኦሃዮ	-11247
▁ዲያሜትር	-11248
▁በንጉሠ	-11249
▁የተደራጁ	-11250
▁መለያየት	-11251
▁በተዘዋዋሪ	-11252
▁ያዘ	-11253
▁ብሎም	-11254
▁ምሥራቃዊ	-11255
ርቫርድ	-11256
▁ማጥመጃ	-11257
▁ድንበሮች	-11258
ክሶ	-11259
▁ማንሳት	-11260
▁1900	-11261
▁በኮሎ	-11262
በላሹ	-11263
▁ሃሳ	-11264
▁ሊያደርግ	-11265
▁እየሰ	-11266
▁ፆታ	-11267
▁ዕቃዎችን	-11268
▁ለሥ	-11269
ስሊም	-11270
SP	-11271
▁እንደሚለው	-11272
▁2)	-11273
ሠራተኞች	-11274
▁ከተማዋን	-11275
ሳውዲ	-11276
▁ተጠቅመዋል	-11277
▁ሆስፒታሎች	-11278
▁ሚያ	-11279
▁የሚጓዙ	-11280
73	-11281
▁ሰራተኛ	-11282
▁፳	-11283
▁ምሥ	-11284
▁ቁጥራቸው	-11285
▁መስተዳድር	-11286
▁በረዶ	-11287
▁ማሻሻያዎችን	-11288
▁በሊጉ	-11289
▁የሚገባው	-11290
▁የፍጥነት	-11291
▁አለመኖር	-11292
▁ምንዛሪ	-11293
▁ለመቅረፍ	-11294
▁ዋነኛው	-11295
▁ዜማዎች	-11296
▁በጁ	-11297
▁ገልጿል	-11298
▁ያስፈልጋል።	-11299
▁ተርሚናል	-11300
▁በኤሌክትሪክ	-11301
ሰንን	-11302
▁መልእክ	-11303
ib	-11304
ዛሉ	-11305
▁&	-11306
▁ከበደ	-11307
እሱ	-11308
▁የመድረክ	-11309
▁ክረምት	-11310
▁ድክ	-11311
▁ሎርድ	-11312
▁ሀብቶችን	-11313
▁ተሻሽሏል	-11314
ሉበት	-11315
▁ባለስልጣ	-11316
▁ትምህርትን	-11317
▁ኢንዶ	-11318
▁ውሳኔው	-11319
▁ሳት	-11320
▁በሚቀጥሉት	-11321
▁ያጋጥ	-11322
ፕረስ	-11323
▁ፓሪስ	-11324
▁ሰራተኞችን	-11325
▁ብሮድካስቲንግ	-11326
▁የተፃፈ	-11327
▁አጠራ	-11328
ጆቻቸው	-11329
▁አብዱል	-11330
▁ሆር	-11331
▁ተቀማጭ	-11332
▁ተቃር	-11333
▁ቀሪዎቹ	-11334
ናርድ	-11335
▁ሲወጣ	-11336
▁ድሎች	-11337
ፕራ	-11338
▁ጋዜጦች	-11339
▁ቀል	-11340
▁የክለቡ	-11341
▁የአጥንት	-11342
▁አስቆ	-11343
▁ድጎማ	-11344
▁ቡል	-11345
ድሎ	-11346
▁የካንሰር	-11347
▁ያተኩራል	-11348
▁ጥሰ	-11349
ዞሪያ	-11350
ደባለቀ	-11351
49	-11352
ሔርን	-11353
ክቶር	-11354
▁ተኩል	-11355
▁ህዝብን	-11356
▁የቦርድ	-11357
▁ያልፋል	-11358
ዋለሁ	-11359
ሃራ	-11360
▁የወቅቱ	-11361
▁መስኮቶች	-11362
▁ማስተዋወቅ	-11363
▁ኢሊኖይ	-11364
▁ሃርት	-11365
▁ባህሪን	-11366
▁ሰጭ	-11367
▁በእውነት	-11368
በተጨማሪም	-11369
ናታን	-11370
▁ትርኢቱ	-11371
▁በዌስት	-11372
ገነዘብ	-11373
▁የሚችለውን	-11374
▁የመው	-11375
▁ጥቃቱ	-11376
▁ተገንዝ	-11377
▁ህግን	-11378
ሪቃ	-11379
▁ከሚያስ	-11380
▁ኮረብታ	-11381
▁600	-11382
ሙም	-11383
▁ለች	-11384
▁ለማመቻቸት	-11385
▁ሩዝ	-11386
▁የተማሩ	-11387
ለፉ	-11388
▁ማድረጉ	-11389
▁መሐንዲሶች	-11390
▁የተሳተፈ	-11391
ብሊን	-11392
▁ተደርገው	-11393
ቀደም	-11394
▁የለውም።	-11395
▁ባለድርሻ	-11396
▁የቀጠለ	-11397
▁የተማሪዎች	-11398
▁አቅጣጫዎች	-11399
▁ነበረች።	-11400
▁መስመሮችን	-11401
▁1914	-11402
▁ሌክ	-11403
ሸሽ	-11404
ናቀል	-11405
▁በማጥፋት	-11406
▁ሌላውን	-11407
▁ባዮሎጂያዊ	-11408
ቆማ	-11409
ፅህና	-11410
▁መድሃኒ	-11411
▁ጀምሯል	-11412
▁ቀበሌ	-11413
ቮች	-11414
ሁም	-11415
▁የሉም	-11416
ቨንስ	-11417
ልዩ	-11418
▁መፍሰስ	-11419
ዝባዊ	-11420
ጠኛው	-11421
▁በረጅም	-11422
▁ለሥራ	-11423
▁ምህንድስና	-11424
ልና	-11425
▁አስከሬ	-11426
▁የተቀላቀ	-11427
▁ባልሆነ	-11428
ቢክ	-11429
▁አንቶኒዮ	-11430
▁46	-11431
▁ማሽኖች	-11432
▁እስጢፋኖስ	-11433
▁ሊገኝ	-11434
▁የድሮ	-11435
▁ጴጥ	-11436
▁ዲዬጎ	-11437
▁51	-11438
▁የእግዚአብሔር	-11439
ሰብአዊ	-11440
▁ለአራት	-11441
ፍሮ	-11442
▁በተለመደው	-11443
▁በጅምላ	-11444
▁በመነሳት	-11445
▁መስዋዕት	-11446
▁ይፈልጋሉ	-11447
▁©	-11448
▁ፎርድ	-11449
▁አስከሬን	-11450
ጓጉ	-11451
▁ሮም	-11452
▁ዊን	-11453
ፅደቅ	-11454
▁የተመረጠ	-11455
▁የተካሄደ	-11456
▁ሂደቶችን	-11457
ኔዎች	-11458
▁በፕሪ	-11459
ገደድ	-11460
ፈረም	-11461
ላይነት	-11462
መንጨት	-11463
▁አሰላለፍ	-11464
▁ወሰኑ	-11465
▁ቁል	-11466
▁ሕንፃው	-11467
▁አፓርታማ	-11468
▁መጠኑ	-11469
▁አመጽ	-11470
▁ከከተማው	-11471
ሬና	-11472
▁እርጥበት	-11473
▁ብሌ	-11474
▁ጭንቅላ	-11475
▁በኔዘርላንድስ	-11476
ኤኤ	-11477
ነገረው	-11478
▁ይቆያል	-11479
ቆብ	-11480
ሳሉ።	-11481
▁የገና	-11482
▁ረጅ	-11483
▁ከሂ	-11484
ራሹ	-11485
ጠቀሙበት	-11486
▁ማሽቆል	-11487
42	-11488
AF	-11489
▁ተቆር	-11490
▁ግብዣ	-11491
ram	-11492
▁ንክ	-11493
ዌስት	-11494
ቋረጡ	-11495
ባቸውም	-11496
88	-11497
71	-11498
▁ጨረ	-11499
▁ማድሪድ	-11500
ከትሉ	-11501
▁ዕድሎችን	-11502
ፌዴሪ	-11503
▁የነበራቸው	-11504
▁ሠራዊ	-11505
ከፍል	-11506
▁ካምፖ	-11507
▁ገፅ	-11508
ፎሎጂ	-11509
▁sp	-11510
▁ያመጣ	-11511
▁በበረዶ	-11512
▁የእንቅስቃሴ	-11513
ደራደር	-11514
▁ኢንክ	-11515
▁ካው	-11516
▁ለማቆም	-11517
ብሬ	-11518
▁በውድድሩ	-11519
ኮታ	-11520
ያያ	-11521
▁አራቱ	-11522
ዋቂው	-11523
▁በመላክ	-11524
▁ዲግ	-11525
▁በሙያው	-11526
▁ተሰጥቷል	-11527
▁ትምህርቱን	-11528
▁የፀደይ	-11529
አው	-11530
▁የእሷ	-11531
▁መጨረሻው	-11532
▁(195	-11533
▁መመስረት	-11534
▁የመዳረሻ	-11535
▁ሚው	-11536
ምየር	-11537
▁ቀመሮች	-11538
▁ንፅፅር	-11539
▁ባለመኖሩ	-11540
▁ከግብ	-11541
▁ኣም	-11542
▁የሮክ	-11543
ጎመ	-11544
age	-11545
▁የአምልኮ	-11546
▁ባንዶች	-11547
መዱ	-11548
▁መመልከት	-11549
▁Sp	-11550
▁በመከላከል	-11551
ይነመረብ	-11552
▁ቂ	-11553
▁አይቻልም	-11554
ሟን	-11555
ጎዝላ	-11556
▁በህግ	-11557
ሀል	-11558
▁እስረ	-11559
▁አስርት	-11560
▁በተባለው	-11561
▁የበለፀገ	-11562
ፋሎ	-11563
▁የተሰኘው	-11564
▁አሸንፎ	-11565
▁ትዝታ	-11566
ገናል	-11567
ዴይ	-11568
▁ውብ	-11569
▁መዝሙ	-11570
ሞኑ	-11571
ዮቹን	-11572
▁ቅሬ	-11573
▁ግንኙነትን	-11574
▁ሰጥተዋል።	-11575
▁መተግበሪያዎች	-11576
▁ተደራሽነት	-11577
▁ሰላምና	-11578
▁ለማካተት	-11579
ሻሻለ	-11580
▁ሲንድ	-11581
ምቀት	-11582
▁ክላው	-11583
▁የሚያሳድረው	-11584
▁የወጣው	-11585
▁የትውልድ	-11586
ላሪ	-11587
▁ማና	-11588
▁የስርዓት	-11589
ዥው	-11590
ክም	-11591
▁ይፈቅ	-11592
▁በልጆች	-11593
▁የኒውዚላንድ	-11594
...]	-11595
▁በወንጀል	-11596
▁ከዊ	-11597
▁»	-11598
▁አንጋ	-11599
ዴድ	-11600
▁የእርሱን	-11601
2013	-11602
ልምና	-11603
▁ሰዶማዊ	-11604
▁ፊልሞችን	-11605
▁አፈታሪክ	-11606
▁ተቋማዊ	-11607
▁ለአዲስ	-11608
ኒልክ	-11609
ርካንሳስ	-11610
▁መግዛት	-11611
ሳም	-11612
▁ልምዶችን	-11613
ኋለኞቹ	-11614
▁ቦው	-11615
▁ሥርዓተ	-11616
▁ኃይሎችን	-11617
▁ያለን	-11618
ወስደው	-11619
▁የርቀት	-11620
▁መርሃግብ	-11621
ፈሰ	-11622
ሩትን	-11623
▁ይመረ	-11624
▁መስጫ	-11625
ዳማዊ	-11626
own	-11627
ጀንት	-11628
ካከል	-11629
ach	-11630
▁ገብተው	-11631
▁ቢን	-11632
ጋታ	-11633
▁ችሎታዎች	-11634
▁የዶክትሬት	-11635
▁ስዕ	-11636
▁x	-11637
ግዛ	-11638
የሕ	-11639
▁የዳንስ	-11640
መዝገብ	-11641
ትስበርግ	-11642
ድት	-11643
▁በቺ	-11644
▁ቀይሮ	-11645
ከብር	-11646
ለለ	-11647
▁ጫጫታ	-11648
ላሬ	-11649
▁ተቀር	-11650
▁የአበባ	-11651
ኤስኤ	-11652
▁ሰባተኛ	-11653
▁ነጻነት	-11654
▁አርክቴክ	-11655
ሊምፒክ	-11656
▁ከጠዋቱ	-11657
▁አያት	-11658
▁አስተናግ	-11659
መዘገቡ	-11660
▁በቪዲዮ	-11661
ኔልሰን	-11662
▁ኮሌጆች	-11663
ሳይቲ	-11664
▁ከተለመደው	-11665
ከናውን	-11666
▁መጻሕፍትን	-11667
ቶሊ	-11668
▁የሁ	-11669
▁አንዲ	-11670
▁ከገባ	-11671
▁ከፖ	-11672
▁FC	-11673
▁የቴክሳስ	-11674
▁ሊታይ	-11675
▁እንግዶች	-11676
▁የስደተኞች	-11677
▁የተካ	-11678
▁ሲሞክር	-11679
▁ነች	-11680
ከባከብ	-11681
▁ተለዋጭ	-11682
ሰረዝ	-11683
▁ማትሪክስ	-11684
▁የቤዝቦል	-11685
ባዮ	-11686
ጂዮ	-11687
▁እርባታ	-11688
ማች	-11689
▁የኖርዌይ	-11690
ለየ	-11691
▁በግብፅ	-11692
▁አባላቱ	-11693
ታለን	-11694
▁ሲያደርጉ	-11695
▁NFL	-11696
▁ለውጥን	-11697
▁የኮሪያ	-11698
▁አጨ	-11699
▁ይሁንና	-11700
▁የፖስታ	-11701
ሽከርከር	-11702
▁ከብሔራዊ	-11703
ለናል	-11704
ኬድ	-11705
መንግስ	-11706
▁የሦስት	-11707
▁አሳው	-11708
▁ሲናገር	-11709
▁ተመለሱ	-11710
▁በጀ	-11711
ርብ	-11712
▁ገጥ	-11713
▁ፓትሪክ	-11714
▁ሱቆች	-11715
▁ተሾሙ	-11716
በረከተ	-11717
ኒቲ	-11718
ታወቁት	-11719
ታተኑ	-11720
በልጡ	-11721
▁ትሩ	-11722
▁እንቁራሪቶች	-11723
አንዳንድ	-11724
▁አቆመ	-11725
▁ክዋ	-11726
ካሄዱት	-11727
43	-11728
▁ስርጭትን	-11729
ጃቸው	-11730
▁የሮማውያን	-11731
MA	-11732
▁ቅርንጫፎች	-11733
▁የታተሙ	-11734
▁ስሪቶች	-11735
▁ሊሰጥ	-11736
▁ጦርነቱ	-11737
ራባት	-11738
ጋባ	-11739
▁ጽንሰ	-11740
▁የካውንቲ	-11741
▁መፍትሄዎች	-11742
ንድር	-11743
▁ክላሲክ	-11744
▁ሯ	-11745
▁በማውጣት	-11746
▁መጠባበቂያ	-11747
▁እንደነበረው	-11748
▁ዋናውን	-11749
▁ስለነበሩ	-11750
ዛር	-11751
▁በቀይ	-11752
▁በፖላንድ	-11753
▁ርዕሶች	-11754
▁ለደ	-11755
ቢስ	-11756
▁ክሊንተን	-11757
ጀራ	-11758
▁የኦፕቲካል	-11759
▁ተቀብሏል	-11760
ሲክ	-11761
▁ሌተናንት	-11762
ስትን	-11763
▁ጣዕም	-11764
▁የፍራን	-11765
ron	-11766
▁የትግል	-11767
▁ጀመሩ።	-11768
▁የቆዩ	-11769
▁ያጠና	-11770
▁ታወጀ	-11771
▁በግሪክ	-11772
▁ጥቃቶችን	-11773
▁ሩጫዎች	-11774
ኬቶችን	-11775
▁ለማድረስ	-11776
▁ያሳለፈ	-11777
▁ያሸን	-11778
▁መክፈቻ	-11779
▁ማስተዋወቂያ	-11780
▁አቅርበዋል።	-11781
ኔቱ	-11782
ቀሻ	-11783
▁De	-11784
▁በመጠበቅ	-11785
ትረፍ	-11786
▁አይላንድ	-11787
▁ለፕሮ	-11788
▁ብሄር	-11789
▁የህወሓት	-11790
ፒንግ	-11791
ፍትህ	-11792
▁ያደርጋል።	-11793
▁የኮቪድ	-11794
ቦርን	-11795
ከለክ	-11796
▁መቆራረጥ	-11797
▁59	-11798
▁የተሞሉ	-11799
ኘቱ	-11800
▁የአንድነት	-11801
▁ሳር	-11802
ሚኒየም	-11803
▁ግንድ	-11804
ፈቱ	-11805
▁የተኩስ	-11806
▁አይመስለኝ	-11807
ፌዴሬሽኑ	-11808
▁እናደርጋለን	-11809
▁እንግሊዛውያን	-11810
▁ጽፈዋል	-11811
▁ይኖራል	-11812
▁ሞገስ	-11813
▁ባሮ	-11814
▁ለመቆየት	-11815
▁ምስራቃዊ	-11816
▁የህትመት	-11817
▁ሲኖዶስ	-11818
▁ክሪስታል	-11819
▁1933	-11820
CO	-11821
▁የተጫዋ	-11822
▁በማም	-11823
ሴሎና	-11824
▁ነበረው።	-11825
▁ሜት	-11826
ሀሳቦች	-11827
ገደኞች	-11828
▁የጀልባ	-11829
▁በጠንካራ	-11830
▁ያድ	-11831
▁የሚጋ	-11832
መኛ	-11833
▁የክፍያ	-11834
▁የዕፅዋት	-11835
ገራቸው	-11836
▁ቃላትን	-11837
▁የቃል	-11838
▁መለሰ	-11839
▁መጀመሪያው	-11840
▁አሻራ	-11841
▁መርከቧ	-11842
▁ከረጅም	-11843
ገነባው	-11844
▁በቤል	-11845
ሻንጉል	-11846
▁ጐ	-11847
▁የሩጫ	-11848
ኒል	-11849
ሮጂን	-11850
ጭቆ	-11851
▁እኔን	-11852
▁በተፈጠረው	-11853
ቀረት	-11854
▁ዜሮ	-11855
ሉስ	-11856
ለወጥ	-11857
▁የኮርፖሬት	-11858
▁የተቆ	-11859
▁1000	-11860
▁መደረግ	-11861
▁ይለያያል	-11862
ራድ	-11863
ታችሁ	-11864
▁አንዳር	-11865
▁ውጊያዎች	-11866
▁መጠይቆች	-11867
▁የኩባንያው	-11868
▁ውጤቱን	-11869
▁ቢግ	-11870
▁ይከራከራሉ	-11871
▁ለአምስት	-11872
▁አቃ	-11873
▁ቢስ	-11874
▁ይሞ	-11875
▁ሊውሉ	-11876
▁መንት	-11877
▁በስር	-11878
ጎዝላቪያ	-11879
▁ማቋረጥ	-11880
▁ዘገባዎች	-11881
▁በሚመለከት	-11882
▁አላሳ	-11883
▁በፕላ	-11884
▁ካይ	-11885
▁ሰሪ	-11886
▁ኤሊ	-11887
▁ተቀናቃ	-11888
▁እንደዘገበው	-11889
▁ሾው	-11890
▁ዘፋኞች	-11891
▁በርግ	-11892
▁አመጣ	-11893
▁ተወግዷል	-11894
▁ኮማን	-11895
መበት	-11896
▁የተሰኘውን	-11897
▁ሆናለች	-11898
▁ስሌት	-11899
ሼል	-11900
▁ህወሃት	-11901
▁የጫ	-11902
▁ምንድነው	-11903
▁ታሪክ፦	-11904
▁ይሻ	-11905
▁ለጋዜ	-11906
▁በማጣመር	-11907
▁ዝርያዎችን	-11908
▁ከና	-11909
▁የኖር	-11910
▁ንጹህ	-11911
▁እስልምና	-11912
ors	-11913
▁የጥቃት	-11914
▁የማስታወቂያ	-11915
▁አምልኮ	-11916
▁ማዛ	-11917
▁ያመለክታሉ	-11918
▁ይሠራ	-11919
ላይድ	-11920
ዌላ	-11921
ማለች	-11922
ቶችና	-11923
▁መድፈር	-11924
▁1935	-11925
▁ሞሪስ	-11926
▁ክፍተ	-11927
ደቁ	-11928
ver	-11929
▁ልምም	-11930
▁ቅጂዎች	-11931
▁ወገኖ	-11932
▁ሞዱል	-11933
▁58	-11934
▁ሰከንድ	-11935
▁አስፈላጊው	-11936
▁ማደ	-11937
▁''	-11938
▁ዊት	-11939
▁ሠራዊቱ	-11940
▁ቢኖረውም	-11941
▁ፍጥረ	-11942
▁ፎክስ	-11943
▁ውሳኔዎችን	-11944
▁የበጀት	-11945
▁ሊተ	-11946
▁የታመ	-11947
▁የመኖር	-11948
▁በተመሳሳይም	-11949
▁ለማምለጥ	-11950
▁ከነበሩት	-11951
በኋላ	-11952
ኪዎች	-11953
▁በኤል	-11954
▁ገልፀው	-11955
▁ኢንዲ	-11956
▁በሬዲዮ	-11957
መወዝ	-11958
▁ከአል	-11959
▁ከጀርመን	-11960
ተውታል	-11961
▁ርቆ	-11962
▁ደፋር	-11963
▁በኑ	-11964
▁ሲስተም	-11965
▁የቀረቡት	-11966
▁በኖር	-11967
▁ስክሪፕት	-11968
ቴስ	-11969
▁የጎዳና	-11970
▁ክልሉ	-11971
▁ለመሸጥ	-11972
ላንዳ	-11973
▁አስገዳጅ	-11974
▁የአጭር	-11975
▁የቴክኒክ	-11976
▁ሲንግ	-11977
ክትል	-11978
ማንኛውም	-11979
ዶክ	-11980
▁1922	-11981
ባትን	-11982
▁አቀናባሪ	-11983
▁የተጋለጡ	-11984
▁ውሻ	-11985
▁ሕጉ	-11986
▁ሞተ።	-11987
▁(3)	-11988
▁ህጎችን	-11989
ጆን	-11990
▁ቅርሶች	-11991
▁ወዳጅነት	-11992
▁ማስከበር	-11993
▁ከር	-11994
▁ትልቁን	-11995
ሲካል	-11996
▁በባል	-11997
▁አድጓል	-11998
▁በስነ	-11999
▁ስዊ	-12000
▁ለመዝ	-12001
SS	-12002
2010	-12003
▁አግኝቶ	-12004
▁ይቀበላል	-12005
ress	-12006
ብናል	-12007
▁ካትሪን	-12008
▁ተከላካዮች	-12009
▁ጉዞዎች	-12010
▁የቅጣት	-12011
▁ስራዎችን	-12012
▁1929	-12013
▁ካቴድራል	-12014
▁የእነ	-12015
▁የተባለች	-12016
ዊያን	-12017
▁መቅደሱ	-12018
ሆች	-12019
▁በቀል	-12020
▁ያገኘነው	-12021
▁ሰበካ	-12022
▁እንደሆነም	-12023
▁ፕሮፖ	-12024
ልቃይት	-12025
ሚግሬሽን	-12026
▁የሽያጭ	-12027
ህራሄ	-12028
▁ጥርስ	-12029
▁ተሰማ	-12030
▁በድብቅ	-12031
▁ነህ	-12032
▁ንም	-12033
▁የሚያካትት	-12034
▁መረጃው	-12035
▁በኋለኛው	-12036
▁ገበታ	-12037
▁ያበረታ	-12038
▁ነፍሰ	-12039
▁ከማስ	-12040
▁ሙስ	-12041
▁1916	-12042
▁ጋራ	-12043
▁ፊን	-12044
▁ለዘመ	-12045
▁1915	-12046
▁ስዕል	-12047
▁በእጥፍ	-12048
▁ብለዋል፡፡	-12049
ረፈ	-12050
▁የሶፍትዌር	-12051
▁ክስተቶችን	-12052
▁አሻሽ	-12053
▁ይነሳ	-12054
▁ለማስተላለፍ	-12055
ጎተት	-12056
▁የደች	-12057
ይክ	-12058
▁ሴንተር	-12059
▁በመጋ	-12060
▁በቱርክ	-12061
ሪላንድ	-12062
▁ስውር	-12063
▁ይነግ	-12064
ሳችንን	-12065
▁እስላማዊ	-12066
▁በዓመቱ	-12067
▁ጠብቋል	-12068
▁ማምጣት	-12069
▁ሊቃነ	-12070
46	-12071
▁ለማስቆም	-12072
ራሎች	-12073
▁ትላንት	-12074
ob	-12075
▁ታንክ	-12076
▁ስቱዲዮዎች	-12077
ንታና	-12078
መንቱ	-12079
ርስትና	-12080
▁ሞንት	-12081
▁ለመክፈት	-12082
ነፃ	-12083
ነች	-12084
/200	-12085
▁ንጉሡ	-12086
▁ማስመሰ	-12087
▁ቆይቷል።	-12088
▁ከሚለው	-12089
41	-12090
▁የቀይ	-12091
ከርሰ	-12092
▁በእኩል	-12093
ረሙ	-12094
ፁዕ	-12095
▁ሶሳይቲ	-12096
ጎጂ	-12097
ቀለ	-12098
▁1928	-12099
ኔቶች	-12100
▁ከሌላው	-12101
መጣም	-12102
ሲው	-12103
ዝቡን	-12104
▁አስተማማኝነት	-12105
▁ሱሰ	-12106
ላለፈው	-12107
▁ማዳን	-12108
▁የሚችሉት	-12109
55	-12110
ቃለሁ	-12111
▁የማይን	-12112
▁የኮሎ	-12113
▁የተጠበቁ	-12114
ምጽ	-12115
▁ሪች	-12116
▁በመገናኛ	-12117
▁ህሊና	-12118
▁ስልጣኑን	-12119
▁ስታቲስቲካዊ	-12120
ነገሩ	-12121
▁በምዕራባዊ	-12122
በሱ	-12123
ጋሪዎች	-12124
▁ግምታዊ	-12125
ለዉ	-12126
▁አርክቴክት	-12127
▁ያህ	-12128
▁የሟ	-12129
ቃሉ።	-12130
ሰጥም	-12131
ፋጠን	-12132
ii	-12133
▁መዝገበ	-12134
▁ዕርምጃ	-12135
▁ግብዓት	-12136
▁የተቆራኙ	-12137
▁መስጊ	-12138
▁የሚያስፈልገውን	-12139
▁ከመም	-12140
ቴስታ	-12141
በተለይም	-12142
▁በቤተሰብ	-12143
ርማን	-12144
▁በክረምት	-12145
ገልጹ	-12146
▁የአውቶ	-12147
▁ይከ	-12148
▁ጎጂ	-12149
ንጻ	-12150
ሯት	-12151
▁Rep	-12152
ትነት	-12153
▁ፈላስ	-12154
▁ኢነርጂ	-12155
▁ያኔ	-12156
IT	-12157
▁በመተግበር	-12158
▁በመሞከር	-12159
▁ቅጥ	-12160
-6	-12161
▁ያዳ	-12162
▁በበላይነት	-12163
ፈፍ	-12164
one	-12165
ጽግና	-12166
ይህን	-12167
ቱና	-12168
▁ሥፍራ	-12169
▁ክርስቲያኖች	-12170
▁የሚደግፉ	-12171
▁Mar	-12172
▁ጓደኞቹ	-12173
▁ዋልተር	-12174
ዘት	-12175
▁አስችሎታል	-12176
ንግላዴሽ	-12177
▁ስኪ	-12178
▁ኮሚሽኑ	-12179
▁መጓጓዣ	-12180
ርሶ	-12181
አድ	-12182
ሰጡት	-12183
▁ውህዶች	-12184
▁መሞከር	-12185
▁ማቅ	-12186
▁ለትርፍ	-12187
▁ካህናት	-12188
ታይድ	-12189
▁የጠላት	-12190
▁ለዓመታት	-12191
▁በድምፅ	-12192
▁እየሰሩ	-12193
▁ያዘጋጃ	-12194
▁ተወዳድ	-12195
▁የተሞላበት	-12196
BS	-12197
▁የተከናወነው	-12198
▁ተማረ	-12199
▁ተጠቅሞ	-12200
ear	-12201
ማክ	-12202
▁የውጊያ	-12203
▁ቭ	-12204
▁በማተኮር	-12205
▁ምርትን	-12206
ፕሬሽን	-12207
▁አንግል	-12208
▁በሚያዝያ	-12209
ሚዮ	-12210
▁መደምደሚያዎች	-12211
▁ከኖ	-12212
ሪጂናል	-12213
▁አሮጌው	-12214
▁ማነቃቂያ	-12215
ure	-12216
▁ለመፈተሽ	-12217
▁ንቃተ	-12218
▁በኃላ	-12219
▁ሃው	-12220
▁መጣጥፎች	-12221
ስቴት	-12222
▁ቶሎ	-12223
ፔክት	-12224
▁ሊኖሩ	-12225
▁ኢንዲያና	-12226
ዋቸውን	-12227
ሱር	-12228
መጠ	-12229
▁ሳጥ	-12230
▁ጨረቃ	-12231
▁ለንግድ	-12232
▁ተደራጅ	-12233
▁ተጓዙ	-12234
▁በግድ	-12235
▁እንደሚያደርግ	-12236
▁ይለው	-12237
▁የሰጡ	-12238
▁1921	-12239
▁ማለዳ	-12240
ord	-12241
▁ያካሂዳል	-12242
▁የፓኪስታን	-12243
▁በመከላከያ	-12244
▁ለባለ	-12245
▁መልሰው	-12246
ጠቀምበት	-12247
ጠንቅ	-12248
▁እስክ	-12249
ሊየስ	-12250
▁ቢች	-12251
▁ሙሉውን	-12252
ኤክስ	-12253
ብሰባው	-12254
ዝሩ	-12255
▁ተቀምጧል	-12256
▁የሚያስችሉ	-12257
▁ሲናገሩ	-12258
▁በሳምንቱ	-12259
▁ወፍጮ	-12260
ኩበት	-12261
▁፲	-12262
▁ዕለ	-12263
▁ተከሳ	-12264
▁ሽቦ	-12265
▁የተሠራው	-12266
▁አገሪቱን	-12267
▁ታም	-12268
▁አስተዋፅኦ	-12269
▁1934	-12270
▁ቴዎድሮስ	-12271
▁እንዲቆይ	-12272
▁በመስራት	-12273
▁ስደት	-12274
▁ያደርጉ	-12275
▁ዌይ	-12276
▁አብዱ	-12277
▁ታይቶ	-12278
▁ግዛቱ	-12279
▁ግዢ	-12280
▁በሳይንስ	-12281
▁የተሰጠውን	-12282
ዲዩ	-12283
▁መቅደስ	-12284
ኤስኤስ	-12285
ዋልታ	-12286
▁የመልቀቂያ	-12287
ተንፈሻ	-12288
▁ዚላንድ	-12289
▁ይጠቁማሉ	-12290
ራይድ	-12291
▁የመጠጥ	-12292
89	-12293
▁ፍፁም	-12294
▁በመመስረት	-12295
▁ከፔ	-12296
▁ሙዚቃን	-12297
▁(197	-12298
▁አክለውም	-12299
▁አቅምን	-12300
▁የአና	-12301
ጳጳ	-12302
ንተም	-12303
▁መንቀሳቀስ	-12304
ለቀቀው	-12305
▁ያጣ	-12306
▁ቃጠ	-12307
▁ስቶን	-12308
▁ደሴ	-12309
▁መከፋፈል	-12310
▁ተቀብሎ	-12311
▁ሰጥቷል።	-12312
▁ስንት	-12313
ex	-12314
ፀባረ	-12315
▁ሰራዊቱ	-12316
ዋላ	-12317
ግረ	-12318
▁ከመሆን	-12319
▁ባሉበት	-12320
▁የጡት	-12321
▁ሚንስትር	-12322
ንቅልፍ	-12323
▁አሳማኝ	-12324
▁ይም	-12325
▁የተከናወኑ	-12326
▁የፊሊፒንስ	-12327
▁ዳግላስ	-12328
▁መገመት	-12329
▁ስርዓትን	-12330
▁አፈጻጸም	-12331
▁ፌዴራል	-12332
ይይቱ	-12333
▁መመዘኛዎች	-12334
▁እስቴት	-12335
▁አሸነፈች	-12336
▁በኮር	-12337
▁ጆርናል	-12338
ah	-12339
▁በምግብ	-12340
▁ክሮስ	-12341
▁ሄይ	-12342
▁አገልጋዮች	-12343
▁ረዳ	-12344
▁መርጧል	-12345
▁በሰባት	-12346
▁ደራሲዎች	-12347
ከተሞች	-12348
▁ቪላ	-12349
▁እንስሳ	-12350
▁ተችሏል	-12351
▁ምስክርነት	-12352
▁በኪነ	-12353
▁ኬሊ	-12354
▁በፖር	-12355
▁የሰውን	-12356
▁የድርጅቱ	-12357
▁በቴክኖሎጂ	-12358
በርታ	-12359
▁ይጠ	-12360
▁አቋርጦ	-12361
▁ዘንድሮ	-12362
▁አካባቢውን	-12363
ue	-12364
▁ንግዶች	-12365
▁5.	-12366
ሰማራት	-12367
▁በአደባባይ	-12368
▁ተክል	-12369
ዌኒያ	-12370
▁ያስተላል	-12371
▁የሚረዱ	-12372
ደኞች	-12373
▁አወድ	-12374
▁የሚመለከት	-12375
▁ዳይሬክተሮች	-12376
▁የለሽ	-12377
▁ካሸነፈ	-12378
▁በአደጋ	-12379
▁አብርሃም	-12380
▁(10	-12381
▁ተንሸራታች	-12382
▁ፍጡ	-12383
ለፈው	-12384
▁የመለኪያ	-12385
▁በፓርላማ	-12386
▁ይዞታ	-12387
▁ሳይቀር	-12388
▁የቲያትር	-12389
▁አከባቢዎች	-12390
ፋፊ	-12391
▁ስምምነቱ	-12392
▁የአሳ	-12393
▁ይገመገ	-12394
ናና	-12395
ሎቱ	-12396
▁ሕያዋን	-12397
▁መዋጮ	-12398
▁ለራሱ	-12399
▁በአንጻ	-12400
▁መያዙ	-12401
▁የሞተ	-12402
ምንጭ	-12403
▁ሚዙሪ	-12404
▁እድሳት	-12405
ተገበረ	-12406
▁ንብርብሮች	-12407
iver	-12408
▁ሆሴ	-12409
▁ቢሊየን	-12410
▁ነገሩ	-12411
▁ፈረሰኛ	-12412
▁የተሰበሰቡ	-12413
▁ኒኮላስ	-12414
▁ተገደደ	-12415
▁ማረፊያው	-12416
▁ሚናዎች	-12417
ወሰነው	-12418
▁ለመታ	-12419
▁የመዝ	-12420
▁ጎኖች	-12421
▁ማጠቢያ	-12422
▁አማራጮችን	-12423
ዊንስላንድ	-12424
▁ቱቦላሬ	-12425
ቴራፒ	-12426
ዳይና	-12427
▁እንደዚያ	-12428
▁ክህሎቶች	-12429
▁ግዥ	-12430
▁ፋንታ	-12431
▁አነጋገር	-12432
▁ስርዓቱን	-12433
▁ያላትን	-12434
▁በህገ	-12435
▁በብረት	-12436
▁ኩን	-12437
▁ኢንሹራንስ	-12438
▁የኢትዮ	-12439
IN	-12440
▁ከተጀመረ	-12441
▁መበላሸት	-12442
▁ሊዮን	-12443
▁ተባረረ	-12444
▁የአኗኗር	-12445
//	-12446
ቶታል።	-12447
▁ሀገራዊ	-12448
ጣታቸው	-12449
▁ተጠናክሮ	-12450
▁ሰለሞን	-12451
▁በካፒ	-12452
▁ይህንኑ	-12453
▁ሰበብ	-12454
▁የተረፉ	-12455
▁1932	-12456
ኤአ	-12457
▁የህይወት	-12458
ዕቆብ	-12459
▁የማጥፋት	-12460
▁ራም	-12461
ዋቀር	-12462
▁ሲንድሮም	-12463
ቦይ	-12464
▁ደራሲዎቹ	-12465
▁ስልታዊ	-12466
ጣራ	-12467
▁ቫይረሱ	-12468
▁ሎንግ	-12469
▁ተው	-12470
▁ከየት	-12471
ንቶ	-12472
ሚንግሃም	-12473
ቲኖ	-12474
▁ማርጋ	-12475
▁ጠየቁ	-12476
▁አይደለም፡፡	-12477
ኖራቸውም	-12478
ምሩክ	-12479
▁ፍቃድ	-12480
▁የዐ	-12481
ለፊያ	-12482
▁ልዕልት	-12483
▁ተቀላቅ	-12484
▁የተጫወተው	-12485
ላውን	-12486
▁በተደረጉ	-12487
ወያዩ	-12488
▁የክርስቲያን	-12489
▁ዋንጫን	-12490
▁አባባል	-12491
ላውያን	-12492
▁የሚሠሩ	-12493
▁ሪፖርቱ	-12494
▁የማህበራዊ	-12495
▁መስመሩ	-12496
ብደት	-12497
▁የሚያደርጉት	-12498
ጀክቱ	-12499
▁ቴክኖሎጂን	-12500
ለው።	-12501
▁የመሰ	-12502
ቅርቦት	-12503
▁ለማስፋት	-12504
▁የፉ	-12505
ቅድሚያ	-12506
ድጉ	-12507
ሺህ	-12508
ንቱ	-12509
ጽናፈ	-12510
▁ኤርት	-12511
ከተሉ	-12512
▁ኃጢ	-12513
▁ያወ	-12514
▁ባታሊየን	-12515
▁በአገራችን	-12516
▁ታጣቂ	-12517
▁ለመገመት	-12518
FA	-12519
▁ሹመት	-12520
▁መጠነ	-12521
ire	-12522
▁ግሬይ	-12523
▁won	-12524
▁ተከታት	-12525
ሰበሰቡ	-12526
▁እንቁላል	-12527
▁የተፈጠረውን	-12528
▁የፈጸ	-12529
▁ጎብ	-12530
▁ከጃ	-12531
ጎበኙ	-12532
▁የሾ	-12533
▁ፌስቡክ	-12534
ቲል	-12535
▁የራሳቸው	-12536
▁የተንጠለጠ	-12537
▁ነገረ	-12538
▁በክለቡ	-12539
ሏን	-12540
▁አመጋገብ	-12541
▁ባለሙያዎችን	-12542
▁ጄፍ	-12543
ስክ	-12544
▁ሾፌር	-12545
▁ላሉ	-12546
▁የበቀል	-12547
▁ህጉ	-12548
ብዛኞቹ	-12549
▁ለመማር	-12550
▁የኮመንዌልዝ	-12551
▁አዶ	-12552
▁የሚቆይ	-12553
▁የልጅነት	-12554
▁እፎ	-12555
▁የእንግዳ	-12556
▁ሪድ	-12557
▁የተጀመረ	-12558
ube	-12559
ከማቸት	-12560
▁ገንቢ	-12561
ንትራት	-12562
▁በቀር	-12563
ሳኤ	-12564
▁በጸ	-12565
▁ጾ	-12566
▁ነበራት	-12567
ከተሉት	-12568
ቴሽን	-12569
▁የፖር	-12570
▁ግምገማዎችን	-12571
▁ከእኛ	-12572
▁አኳያ	-12573
▁ተመረጠ	-12574
▁ችግርን	-12575
▁በሰዎች	-12576
▁የተገኘውን	-12577
የል	-12578
ቆመው	-12579
▁መግለጽ	-12580
ዎቿ	-12581
▁ለመቅረጽ	-12582
▁ተዳ	-12583
▁ዬ	-12584
▁ወደዚያ	-12585
▁ተጠያቂነት	-12586
▁አሠራ	-12587
ነካ	-12588
▁የሚታወቁ	-12589
▁ገልጸው	-12590
▁የሶቪየት	-12591
▁ንግግሮች	-12592
▁አውሮፕላኖችን	-12593
▁መሀመድ	-12594
ድረዋል	-12595
▁አቢ	-12596
▁የጆን	-12597
ጋዴ	-12598
▁አቁ	-12599
▁56	-12600
▁ማበረታቻ	-12601
▁እየተባለ	-12602
▁የተደረገባቸው	-12603
▁በጾታ	-12604
▁በፌስቡክ	-12605
▁አንበሳ	-12606
▁Ar	-12607
▁ጨዋ	-12608
▁ዘሎ	-12609
ግለል	-12610
ጦሽ	-12611
▁የቤል	-12612
▁ይጫወታሉ	-12613
ከፈቱ	-12614
▁ከሎ	-12615
▁ኤፍሲ	-12616
▁ተንሳ	-12617
▁ቅሪቶች	-12618
▁ይመራል	-12619
▁ተጫውተዋል	-12620
▁በመጀመር	-12621
▁በቀላል	-12622
▁የታየ	-12623
▁ዊልያም	-12624
▁ለዕ	-12625
▁የኛ	-12626
▁ይከሰታል	-12627
▁ተናጋሪዎች	-12628
በሩን	-12629
▁የነፃ	-12630
▁ሊበራል	-12631
▁ሞለኪውላዊ	-12632
▁አድርጓቸዋል	-12633
▁የበይነመረብ	-12634
▁በህዝብ	-12635
▁የሌሎች	-12636
▁ጆሮ	-12637
▁Re	-12638
OR	-12639
▁ርካሽ	-12640
▁ስላለ	-12641
▁ታስቦ	-12642
▁ጎረቤት	-12643
▁ቡር	-12644
▁መጨ	-12645
▁ፀሐፊ	-12646
▁አደራጅ	-12647
▁ከባቢ	-12648
▁ቢት	-12649
▁እናው	-12650
ችነት	-12651
▁ከጀመረ	-12652
▁የእረፍት	-12653
▁ክንድ	-12654
ክሏል	-12655
▁እነሆ	-12656
▁ደመቀ	-12657
▁ያንፀባር	-12658
ፍቶ	-12659
ስታር	-12660
▁እሴቶችን	-12661
▁ለመጥ	-12662
▁ለማስገባት	-12663
ሰላ	-12664
▁ቅዳሜና	-12665
▁ተሰጥቷ	-12666
86	-12667
▁10,000	-12668
▁የሚያገለግል	-12669
▁በጓ	-12670
ዙዌላ	-12671
▁ከህዝብ	-12672
▁ግለሰቦችን	-12673
▁የኃ	-12674
▁ህዝቡን	-12675
▁የመሳሪያ	-12676
▁ይቀር	-12677
ሸራተት	-12678
▁ተዘግቷል	-12679
ሌና	-12680
▁1924	-12681
▁ግሽ	-12682
▁በጀልባው	-12683
▁ኬኔዲ	-12684
▁በተዘጋጀው	-12685
▁የሚደር	-12686
▁በመቀበል	-12687
▁የቀድሞውን	-12688
ኒዮ	-12689
▁ቆጣ	-12690
▁ይበልጣል	-12691
▁ዓመቱን	-12692
▁ተደምስሷል	-12693
▁ማጥናት	-12694
▁በበለጠ	-12695
▁የተገለጸ	-12696
ራና	-12697
▁ማክዶ	-12698
▁ለማከም	-12699
▁አዋቂዎች	-12700
▁ለመተንበይ	-12701
▁የህብረተሰብ	-12702
▁ደርሷል።	-12703
▁ከቻ	-12704
▁መንጋ	-12705
▁የቺካጎ	-12706
▁የባሕር	-12707
▁ሞክረዋል	-12708
ቀበለ	-12709
▁53	-12710
2011	-12711
▁ሰዓሊ	-12712
▁ግፍ	-12713
ስቶን	-12714
▁ይታያል።	-12715
▁ገሞራ	-12716
ጓዘ	-12717
▁በመካከላቸው	-12718
▁የብራዚል	-12719
የአሜሪካ	-12720
▁Pl	-12721
▁ባርባ	-12722
ማላ	-12723
▁እብጠት	-12724
▁ሴክሽን	-12725
▁ሲሰጥ	-12726
▁ተገኝተው	-12727
▁የመሳሰሉት	-12728
ጠይቀው	-12729
ይህም	-12730
▁በእስያ	-12731
▁ከቪ	-12732
ስኪ	-12733
▁በኖርዌይ	-12734
ፎም	-12735
▁ገፃ	-12736
ትለር	-12737
▁አሌክስ	-12738
ሠራው	-12739
▁ደብዳቤዎች	-12740
▁ዩኒቨርሲቲው	-12741
▁በባቡር	-12742
▁የተገደሉ	-12743
▁አቤ	-12744
▁ህፃናት	-12745
▁የታካሚ	-12746
ልጥ	-12747
▁1927	-12748
▁መጥቶ	-12749
▁አገኘ።	-12750
▁የተገለጹ	-12751
▁ስትሪት	-12752
▁እንዲደርስ	-12753
▁ሳያስ	-12754
▁ስሜቶች	-12755
ቀረቡ	-12756
ጠም	-12757
▁ይህንንም	-12758
▁እንዲቀንስ	-12759
▁ትኩረ	-12760
▁የፊዚክስ	-12761
ዜአ	-12762
▁በስተሰሜን	-12763
ታል፡፡	-12764
▁ሃሪስ	-12765
▁በስዊድን	-12766
▁ወደሚገኝ	-12767
▁በአእምሮ	-12768
▁ደማቅ	-12769
ገኛለች	-12770
▁ጀመር	-12771
ish	-12772
,5%	-12773
▁አዴ	-12774
ህጉ	-12775
▁ብዝ	-12776
▁አንገት	-12777
▁የቅጂ	-12778
አይኤ	-12779
▁የሚሆነ	-12780
▁የጎንዮሽ	-12781
▁ግማ	-12782
▁ቆይተዋል	-12783
▁(0	-12784
▁በአቶ	-12785
▁የቻለ	-12786
▁ተሰማር	-12787
ገርም	-12788
ge	-12789
▁ጠቅሰዋል	-12790
▁ማሽቆልቆል	-12791
ባል።	-12792
▁ለመሳብ	-12793
አዴን	-12794
GB	-12795
▁የመጀመርያ	-12796
ቃቸውን	-12797
ዕከላዊ	-12798
▁እናሳያ	-12799
ቁጠር	-12800
የታቸው	-12801
▁ይቀላቀ	-12802
▁ፖይንት	-12803
▁ታኅ	-12804
▁ዲስክ	-12805
▁አውሮፕላኑ	-12806
ጭመቂያ	-12807
▁ይገኙበታል።	-12808
▁ጠብቆ	-12809
▁በዎ	-12810
▁ይተላለ	-12811
▁አስጠንቅ	-12812
▁ዕድላቸው	-12813
▁ሕገወጥ	-12814
▁ንቅ	-12815
ግዛት	-12816
▁ተፈር	-12817
▁የናይ	-12818
▁ራያን	-12819
▁እንዳት	-12820
▁የእና	-12821
▁የመብት	-12822
ልፉ	-12823
▁ሥላሴ	-12824
▁ፅህፈት	-12825
▁ወንጀለኞች	-12826
መርጡ	-12827
ጊቱ	-12828
▁በቢል	-12829
▁ከጨዋታው	-12830
▁መዘጋት	-12831
▁ሄደ።	-12832
▁ጴጥሮስ	-12833
▁800	-12834
ደሰት	-12835
▁ድህነት	-12836
ሲቭ	-12837
▁ግንባታው	-12838
ውደ	-12839
▁የጥቁር	-12840
▁ቀዳዳዎች	-12841
▁በአድ	-12842
▁በፎቶ	-12843
▁የአርኪኦሎጂ	-12844
▁የኢራቅ	-12845
▁የኩላሊት	-12846
▁የመዝገብ	-12847
▁የባል	-12848
▁በፊልም	-12849
ሸና	-12850
▁ስምንተኛ	-12851
▁ተጉ	-12852
▁ጌጣጌ	-12853
▁ማሟ	-12854
ተለ	-12855
87	-12856
ንትሪ	-12857
▁የሚኖረው	-12858
▁የተወለደ	-12859
▁ፒት	-12860
ps	-12861
▁1890	-12862
▁ይደርሳል	-12863
▁በእኔ	-12864
ሳሰሉ	-12865
▁ሃዋርድ	-12866
▁ተናገሩ	-12867
▁አስገብ	-12868
▁መገጣጠሚያ	-12869
▁ቅስ	-12870
▁አፍንጫ	-12871
▁በሚችል	-12872
▁ፓል	-12873
ማቶ	-12874
▁የተለቀቀ	-12875
ሠር	-12876
▁በብራዚል	-12877
ዜን	-12878
▁ይወጣል	-12879
▁ባለቤቷ	-12880
▁የጋብቻ	-12881
▁የሰራተኞች	-12882
▁ለሮ	-12883
▁በፍሎሪዳ	-12884
▁ኬይ	-12885
▁ተመልሰው	-12886
▁ቪክቶሪያ	-12887
▁ለመቃወም	-12888
ሶል	-12889
▁1926	-12890
▁ፍቅረኛ	-12891
▁ለስድስት	-12892
▁ካና	-12893
▁ለመወያየት	-12894
▁አልበርት	-12895
IA	-12896
▁ብሩክ	-12897
▁አልማ	-12898
▁ማሰባሰብ	-12899
ንስን	-12900
▁አልቻለም።	-12901
ሊካኖች	-12902
ቤሪያ	-12903
▁ፍቅ	-12904
▁1931	-12905
▁የቤተክርስቲያን	-12906
▁የውኃ	-12907
▁የተከበረ	-12908
ሣሥ	-12909
▁ይለያያሉ	-12910
▁በቋንቋ	-12911
ያያዥ	-12912
ለሙ	-12913
▁ሽያ	-12914
▁በሚያሳ	-12915
▁የሕዋስ	-12916
▁ዲዛይኖች	-12917
▁በክሊ	-12918
▁ተባለ	-12919
ሂም	-12920
▁የስቴ	-12921
▁ማስተካከል	-12922
▁ፋይል	-12923
▁ያልተመጣጠነ	-12924
▁1912	-12925
▁የእርዳታ	-12926
▁ለማስቻል	-12927
▁ጉን	-12928
▁ተፈጻሚ	-12929
ኒሶታ	-12930
ዴዝ	-12931
▁የአንግ	-12932
▁ከአፍሪካ	-12933
▁የተወሰደ	-12934
ለት።	-12935
▁እህቶች	-12936
ላቋ	-12937
▁ለመሆኑ	-12938
▁ሰፈራ	-12939
▁ፍን	-12940
▁አመስግ	-12941
▁እንቁላ	-12942
▁ብራዚል	-12943
▁ብልጭ	-12944
▁ለመሸፈን	-12945
▁እድገትን	-12946
▁ዘፈኑን	-12947
▁ፕሮጄ	-12948
ረና	-12949
▁ስኮትላንድ	-12950
ለ።	-12951
▁በሜዳው	-12952
▁የማጣሪያ	-12953
ምፕሻየር	-12954
ትራክ	-12955
▁ትራኮች	-12956
▁የመላ	-12957
▁72	-12958
EA	-12959
▁የሚበ	-12960
▁በኮቪድ	-12961
▁ያስችላል	-12962
▁የጽ	-12963
▁አልነበረውም	-12964
▁ማሳቹሴትስ	-12965
▁[...]	-12966
ዋንዳ	-12967
▁ያመጣል	-12968
ዝድ	-12969
ፊያዎች	-12970
▁የሕፃናት	-12971
-15	-12972
▁መቆየት	-12973
▁ጥቅሞችን	-12974
▁አባቷ	-12975
▁የተጠቀሰው	-12976
▁አሕመድ	-12977
▁1,000	-12978
▁ልሂ	-12979
▁አጥር	-12980
▁መላውን	-12981
▁ላስ	-12982
▁የኩባንያ	-12983
OC	-12984
▁ለማገልገል	-12985
ባሩ	-12986
▁ሐዋር	-12987
▁ሰበር	-12988
▁አክሲ	-12989
▁ለገበያ	-12990
ያስፖራ	-12991
▁ማሰሪያ	-12992
▁Con	-12993
ገቱ	-12994
▁ስፕሪንግ	-12995
ኛዎች	-12996
▁ጠይቀዋል።	-12997
▁በመቀ	-12998
ሸጋገር	-12999
▁ex	-13000
▁የማም	-13001
▁ይነገራ	-13002
▁ኤክስፕረስ	-13003
▁ቅድስት	-13004
▁ለመወዳደር	-13005
ግሟል	-13006
▁በፍራን	-13007
▁አስቆራጭ	-13008
▁የእምነት	-13009
ኩርት	-13010
ችና	-13011
ቱዌኒያ	-13012
▁በአመ	-13013
▁ዳኛው	-13014
ጠቀስ	-13015
▁የሚያጋጥ	-13016
ማቲ	-13017
▁ያምን	-13018
▁የርዕ	-13019
ሊክስ	-13020
▁ከቲ	-13021
▁ወደቀ	-13022
▁መተው	-13023
▁የማስመሰል	-13024
▁99	-13025
ሪስቶች	-13026
▁አጥቢ	-13027
▁የተመዘገበ	-13028
▁ማሳደግ	-13029
ቡ።	-13030
.1	-13031
▁የተሻሻሉ	-13032
▁የሚውለው	-13033
▁ይዛመዳል	-13034
ዝል	-13035
TS	-13036
ባሪው	-13037
▁ተጋድሎ	-13038
ጎቱ	-13039
ከሰቱት	-13040
▁በሚችሉ	-13041
▁ፊዚክስ	-13042
▁በጭንቅ	-13043
▁የተዋሃደ	-13044
▁ቅጠል	-13045
ዲሰን	-13046
▁የማይችሉ	-13047
▁ተረድ	-13048
▁ተቋሙ	-13049
▁ለእነሱ	-13050
▁ካድ	-13051
ail	-13052
▁በሃያ	-13053
▁ጀግኖች	-13054
▁መደረጉን	-13055
▁የተፃፉ	-13056
▁የፕሪ	-13057
▁ሲደረግ	-13058
▁ዘገባው	-13059
▁ተገለጸ	-13060
ገደል	-13061
▁ነዋሪዎችን	-13062
▁ይመለሳል	-13063
▁ይገልጻሉ	-13064
▁ቦርሳ	-13065
▁ቅስት	-13066
▁ምንዛሬ	-13067
ፕቲክ	-13068
!!!	-13069
▁ኮርፖሬ	-13070
▁ማሕ	-13071
▁ማፍ	-13072
▁እዚያው	-13073
▁ውሳኔውን	-13074
▁ተገንብተዋል	-13075
▁የጀ	-13076
▁አድርገን	-13077
ዘዋወር	-13078
ኤንኤ	-13079
ሞክርም	-13080
▁ቀሪውን	-13081
▁ከቁጥጥር	-13082
▁ፈቅ	-13083
▁በናይ	-13084
▁ሞሪ	-13085
▁ቢዝነስ	-13086
▁ትረስት	-13087
▁በማስወገድ	-13088
▁የንባብ	-13089
▁ሞርጋን	-13090
ኖል	-13091
▁ከሉ	-13092
▁ተመዝግበዋል	-13093
▁የተሳካ	-13094
▁ይጠቀሙ	-13095
▁የመስታወት	-13096
▁መስህ	-13097
ወቂያ	-13098
▁ቁስ	-13099
▁ፈልጎ	-13100
ቴስታንት	-13101
▁በመመልከት	-13102
▁ክፍያዎች	-13103
▁ማክሮ	-13104
▁አድርጋለች	-13105
▁በጅ	-13106
ሳተላይት	-13107
ሕዶ	-13108
▁መርሐ	-13109
▁ተጠርጣሪዎች	-13110
▁የውይይት	-13111
ናቲ	-13112
▁ሐውልቶች	-13113
▁በሚደረገው	-13114
ገኛለን	-13115
▁አደጋው	-13116
▁የጻፈው	-13117
▁በአንድነት	-13118
▁ያቀርባሉ	-13119
▁እንደሚሰራ	-13120
ሟሟ	-13121
ቱዲዮ	-13122
ሰብሰቢያ	-13123
▁የተጠረ	-13124
▁በሽታዎችን	-13125
▁ፕሮጀክቶችን	-13126
▁በጨለማ	-13127
▁1925	-13128
▁እብድ	-13129
▁ጠንከር	-13130
▁ከካር	-13131
▁ማሟላት	-13132
▁አመላካች	-13133
ሞንድ	-13134
▁በማስቆጠር	-13135
ልሰን	-13136
▁ጥርጥር	-13137
▁ግንዛቤን	-13138
▁እንደሚሰጥ	-13139
ሳችሁ	-13140
▁ወተት	-13141
▁የማይታ	-13142
▁ሩጫዎችን	-13143
▁በአውሮፕላን	-13144
▁አስተማሪዎች	-13145
ጀመሪያዎቹ	-13146
▁እራሱ	-13147
▁ታጋ	-13148
▁ያሻሽ	-13149
ee	-13150
▁ለዘላለም	-13151
▁ከፖለቲካ	-13152
▁በተቀ	-13153
▁አሸባሪ	-13154
ሸጡ	-13155
▁አሻንጉ	-13156
83	-13157
ልማን	-13158
▁ምሰሶዎች	-13159
▁አውጥቶ	-13160
▁የታቀደ	-13161
ኔጅመንት	-13162
▁አስችሏ	-13163
ዶቹን	-13164
▁ዶሮ	-13165
▁ችሎታን	-13166
▁ለመቀየር	-13167
▁ይሰራሉ	-13168
ደግፍ	-13169
ስኮፕ	-13170
ጣጣሙ	-13171
▁1923	-13172
▁መሀል	-13173
▁ስለዚህም	-13174
ነም	-13175
ለችም	-13176
▁ወራሪ	-13177
▁አቋቋሙ	-13178
ርስቶ	-13179
▁ጠቅሰው	-13180
▁ጽሑፎችን	-13181
ጥሮ	-13182
▁ታውንሺፕ	-13183
▁57	-13184
▁የተጠናቀቁ	-13185
▁ፕሬዚዳንታዊ	-13186
ንስታይን	-13187
▁በህይወት	-13188
▁ሲተ	-13189
▁እኤአ	-13190
ቶሚ	-13191
ወለድ	-13192
ሰቦችን	-13193
▁ለጥቂት	-13194
▁የተከለከለ	-13195
ህም	-13196
▁በመጪው	-13197
▁ለሪፖርተር	-13198
ጉላት	-13199
▁ትራን	-13200
▁ህጻናት	-13201
ማሉ።	-13202
ፈጥር	-13203
ገሙ	-13204
▁የዴሞክራሲ	-13205
የች	-13206
ዳድሩ	-13207
▁ፕሪምየር	-13208
▁ማንቸስተር	-13209
ፈኑ	-13210
▁መዳ	-13211
ሜታዊ	-13212
ብነት	-13213
▁የዞ	-13214
ፕሬዝ	-13215
▁የሦ	-13216
ለርስ	-13217
▁ዎከር	-13218
▁እናሳያለን	-13219
ንኩ	-13220
▁ቲም	-13221
▁ጭካኔ	-13222
▁ጸሐፊው	-13223
▁የክሮ	-13224
▁የፖሊ	-13225
በሬ	-13226
▁ዲፕሎማሲያዊ	-13227
▁አፍሪካውያን	-13228
▁ማጠናከሪያ	-13229
▁ከእንግሊዝ	-13230
▁እርግጥ	-13231
ንጅ	-13232
ዳደረው	-13233
▁ch	-13234
▁የተዋሃዱ	-13235
▁ሀያ	-13236
▁ጄኒ	-13237
▁ሃርድ	-13238
▁ከዋና	-13239
ሽንስ	-13240
▁ጠይቋል	-13241
▁በበቂ	-13242
ፌሰር	-13243
▁ዶክ	-13244
ሊስቶች	-13245
▁በጥናቱ	-13246
▁ሲያሸንፍ	-13247
▁መቼም	-13248
በአሁኑ	-13249
ረቤት	-13250
▁በመፈለግ	-13251
ሳምንቱ	-13252
ቀናጀት	-13253
▁በመቀየር	-13254
▁ሲሉም	-13255
ለዩ	-13256
▁ይወያያሉ	-13257
ካሂዱ	-13258
▁News	-13259
ታደግ	-13260
ፈራራት	-13261
▁ግሩም	-13262
ቁላል	-13263
▁ፓርኮች	-13264
ሃንስ	-13265
sh	-13266
▁ጅራት	-13267
▁መፈጠር	-13268
ኔትወርክ	-13269
▁ግራን	-13270
▁ስኬቶች	-13271
▁ግስ	-13272
▁ሊመ	-13273
▁እንድትሆን	-13274
▁ከቱ	-13275
▁ጾታ	-13276
▁የወረዳ	-13277
▁በቴሌ	-13278
▁በወር	-13279
▁ከመቶ	-13280
▁የላቲን	-13281
▁ውሎ	-13282
እንዲ	-13283
▁ገመ	-13284
▁ተስማማ	-13285
▁ሰጠች	-13286
▁የሚወስደውን	-13287
▁ፀጉ	-13288
ሶር	-13289
▁ከተከሰተ	-13290
▁Nov	-13291
▁ራዲ	-13292
▁ያስተና	-13293
▁ኪዳ	-13294
▁ማሰል	-13295
▁ቃጠሎ	-13296
▁ዴቭ	-13297
▁መስታወት	-13298
▁ደህንነትን	-13299
▁ሮስ	-13300
ምኑ	-13301
ረደበት	-13302
▁ፔንሲልቬንያ	-13303
ዳጃ	-13304
ኣት	-13305
▁በአምስተኛው	-13306
ደረገውን	-13307
▁የአውራጃ	-13308
▁ስልጣናቸውን	-13309
▁ሲጠናቀቅ	-13310
▁በዚ	-13311
▁ዝቅተኛው	-13312
▁ተወዳዳሪዎች	-13313
▁ተከል	-13314
▁±	-13315
▁በሂደት	-13316
▁የግጥም	-13317
▁ባሪያ	-13318
▁....	-13319
▁ተነሳሽ	-13320
▁እስረኛ	-13321
▁በኤች	-13322
ክረው	-13323
▁ቁርጥራ	-13324
▁ወንጌል	-13325
ጠባበቅ	-13326
pl	-13327
▁ተፈቅዶ	-13328
▁ሲሊን	-13329
▁አንሺ	-13330
▁ሃብ	-13331
▁ተቋቁ	-13332
ከታተያ	-13333
▁የሱፐር	-13334
ሰማቸው	-13335
▁ድንጋጌዎች	-13336
▁አንዳርጋቸው	-13337
▁ጉድጓዶች	-13338
▁አፀደቀ	-13339
▁መንገዱን	-13340
ፋማ	-13341
▁ምኒልክ	-13342
▁የራሷን	-13343
St	-13344
▁ይጠናቀ	-13345
▁ሃሚልተን	-13346
▁ክርስትና	-13347
▁ማጽዳት	-13348
▁በመሰንዘር	-13349
:30	-13350
▁ወሰደ	-13351
▁ከኔ	-13352
▁ሞንቴ	-13353
▁የዲሲ	-13354
▁ትዕዛዞች	-13355
▁ተሰራጭቷል	-13356
▁ልደቶች	-13357
▁ከፈረንሳይ	-13358
▁የዚ	-13359
▁ስፔክትሮ	-13360
▁ገበሬዎች	-13361
▁በመተው	-13362
▁ክምች	-13363
ራለች።	-13364
▁የያዘው	-13365
▁መምጣቱን	-13366
▁ኢንዴክስ	-13367
ርሰን	-13368
▁ምልከታዎች	-13369
▁የጥገና	-13370
▁ሁሴን	-13371
▁መተግበር	-13372
▁የኮምፒዩተር	-13373
▁ጠቁሟል	-13374
▁የውጤት	-13375
▁ያቀረቡ	-13376
▁አክቲቪስቶች	-13377
ሽኖችን	-13378
TA	-13379
▁ዕፅዋት	-13380
ፓቲ	-13381
▁ገደቦችን	-13382
ኦክሳይድ	-13383
▁አጥነት	-13384
ቀይር	-13385
▁ወስደዋል	-13386
▁የቆየው	-13387
▁ቻርተር	-13388
▁ከአከባቢው	-13389
▁ተዋግ	-13390
▁የኤፒ	-13391
▁እፎይታ	-13392
▁ስልት	-13393
▁ይቃወ	-13394
ሶስት	-13395
ረስት	-13396
▁የሚጠበቅ	-13397
ንድን	-13398
ትዝ	-13399
▁66	-13400
▁ድግስ	-13401
▁የተዛባ	-13402
▁በርካ	-13403
ዲፈ	-13404
▁መድልዎ	-13405
PR	-13406
▁ዋናዎቹ	-13407
ናቸውም	-13408
ላለህ	-13409
▁እየቀ	-13410
ፈነ	-13411
መጣጣኝ	-13412
ሰልጣኝ	-13413
▁በሚያስደንቅ	-13414
▁ወረቀቱ	-13415
▁ይኖረዋል	-13416
በለዚያ	-13417
▁መቋረጥ	-13418
▁ከወንድ	-13419
▁ኦክ	-13420
ያፊ	-13421
▁የክሪ	-13422
የቀ	-13423
ዘርጋት	-13424
▁የመቀ	-13425
▁በመልቀቅ	-13426
▁You	-13427
▁የቱሪስት	-13428
▁የተደረገውን	-13429
▁ፕሬዚዳን	-13430
▁በትዕ	-13431
▁ማዋሃድ	-13432
▁ጉዳተኞች	-13433
▁ተለውጠዋል	-13434
vol	-13435
▁ማጎልበት	-13436
▁አትላንቲክ	-13437
▁ፋርማ	-13438
▁ማዕከሉ	-13439
▁የትኛው	-13440
▁ርህራሄ	-13441
▁ከአር	-13442
▁ለመጠ	-13443
▁ሰራዊ	-13444
▁ወዳጅ	-13445
▁ዘይቤዎች	-13446
ዴታ	-13447
▁ይደግፋሉ	-13448
ስተናግ	-13449
▁ይነገ	-13450
ኳቸው	-13451
የራ	-13452
▁ፕሬዚዳንቱ	-13453
▁ክህደት	-13454
▁የሶሪያ	-13455
ውረድ	-13456
ዩኒኬሽን	-13457
▁አልፋ	-13458
▁ለዚያ	-13459
ኤፍኤ	-13460
▁ፓትርያርክ	-13461
▁ተሸክ	-13462
ምፔሪያል	-13463
ኝን	-13464
ጎላ	-13465
▁ምህረት	-13466
ዋለ	-13467
▁አድን	-13468
▁የውጪ	-13469
▁እንደቀ	-13470
▁አንብ	-13471
ልውና	-13472
▁አልቻል	-13473
▁የሠራተኛ	-13474
ጀመሩት	-13475
▁የተቀበለ	-13476
▁የተሰየመ	-13477
▁መናፍስት	-13478
▁ስለመሆኑ	-13479
▁ዋንግ	-13480
▁የመለየት	-13481
▁ይኸው	-13482
▁መነሳ	-13483
▁ተጠናቋል	-13484
ከፍሉ	-13485
▁በደረሰበት	-13486
▁እንደሚያስፈልግ	-13487
▁በቻር	-13488
▁ጽፏል።	-13489
▁የመፍት	-13490
ሮጌው	-13491
-7	-13492
▁ተከታይ	-13493
ሃተን	-13494
ብሰን	-13495
ንቨር	-13496
ብርኤል	-13497
▁ሕመም	-13498
ነበ	-13499
ፌን	-13500
▁ኩባ	-13501
▁በመመለስ	-13502
ፈርሰን	-13503
▁ገበሬ	-13504
▁ለወንዶች	-13505
ሪያት	-13506
▁ጠንክ	-13507
ሙዝ	-13508
▁በማይክሮ	-13509
ቢአይ	-13510
ሱትን	-13511
▁መነቃ	-13512
▁ኢሕአዴግ	-13513
▁at	-13514
▁ተካትቷል	-13515
ጠቃቀም	-13516
▁የዴንማርክ	-13517
▁ተከሳሽ	-13518
ሜር	-13519
▁ተጠቁ	-13520
▁ወጥተው	-13521
▁የተጠናከረ	-13522
▁ቀርበው	-13523
▁ተያያዥ	-13524
ጋራት	-13525
▁ለይቶ	-13526
▁በአካባቢያዊ	-13527
▁አድማስ	-13528
▁በቦስተን	-13529
▁በእነዚያ	-13530
ሻውን	-13531
▁ፓነል	-13532
▁ከምን	-13533
ቫና	-13534
▁የሚባሉ	-13535
▁የሞገድ	-13536
▁እንዳደረገ	-13537
▁ስቃይ	-13538
▁ለየት	-13539
ox	-13540
▁ሞዴሉ	-13541
▁የዮ	-13542
ናዊው	-13543
ብላት	-13544
▁ሲድኒ	-13545
▁በመሆኗ	-13546
▁አዝና	-13547
▁በኢንተርኔት	-13548
▁ተዘጋጅተዋል	-13549
▁በመቅረ	-13550
▁በጆርጅ	-13551
▁ማካሄድ	-13552
ኤፍሲ	-13553
▁ሎኮሞ	-13554
▁ሊትር	-13555
ህሊና	-13556
▁ግዴታዎች	-13557
ፍሬ	-13558
▁መንሸራተቻዎች	-13559
ዋለች	-13560
▁ሊወሰድ	-13561
▁ድልድዮች	-13562
▁አስተምህ	-13563
ain	-13564
▁የልዩ	-13565
▁ይመስላሉ	-13566
▁መድረሱን	-13567
▁የጡንቻ	-13568
▁በፕሬዚዳንት	-13569
▁ዘውግ	-13570
▁ለግል	-13571
ወጣሉ	-13572
▁እገዛ	-13573
▁ኩራት	-13574
▁የዩኒ	-13575
▁በዲጂታል	-13576
ግኒ	-13577
▁የእነዚህን	-13578
▁ሔ	-13579
ልጣኑ	-13580
▁ጭብጦች	-13581
▁ለኪ	-13582
▁ከማድረግ	-13583
▁አደን	-13584
▁የፊልሙ	-13585
▁ወደተ	-13586
▁በደር	-13587
▁እንዲውል	-13588
▁ተቀበ	-13589
▁ተችቷል	-13590
▁መኪናው	-13591
▁የቡና	-13592
▁መለቀቅ	-13593
ኖቭ	-13594
▁የቀኝ	-13595
▁ይለያል	-13596
▁ኮሚኒስት	-13597
▁ቆጣቢ	-13598
per	-13599
▁ሲቪ	-13600
▁የዳይ	-13601
▁ምርኮ	-13602
ዳኖስ	-13603
ሻር	-13604
▁ፍልሰት	-13605
ts	-13606
ዲሲ	-13607
▁ሊቨር	-13608
▁ኢኮኖሚክስ	-13609
▁ለኩ	-13610
ቮይ	-13611
ቀጥለው	-13612
▁ይመስለኛል።	-13613
▁የጠፉ	-13614
IR	-13615
▁ፍጥረታት	-13616
ፕቴምበር	-13617
▁ኢሳያስ	-13618
ርታ	-13619
▁አደር	-13620
▁ገለጻ	-13621
▁ደኅንነት	-13622
▁አስቀምጧል	-13623
):	-13624
ባኤው	-13625
▁ተሸንፏል	-13626
የተወለደ	-13627
▁እድልን	-13628
▁ተሞል	-13629
ላዊው	-13630
ld	-13631
▁በአዳዲስ	-13632
▁ድንግል	-13633
ነቲከት	-13634
ዷቸው	-13635
▁ያመነ	-13636
ቴው	-13637
▁ሎው	-13638
▁ኪት	-13639
▁መጨና	-13640
▁እህል	-13641
▁ማቆየት	-13642
ቡላ	-13643
▁ታክሲ	-13644
MP	-13645
▁መመሪያዎችን	-13646
▁አገዛ	-13647
▁ጉልበ	-13648
▁እንፈልጋ	-13649
ና።	-13650
ዲፈቻ	-13651
▁ወሽ	-13652
በቂያ	-13653
▁በቨርጂኒያ	-13654
▁አደርጋ	-13655
ጭቱ	-13656
▁ማጠናቀ	-13657
ዚየም	-13658
▁ተንታኞች	-13659
▁አርሰናል	-13660
ከፈተው	-13661
▁በእር	-13662
▁×	-13663
▁ለመጓዝ	-13664
▁ስማርት	-13665
▁ኤክ	-13666
▁ካለፈው	-13667
▁1913	-13668
▁ፊደላት	-13669
በያዎች	-13670
▁ማራቶን	-13671
ብስክሌት	-13672
ጨምሩ	-13673
▁fl	-13674
ጃሚን	-13675
በም	-13676
▁Ethiopian	-13677
▁መኖሩ	-13678
▁ይከላከ	-13679
▁አልነበራቸውም	-13680
አቸው	-13681
▁ሊደረግ	-13682
ሙትን	-13683
▁የተጠናቀቀ	-13684
▁በስልጣን	-13685
ኒካል	-13686
▁ለሁለቱም	-13687
▁አሉት።	-13688
▁ከነበረ	-13689
በዙ	-13690
ዚዮ	-13691
▁እንስሳትን	-13692
▁የሚታወስ	-13693
▁ካውን	-13694
ብረር	-13695
▁የተራቀቁ	-13696
ጻፉ	-13697
▁ፅሁፍ	-13698
84	-13699
▁የሚያንፀባርቅ	-13700
▁ብሎኮች	-13701
ንቲን	-13702
▁ግራንት	-13703
ነሱት	-13704
ጻሜ	-13705
▁ክርስቲያኑ	-13706
▁በእሷ	-13707
▁ፅንስ	-13708
▁መርከቡ	-13709
▁የመጨረሻዎቹ	-13710
▁ቆሞ	-13711
▁ተዘርዝሯል	-13712
▁በኋላ፣	-13713
▁ቢላዋ	-13714
▁የአጎት	-13715
CR	-13716
▁የጨዋታው	-13717
▁በመሰብሰብ	-13718
▁ኮሪ	-13719
▁ግለሰባዊ	-13720
▁ክህሎት	-13721
ሎቫኪያ	-13722
▁ወደዚህ	-13723
ሰብዓዊ	-13724
ንግስቱ	-13725
▁ፈተናዎች	-13726
ኚዎች	-13727
▁የቅንጦት	-13728
▁ጸሎት	-13729
▁ፒኤች	-13730
▁ተዋህዶ	-13731
▁አሌን	-13732
▁ጭምብል	-13733
ደረሰው	-13734
▁የትር	-13735
ath	-13736
ወቅት	-13737
▁በሀገራችን	-13738
▁ተወዳ	-13739
▁ታሪኩን	-13740
ሂል	-13741
▁ያጠ	-13742
▁ሞገዶች	-13743
▁ደረጃውን	-13744
▁ሸሽ	-13745
▁ለዘመናት	-13746
▁ምስክሮች	-13747
://	-13748
▁የሆነበት	-13749
▁አንዳቸውም	-13750
ላሹ	-13751
▁ሕንፃዎችን	-13752
▁ይሉ	-13753
የወ	-13754
▁አይሆን	-13755
▁አይደሉም።	-13756
▁ቦም	-13757
▁ሜታቦ	-13758
pool	-13759
▁ፒያኖ	-13760
▁ባህሎች	-13761
ቃለል	-13762
▁መሰረተ	-13763
ወትር	-13764
▁ፔሪ	-13765
Sh	-13766
ቼውም	-13767
▁የጉበት	-13768
ጊን	-13769
ሸነፈው	-13770
▁የተሰጣቸው	-13771
ተህ	-13772
ሆል	-13773
▁የሃንጋሪ	-13774
▁በሕጋዊ	-13775
▁ለአዲሱ	-13776
▁አዳምስ	-13777
▁ተዋጽኦ	-13778
▁ለሴ	-13779
▁ለኒው	-13780
▁ፕሮቲኖች	-13781
▁ዘዴው	-13782
▁1911	-13783
▁ጥያቄው	-13784
ተገናኝ	-13785
▁አጥፊ	-13786
▁መሳተፍ	-13787
ገለልተኛ	-13788
▁ፎቶግራፎች	-13789
▁ለጠ	-13790
ቆጠ	-13791
▁የመመገቢያ	-13792
▁አለመግባ	-13793
▁ወታደሮቹ	-13794
▁የሚያመለክተው	-13795
ዮት	-13796
▁ማዕዘ	-13797
▁ሰንደ	-13798
ኖት	-13799
ong	-13800
▁ስጋቶች	-13801
▁የተላ	-13802
ዕምሯዊ	-13803
▁ብልሹ	-13804
▁ታቅዶ	-13805
ind	-13806
▁የተስፋ	-13807
▁የሚያገለግሉ	-13808
ሙኒኬሽን	-13809
▁ለማስተማር	-13810
▁ማጨ	-13811
ናገድ	-13812
▁አደጋዎችን	-13813
▁አክሏል	-13814
ለያየት	-13815
▁ይነገራል	-13816
▁አመድ	-13817
▁ሸቀጦች	-13818
▁መሣሪያው	-13819
▁በማምረት	-13820
▁አፖ	-13821
▁በብር	-13822
▁በፅ	-13823
ግርኛ	-13824
▁አጠናክሮ	-13825
ድሰን	-13826
ማማት	-13827
▁የማይታወቅ	-13828
ሩና	-13829
▁ጣቢያዎችን	-13830
▁በሳምንት	-13831
▁ሲምፎ	-13832
▁ትምህርቶችን	-13833
/2013	-13834
ጎው	-13835
ፀን	-13836
▁እንመረም	-13837
ምግባር	-13838
▁በሽታን	-13839
▁ማዳበር	-13840
ደብዳቤ	-13841
▁ብላለች	-13842
▁ሰርጦች	-13843
ጓራ	-13844
rit	-13845
▁የሙስና	-13846
▁ትርፋማ	-13847
▁አፍሪካዊ	-13848
▁መውደቅ	-13849
▁የኦስትሪያ	-13850
-12	-13851
▁ወሽመጥ	-13852
ነው።	-13853
▁ተከሳሾች	-13854
ረቅ	-13855
ፎቶ	-13856
▁በመውጣት	-13857
▁የሚደግፍ	-13858
▁ተወስደዋል	-13859
▁ለዳ	-13860
▁ብሔረሰቦች	-13861
▁ስብስቦችን	-13862
▁ማስረጃዎችን	-13863
ኞቻቸው	-13864
▁ለመላክ	-13865
▁የሙሉ	-13866
ረቀ	-13867
▁ስራውን	-13868
ሊየር	-13869
▁ገለጹ	-13870
ሩክ	-13871
ያሚ	-13872
▁መኪናዎች	-13873
▁እንደማያ	-13874
▁ለዩናይትድ	-13875
▁ቅስቀሳ	-13876
▁መቻል	-13877
▁ከሌሎቹ	-13878
ንዳት	-13879
▁ማርጋሬት	-13880
▁ዴኒስ	-13881
▁Liver	-13882
▁የፍልስፍና	-13883
▁ለእኛ	-13884
▁ፋይዳ	-13885
ከፈት	-13886
▁ላን	-13887
▁ያለች	-13888
▁ቦንድ	-13889
▁ተቀበሉ	-13890
▁ዲሞክራሲ	-13891
▁ከሄደ	-13892
▁ተመን	-13893
መንግስታዊ	-13894
ቄዶ	-13895
ዶም	-13896
▁የናሙና	-13897
▁ተናግረዋል፡፡	-13898
ሙሉ	-13899
▁የዘለቀ	-13900
▁የዌስት	-13901
ላላቅ	-13902
▁ይዛ	-13903
▁ንጹ	-13904
▁ሮጀር	-13905
▁ይከናወናል	-13906
▁ማዕድ	-13907
▁የሚገ	-13908
▁ሀገሪቱ	-13909
የብ	-13910
▁ተመስር	-13911
▁ፕሌይ	-13912
▁ሚኔ	-13913
ሰዱ	-13914
▁መነኮ	-13915
▁ተክለ	-13916
▁Liverpool	-13917
ሚያን	-13918
▁ለሳ	-13919
ህንፃው	-13920
▁በማደግ	-13921
▁ከአስራ	-13922
▁ተዓ	-13923
▁እንዲሠራ	-13924
ዛማጅ	-13925
▁ገልጻለች	-13926
ንድሮው	-13927
▁የድርጅት	-13928
▁ባለሙያው	-13929
▁ቅርጾችን	-13930
▁ሸዋ	-13931
▁የማንነት	-13932
ኤታ	-13933
ደግፉ	-13934
▁ሽፋኖች	-13935
▁የሚረዳ	-13936
▁መደገፍ	-13937
▁ሳንታ	-13938
▁ለሊ	-13939
▁በሙስና	-13940
▁ሰልፎች	-13941
▁አስገኝ	-13942
ድሪ	-13943
ደርደ	-13944
▁ራስል	-13945
▁ትራንስፎርሜሽን	-13946
▁መወለድ	-13947
▁መላክ	-13948
▁የከርሰ	-13949
▁ቀው	-13950
▁እንዲቆዩ	-13951
ምፒዮና	-13952
▁የህወሃት	-13953
▁የሚደረገውን	-13954
▁ዌል	-13955
ሾፍ	-13956
▁ሥራቸውን	-13957
▁እጩነት	-13958
▁የሜዳ	-13959
▁የጥፋት	-13960
ላካ	-13961
▁የታቀደው	-13962
ደጉ	-13963
▁ቅንብር	-13964
▁አገራቸው	-13965
▁ሁዋን	-13966
▁የሰርቢያ	-13967
▁በዓላት	-13968
▁ለአካባቢ	-13969
▁የመፍጠር	-13970
▁ይነገራል።	-13971
▁ቤትን	-13972
.2	-13973
▁ያልታወቀ	-13974
▁አሰባ	-13975
▁ተጽእኖ	-13976
▁ፕሮቶኮል	-13977
▁ፈን	-13978
አሜሪካዊ	-13979
▁አስነስ	-13980
2009	-13981
▁በማቋቋም	-13982
▁አቆጣጠር	-13983
▁በተያያዙ	-13984
▁1908	-13985
▁ኦርሊንስ	-13986
ዲንበርግ	-13987
▁በምርጫው	-13988
▁ያለፈውን	-13989
▁መርከበኞች	-13990
▁የማስተማር	-13991
▁መዘዝ	-13992
ንግረሱ	-13993
▁ተላልፈዋል	-13994
ሰም	-13995
▁ሕክምናዎች	-13996
▁ጀብዱ	-13997
▁የዘረ	-13998
▁የግምገማ	-13999
▁2023	-14000
▁ማቆያ	-14001
▁በመጓዝ	-14002
▁ልማድ	-14003
▁ሊያስከትሉ	-14004
▁እግሮች	-14005
▁ሜዲካል	-14006
▁እነርሱ	-14007
▁በአባ	-14008
▁የእውነተኛ	-14009
▁ስኮላር	-14010
▁በጀልባ	-14011
▁ጉዳቶችን	-14012
81	-14013
▁ያቋር	-14014
▁በኢራን	-14015
ሠል	-14016
ጉዳት	-14017
▁አቅዷል	-14018
▁ስለሆኑ	-14019
▁እንደታ	-14020
▁ከሬ	-14021
▁ህይወቱ	-14022
82	-14023
▁የመጓጓዣ	-14024
org	-14025
▁ሲሞን	-14026
▁ሳይሆኑ	-14027
ቪንግ	-14028
▁መደብር	-14029
▁አበርክ	-14030
ስተዋል።	-14031
▁ታዳጊዎች	-14032
▁ረጅሙ	-14033
▁ጥንታዊው	-14034
▁ዲሞክራሲያዊ	-14035
ፊቱን	-14036
ካስት	-14037
DS	-14038
ብራቅ	-14039
▁በሆስፒታል	-14040
▁ተሸንፈዋል	-14041
ደረስ	-14042
▁160	-14043
▁ያደረጉትን	-14044
ሲያትል	-14045
▁ምክሮች	-14046
▁የተራራ	-14047
ቤሪ	-14048
▁ድንጋጤ	-14049
▁ፍላጎቶችን	-14050
▁1880	-14051
▁ጥንዶች	-14052
ence	-14053
ሩስያ	-14054
▁ቁጥጥርን	-14055
▁የቪክቶሪያ	-14056
ይዘው	-14057
▁PA	-14058
CS	-14059
▁ቴሪ	-14060
▁ለመሙላት	-14061
▁በመግደል	-14062
▁ከጥር	-14063
▁ከባህ	-14064
▁ቀሪው	-14065
▁ለዶ	-14066
▁የቤን	-14067
▁አማልክት	-14068
▁ሰልፈ	-14069
▁ይሰጣል።	-14070
ተራ	-14071
▁ምርጫን	-14072
▁ድርጅቶችን	-14073
አስደናቂ	-14074
▁አንጓ	-14075
▁አስተዳደርን	-14076
▁ተንታኝ	-14077
▁ማጠናከር	-14078
▁በማነፃፀር	-14079
▁ግግር	-14080
▁ይኖራሉ	-14081
▁መናገ	-14082
▁ሻይ	-14083
▁የተሰማሩ	-14084
▁መከሰት	-14085
▁መስዋዕትነት	-14086
▁የተቀመጠው	-14087
▁የኦር	-14088
▁ምክክር	-14089
▁ሲጀመር	-14090
▁ቺካጎ	-14091
▁በይነተገናኝ	-14092
▁የአሸዋ	-14093
ታደል	-14094
▁በመሸጥ	-14095
▁እፈልጋለሁ	-14096
ሮቭ	-14097
▁ኦሮሚያ	-14098
▁እየታየ	-14099
▁ስለሚችል	-14100
ፎልክ	-14101
▁በኮሎምቢያ	-14102
▁ክሪስቶፈር	-14103
የኦ	-14104
▁የመልካም	-14105
ስቱን	-14106
ሽከረከር	-14107
ኮላ	-14108
▁ገዛ	-14109
▁ታትሟል	-14110
ሲየስ	-14111
▁ጉል	-14112
▁ከመግባ	-14113
▁ማስተዳደር	-14114
ቫዳ	-14115
▁በበሽታው	-14116
▁ያስደ	-14117
▁እነዚያ	-14118
▁የችርቻሮ	-14119
▁63	-14120
▁ቻንስ	-14121
▁የተዘጋ	-14122
▁መሰናክሎች	-14123
▁ሪፐብሊካን	-14124
▁አግኝቷል።	-14125
▁2,	-14126
▁የወተት	-14127
▁ያገለገ	-14128
▁የማይንቀሳቀስ	-14129
▁ሊደርስ	-14130
▁ሠረ	-14131
▁ኒዮ	-14132
▁ምክንያቱ	-14133
▁ለብሔራዊ	-14134
▁ሊገኙ	-14135
▁በመተንተን	-14136
▁ከግራ	-14137
▁Me	-14138
▁የሚተዳደር	-14139
▁የኢንተርኔት	-14140
▁ሶፍት	-14141
ታቱ	-14142
▁ዝርዝሮችን	-14143
▁እንዳላት	-14144
▁የሚቆጠር	-14145
ተወ	-14146
▁እንዲሰሩ	-14147
▁የሚሆነውን	-14148
ፒኤስ	-14149
ነሪ	-14150
▁ያቀረቡት	-14151
▁አቋቁሟል	-14152
ቃሽነት	-14153
▁ማክበር	-14154
▁እስከመ	-14155
▁ወለሎች	-14156
▁ያሳድራሉ	-14157
▁1:	-14158
▁አሰባስ	-14159
▁የጨዋታውን	-14160
▁ጃፓ	-14161
▁አሳታሚ	-14162
▁የተሾመ	-14163
▁ይገለጻል	-14164
▁ተከስቷል	-14165
▁በቁም	-14166
▁የሚወስድ	-14167
ዳሉ።	-14168
▁መኸር	-14169
▁ከአን	-14170
ደናቀፍ	-14171
?››	-14172
ጫሉ	-14173
▁ረድፍ	-14174
▁ካርተር	-14175
▁አጠናቅ	-14176
ዕድ	-14177
▁ተሟጋቾች	-14178
▁ፌስቲቫ	-14179
ነዋል።	-14180
▁በሚኖሩ	-14181
▁ክሪስታ	-14182
▁ሙን	-14183
▁ስማቸው	-14184
▁የሚከሰት	-14185
▁የመተንፈሻ	-14186
io	-14187
▁ያስባሉ	-14188
ግባቸው	-14189
▁ጊኒ	-14190
ብዛኛው	-14191
▁ጀምረዋል	-14192
ድረኩ	-14193
▁የዘመናዊ	-14194
▁ከቀዳሚው	-14195
▁ይተገበራል	-14196
▁➲	-14197
▁ሜትሮፖሊታን	-14198
▁ካደረጉ	-14199
▁ያስቆጠረ	-14200
ሴስ	-14201
ህዝብ	-14202
▁ጠርቶታል	-14203
day	-14204
▁ስላሉ	-14205
▁በቁጣ	-14206
▁በተገኙበት	-14207
▁አጉል	-14208
▁ያህል፣	-14209
▁ታይተዋል	-14210
ሊየም	-14211
▁በወንድ	-14212
▁ሳይኖር	-14213
▁አሥ	-14214
ግማ	-14215
▁የፓራ	-14216
▁ሴሚና	-14217
▁ጎርፍ	-14218
▁አቀረቡ	-14219
ከእ	-14220
አያ	-14221
▁ብሩስ	-14222
▁በመቆጣጠር	-14223
▁ጠንቋ	-14224
ሊቲክ	-14225
ቂያው	-14226
▁Pro	-14227
▁የቢሮ	-14228
▁ተወል	-14229
▁በጂኦ	-14230
▁ስዊድን	-14231
ank	-14232
ved	-14233
▁የተወሰዱ	-14234
ኖና	-14235
▁እንደሌላቸው	-14236
▁በኢራቅ	-14237
ዳችን	-14238
ጠሪያ	-14239
ደረገም	-14240
▁htt	-14241
▁የተወካዮች	-14242
▁ሳንድ	-14243
▁የተደባለቀ	-14244
▁ተናገረ	-14245
▁በኬንያ	-14246
▁አዛዦች	-14247
▁የታቀዱ	-14248
▁የወረቀት	-14249
ጠብጣ	-14250
▁ያበቃል	-14251
▁እች	-14252
▁ዎል	-14253
▁69	-14254
ኪንሰን	-14255
▁ከረጢ	-14256
ጋርድ	-14257
▁ትጥቅ	-14258
▁የኬንያ	-14259
▁ቢሞክርም	-14260
ቡና	-14261
▁የደመወዝ	-14262
▁ካርዲናል	-14263
ፈፀመ	-14264
▁ሊንከን	-14265
----------------	-14266
▁1,5	-14267
ስፒታሉ	-14268
▁ከአገር	-14269
▁አብዲ	-14270
▁አልፏል	-14271
▁ሊባል	-14272
▁ከደረሰ	-14273
▁የመተማመን	-14274
▁ተቀላቀሉ	-14275
ራይዜሽን	-14276
▁የዲስ	-14277
▁ሒደት	-14278
ቧራ	-14279
▁ያስተዋው	-14280
ዋሉ	-14281
▁ወሲብ	-14282
▁ጣይ	-14283
▁የተራዘመ	-14284
ፀረ	-14285
▁መፈንቅለ	-14286
▁አገራችን	-14287
▁ባንኩ	-14288
ልታ	-14289
▁በፓኪስታን	-14290
▁ዝግጅቶችን	-14291
በርትስ	-14292
▁መቀላቀ	-14293
ኝነትን	-14294
ቴክኖሎጂ	-14295
ስኒያ	-14296
▁62	-14297
2008	-14298
▁ሆት	-14299
▁ተመለሰች	-14300
▁ኔልሰን	-14301
ሮል	-14302
▁ያስመዘገበ	-14303
▁ያስፈልገዋል	-14304
በአንድ	-14305
ናቅ	-14306
ስለዚህ	-14307
▁ጄይ	-14308
ረክ	-14309
ኤምኤ	-14310
ሜሪ	-14311
▁ያስወግዳል	-14312
ታቸውም	-14313
▁አዳማ	-14314
▁የሚዲያ	-14315
▁ቋንቋን	-14316
ንበት	-14317
ረሳ	-14318
▁~	-14319
▁ቤከር	-14320
▁እኛን	-14321
▁ለሱ	-14322
ዩስተን	-14323
▁የነገ	-14324
▁በድምሩ	-14325
▁የሚያካትቱ	-14326
▁የተላለፈ	-14327
▁ተከራ	-14328
▁መጀመሩን	-14329
??	-14330
ፃፅ	-14331
▁ለሆ	-14332
▁መኝታ	-14333
▁የጠመንጃ	-14334
▁ቶምፕሰን	-14335
▁የፕሮቲን	-14336
ራንያን	-14337
▁ድሮ	-14338
haric	-14339
▁ኹ	-14340
▁የግድግዳ	-14341
▁ተገናኝተው	-14342
▁ነጠብጣ	-14343
▁በጀርባው	-14344
▁ከዱ	-14345
▁ይከላከላል	-14346
▁ጨም	-14347
ጋለጡ	-14348
ደሰቱ	-14349
▁የኖረ	-14350
▁ግሌን	-14351
▁በምላሹ	-14352
▁ለነበረው	-14353
▁ህፃ	-14354
▁መገንዘብ	-14355
▁አርትስ	-14356
ጧቸው	-14357
les	-14358
▁ቀለበ	-14359
የባ	-14360
▁ለከተማ	-14361
▁ቦውል	-14362
▁ማስተናገድ	-14363
▁ሮቢንሰን	-14364
/2014	-14365
▁ውድድሮችን	-14366
▁የገፉ	-14367
▁ሄል	-14368
▁ጌጣጌጥ	-14369
▁ድምጾች	-14370
▁በማድ	-14371
▁ጃኮ	-14372
▁ገበያው	-14373
▁በረን	-14374
ርካሪ	-14375
▁ያደገው	-14376
▁የመጥ	-14377
▁ጥቆማ	-14378
▁ጭቆና	-14379
▁ኢር	-14380
▁በዩክሬን	-14381
ሰራው	-14382
▁ድርቅ	-14383
በሳጭ	-14384
ወደው	-14385
በቁ	-14386
ላቭ	-14387
ከሻ	-14388
ደናቅ	-14389
▁አንጎል	-14390
▁አስባለሁ	-14391
▁መያዛ	-14392
▁የተፈፀ	-14393
▁ሕፃን	-14394
▁ተጓዥ	-14395
▁ተይዘው	-14396
▁እንዳላ	-14397
▁ከጓደ	-14398
▁mg	-14399
ኒየስ	-14400
ሬንጅ	-14401
ፍትሃዊ	-14402
▁ኬሚስትሪ	-14403
▁በሱዳን	-14404
▁በጽሑፍ	-14405
▁በመተኮስ	-14406
▁የዌልስ	-14407
ፍሩ	-14408
▁መጥተው	-14409
▁ይደረግ	-14410
ቆቅል	-14411
▁ሽጉጥ	-14412
ካትት	-14413
▁ህመምተኞች	-14414
▁ስደተኞችን	-14415
ቬልት	-14416
▁ዋጋዎች	-14417
AP	-14418
ኦት	-14419
ፍሬድ	-14420
▁የተሳሳቱ	-14421
▁ሕጎች	-14422
ርስዎ	-14423
▁ተመራቂ	-14424
▁የሚጠይቁ	-14425
▁የህዳሴ	-14426
ርዲ	-14427
▁ቀጠሉ	-14428
ነስት	-14429
▁በሌሊት	-14430
▁ከውስ	-14431
▁እንመረምራለን	-14432
▁ለቡድኑ	-14433
▁ሲመለሱ	-14434
ult	-14435
▁ጨካኝ	-14436
▁ሮቦ	-14437
▁የተጻፈ	-14438
▁እንዲጠቀሙ	-14439
ትንና	-14440
▁ዳቦ	-14441
▁አስማት	-14442
▁አጥብቀው	-14443
▁የደረሰበት	-14444
DP	-14445
erm	-14446
▁የከዋክብት	-14447
▁ከሆነው	-14448
▁የሚሰጡዋቸውን	-14449
▁ገንዘቡን	-14450
▁ራን	-14451
▁50%	-14452
▁November	-14453
▁ተፎካካሪዎች	-14454
ፋል።	-14455
▁ሰውነት	-14456
▁ፍሌ	-14457
▁ጋሻ	-14458
▁አጠፋ	-14459
▁አይገባም	-14460
▁እንደሚፈልግ	-14461
oun	-14462
▁ምሕ	-14463
ፈራው	-14464
▁ፈገግ	-14465
▁መጥቷል	-14466
▁እናስ	-14467
▁ፕሮዲዩ	-14468
የኮ	-14469
▁አስቆጣ	-14470
▁የካፒታል	-14471
ውያኑ	-14472
▁የተካተተ	-14473
▁ቁጭ	-14474
ውተር	-14475
2014	-14476
እስከ	-14477
▁ባነሰ	-14478
▁መቻቻል	-14479
▁ልጃቸው	-14480
▁አካባቢዎችን	-14481
ሮንግ	-14482
▁ይጠይቃሉ	-14483
ፏፏ	-14484
▁ለማለፍ	-14485
ርክቲክ	-14486
▁በተጨ	-14487
▁የስድስት	-14488
▁በክላ	-14489
ኤሌክትሪክ	-14490
ዘርባ	-14491
▁170	-14492
▁ከድን	-14493
▁እሳቸው	-14494
ሜንት	-14495
▁እንደሆነች	-14496
ልኩ	-14497
-17	-14498
▁ከግንቦት	-14499
ሰጣ	-14500
▁ፒተርስ	-14501
▁ሳይንቲስት	-14502
ቦታው	-14503
.3	-14504
▁ስርጭቶች	-14505
ዎችም	-14506
ገሚያ	-14507
ጠውን	-14508
ዳሪ	-14509
▁ይጎ	-14510
▁ለቪ	-14511
ቆሙት	-14512
▁የበኩ	-14513
▁ይካሄዳል	-14514
▁ህመ	-14515
▁ላም	-14516
▁በአጎራባች	-14517
▁ወስኗል	-14518
ome	-14519
▁ወጣቶችን	-14520
ጎሪ	-14521
ማይካ	-14522
▁ሊቀንስ	-14523
▁ዘላቂነት	-14524
▁ዳይሬክቶ	-14525
▁ትንሹ	-14526
▁በሥልጣን	-14527
ብራራ	-14528
▁ኮርሶች	-14529
ሊኮን	-14530
▁በንድፈ	-14531
▁በክፍለ	-14532
ቀርቡት	-14533
ቀሰው	-14534
▁ሆቴሎች	-14535
▁የሆነች	-14536
▁የቱሪዝም	-14537
ሲየም	-14538
ፁን	-14539
▁በዩኤስ	-14540
▁ለማሰራጨት	-14541
▁መነቃቃት	-14542
▁ቁፋሮ	-14543
▁ጎርደን	-14544
▁ጎዳናው	-14545
▁ሃላፊነት	-14546
ሳዩ	-14547
▁ምርመራው	-14548
▁የተቀረፀ	-14549
▁እናቷ	-14550
▁ስካው	-14551
▁ካርዶች	-14552
▁የክርስትና	-14553
▁CR	-14554
ክለው	-14555
▁ዴይ	-14556
▁በዝግታ	-14557
▁የሚናገሩት	-14558
▁በፖርት	-14559
▁ያስገ	-14560
ያዙት	-14561
ፒዶ	-14562
▁ልቀቶች	-14563
ናል፡፡	-14564
ቪየር	-14565
▁እየሞከረ	-14566
የመጀመሪያው	-14567
▁መምራት	-14568
▁ኮምፕ	-14569
▁ሪክ	-14570
▁ሣር	-14571
▁በችግር	-14572
▁ልኬቶች	-14573
ጉስ	-14574
ርቲን	-14575
▁የገባው	-14576
▁የኮሎምቢያ	-14577
አልባ	-14578
▁አርቴ	-14579
▁የተፈቀደ	-14580
ታሙ	-14581
▁መሠረ	-14582
▁በፊሊፒንስ	-14583
▁ዳውን	-14584
▁በሂሳብ	-14585
▁አድርጎታል	-14586
▁ስርአ	-14587
▁ከመደበኛ	-14588
▁ኦነግ	-14589
▁ይጠራሉ	-14590
▁ቬን	-14591
▁ከሞት	-14592
ጠቀመ	-14593
ሳይት	-14594
▁ተጠብቆ	-14595
ጋል።	-14596
▁ለቤት	-14597
▁በመግለጫው	-14598
▁አውቶቡ	-14599
▁እንደዚሁ	-14600
ሬትስ	-14601
▁የትም	-14602
▁ገበታዎች	-14603
▁በመቀጠልም	-14604
▁IS	-14605
▁የወጣቶች	-14606
▁ጂሚ	-14607
ይኑ	-14608
▁አዋቂ	-14609
▁ለመዳሰስ	-14610
▁ታክስ	-14611
▁የኦቶማን	-14612
ከራል	-14613
▁መብትን	-14614
▁ቪክቶር	-14615
▁የሚመስል	-14616
▁ለወጣ	-14617
▁የትርፍ	-14618
▁ጠላቶች	-14619
ባህሪው	-14620
ሺዮሎጂ	-14621
▁መከተል	-14622
▁በምንም	-14623
▁በሲቪል	-14624
▁ቀጥታ	-14625
▁ታዳሚ	-14626
▁አድርጌ	-14627
▁ለመጻፍ	-14628
▁ተንትነዋል	-14629
▁የማሽን	-14630
▁ዘመቻዎች	-14631
▁በእርግጥም	-14632
ፓስ	-14633
▁Le	-14634
▁ዴሞክራቶች	-14635
▁ተመልሰዋል	-14636
ጨበ	-14637
▁አስማታዊ	-14638
▁የተመረጠው	-14639
▁ኢራቅ	-14640
▁ከሐምሌ	-14641
▁በጣ	-14642
ሲስት	-14643
▁እችላለሁ	-14644
▁መዋል	-14645
▁የፕላስቲክ	-14646
▁ዓይኖች	-14647
ገበ	-14648
ሳይንስ	-14649
▁ተባ	-14650
▁አይደል	-14651
▁ፖላንድ	-14652
ከበረ	-14653
▁የሕንፃ	-14654
▁ሌሊ	-14655
▁ከሀገር	-14656
ትሮይት	-14657
ዴስ	-14658
▁ተመስገን	-14659
ለወጡ	-14660
ባችሁ	-14661
▁በማስታወስ	-14662
▁ይፈቅዳል	-14663
ረሱን	-14664
▁ሽንኩርት	-14665
ዲኤ	-14666
▁የብሮድ	-14667
▁ውጥረ	-14668
ስትራቴጂ	-14669
▁ሲገቡ	-14670
▁61	-14671
በዘ	-14672
▁በዩኒቨርሲቲው	-14673
ኦል	-14674
▁የአዲሱ	-14675
▁ለልጆች	-14676
▁አባይ	-14677
▁መካከለኛው	-14678
▁ሰንዝ	-14679
ተሮችን	-14680
▁ኢንግላንድ	-14681
▁የገለፁት	-14682
▁(9	-14683
▁ሄሊኮፕ	-14684
▁ፖሊሲዎችን	-14685
ዝቃዛው	-14686
▁አገልግሎቱን	-14687
▁አመልክተዋል	-14688
▁ላለማ	-14689
▁ሴሎችን	-14690
ጠናቅቅ	-14691
ወዳደሩ	-14692
ጋገሩ	-14693
▁ሪጅ	-14694
ሎታ	-14695
ማንቲክ	-14696
▁ህይወታቸው	-14697
▁ከጂ	-14698
▁ነኝ።	-14699
▁የተጨና	-14700
▁ለማፍረስ	-14701
ፈቅድ	-14702
▁pro	-14703
▁ጠባቂው	-14704
▁አሸዋ	-14705
▁እንግሊዛዊ	-14706
ዛኒያ	-14707
ጣሪው	-14708
▁ፕሪክስ	-14709
▁መዳረ	-14710
▁በምርምር	-14711
▁አንዳንዴ	-14712
▁ጥያቄውን	-14713
FC	-14714
▁በሚታወቀው	-14715
▁ይገልጻል።	-14716
▁አጣዳፊ	-14717
▁Inter	-14718
▁በካል	-14719
▁ኢቫን	-14720
ys	-14721
▁የማኅ	-14722
▁በየሳምንቱ	-14723
▁እክል	-14724
ፅግና	-14725
▁ቸል	-14726
ሎጂስቲክስ	-14727
ድዋርድ	-14728
▁በማለፍ	-14729
yl	-14730
ሳንድ	-14731
ደራጁ	-14732
▁ብለህ	-14733
ሁ።	-14734
ቴር	-14735
▁ሟ	-14736
▁የዋሽንግተን	-14737
ላቸውም።	-14738
▁ተሸነፈ	-14739
▁ለፋ	-14740
▁ዎር	-14741
▁Bl	-14742
▁አቪዬሽን	-14743
▁የዎ	-14744
▁ከዩኤስ	-14745
▁1905	-14746
▁አላስፈላጊ	-14747
▁ነበራቸው።	-14748
▁ባልደረቦች	-14749
ዛክ	-14750
▁ማሰራ	-14751
▁አላን	-14752
▁ሂው	-14753
▁ቅርፊት	-14754
▁በመሥራት	-14755
▁አጽ	-14756
▁በትራ	-14757
LS	-14758
ታገ	-14759
▁በተጠቀሰው	-14760
▁ያለባቸውን	-14761
▁አስተያየቶችን	-14762
ሉላር	-14763
ace	-14764
ኩቨር	-14765
▁ተመልካ	-14766
▁እንደገለፁት	-14767
▁የድል	-14768
▁ለሀገር	-14769
▁ኢስ	-14770
▁ዳው	-14771
▁ጉዳተኛ	-14772
▁የታየው	-14773
▁የፕሮጀክት	-14774
▁አንቀፅ	-14775
ከረው	-14776
ባባሪዎች	-14777
▁ተቀበረ	-14778
▁የሚያስፈልገው	-14779
▁ርእሰ	-14780
▁ፈላጊ	-14781
▁ናይጄሪያ	-14782
▁ተርፎም	-14783
▁ከምሽቱ	-14784
▁ወጎች	-14785
▁ታተመ	-14786
▁ይጀምራሉ	-14787
▁ዘረፋ	-14788
▁ምስጢር	-14789
ውንና	-14790
ሲዎች	-14791
▁ካምፖች	-14792
▁ዕለታዊ	-14793
▁የተጻፈው	-14794
▁ስፖርቶች	-14795
▁የሁለቱም	-14796
ገራችንን	-14797
▁ቦርዱ	-14798
▁የፓስፊክ	-14799
▁ማመንጨት	-14800
ዘና	-14801
▁ማሸ	-14802
▁አንቴና	-14803
▁አምኗል	-14804
▁መሰናክል	-14805
▁እድገቶች	-14806
▁ፍራንክሊን	-14807
ድስተኛው	-14808
▁በሶሪያ	-14809
▁ተፈጠረ	-14810
▁ተዋሕዶ	-14811
▁እንደማይችሉ	-14812
ማችን	-14813
▁በሰር	-14814
▁የአስተሳሰብ	-14815
▁ፎስ	-14816
▁ለማዳ	-14817
▁አፍቃ	-14818
▁ቤተሰቦ	-14819
▁የተባሉት	-14820
▁ሜር	-14821
▁በሃይማኖት	-14822
▁የከተማዋን	-14823
ገደበ	-14824
▁ባደረገ	-14825
▁እገ	-14826
▁የጂን	-14827
▁ሐዲዶች	-14828
▁የሚያረጋግጥ	-14829
▁ተጠቅሷል	-14830
▁አድሚራል	-14831
▁አንትሮ	-14832
▁ተመርቋል	-14833
▁ይገነዘባል	-14834
▁ማስታወቂያዎች	-14835
▁ለአፍሪካ	-14836
ኖቻቸው	-14837
▁ከበር	-14838
ical	-14839
▁ይቀመ	-14840
▁76	-14841
▁ከሦ	-14842
▁ኢብራ	-14843
ገባቸው	-14844
ዛንታይን	-14845
ላምና	-14846
ME	-14847
▁ተመት	-14848
▁የሚያቀርቡ	-14849
ጋጤ	-14850
▁ያደረግ	-14851
▁የተገጠመ	-14852
▁ሃምፕሻየር	-14853
ock	-14854
▁(196	-14855
▁ኢስት	-14856
▁በመወከል	-14857
▁እንዲወስድ	-14858
▁ጭስ	-14859
▁የክላ	-14860
LC	-14861
ለታል።	-14862
▁በደሴቲቱ	-14863
▁የዝግጅት	-14864
▁ተነግሯል።	-14865
ለጫ	-14866
▁ተረከ	-14867
ቃለች።	-14868
▁ፍጡር	-14869
▁ካርታዎች	-14870
▁ይባላል።	-14871
▁ቬትናም	-14872
▁እውነቱን	-14873
▁የኢፌዴሪ	-14874
▁ገጽታዎችን	-14875
▁ከመጀመሪያዎቹ	-14876
▁በኤርትራ	-14877
▁የክትትል	-14878
▁ፍጥ	-14879
▁ዓሦ	-14880
▁ጥቃቱን	-14881
▁ጀርመኖች	-14882
▁እጃ	-14883
ሚካኤል	-14884
▁ለመው	-14885
ለን፡፡	-14886
ቄዶንያ	-14887
▁ሎረንስ	-14888
▁ውሾች	-14889
53	-14890
ፉም	-14891
▁ሙዚቀኛ	-14892
▁ወደቦች	-14893
▁ቲቪ	-14894
▁የአክ	-14895
ቅደሶች	-14896
▁ፈንጂ	-14897
▁ፕሮፓጋንዳ	-14898
ለዋ	-14899
ነቃቃት	-14900
▁ይቆጠራል	-14901
▁የኮሚኒስት	-14902
▁ፓነ	-14903
▁ማቅረቢያ	-14904
▁መረቡ	-14905
▁የመሠረት	-14906
▁በክሮ	-14907
▁የሆንግ	-14908
ጫኛ	-14909
ቫርድ	-14910
ፍቀድ	-14911
▁በጆርጂያ	-14912
ኗን	-14913
▁ደንበኛ	-14914
▁ኢንፌክ	-14915
▁ባሮን	-14916
▁አቀናባሪዎች	-14917
▁ተቆጣጣሪዎች	-14918
▁ተሻጋሪ	-14919
▁አዛውንት	-14920
▁ወራሽ	-14921
▁He	-14922
ንቁ	-14923
▁ሲኒየር	-14924
▁ለፖሊስ	-14925
▁67	-14926
ማሊ	-14927
ኩሪ	-14928
▁ዲሴምበር	-14929
▁የማስታወስ	-14930
ጋሴ	-14931
ማንድ	-14932
▁1909	-14933
▁ክንፎች	-14934
▁ፌር	-14935
▁ከሠ	-14936
▁ወጪን	-14937
▁ጂኖች	-14938
▁ቁጠባ	-14939
ሰሰ	-14940
▁ፍትሕ	-14941
▁እንዲይዝ	-14942
▁በነጭ	-14943
▁አለመሆን	-14944
▁አጋጥሞታል	-14945
▁ክላስተር	-14946
▁ካምቤል	-14947
ላባማ	-14948
▁አቅርቧል።	-14949
▁ግሉ	-14950
▁ለአገር	-14951
▁ተንሳፋፊ	-14952
ሎር	-14953
ፕሬስ	-14954
▁በሚደረግ	-14955
orm	-14956
▁ከተቋቋመ	-14957
▁አዝማሚያዎች	-14958
ቤቷ	-14959
▁ሰንደቅ	-14960
▁አላገኘ	-14961
▁ደርሶባቸዋል	-14962
▁ፓኪስታን	-14963
ወረድ	-14964
ርግዝና	-14965
▁ኦቶ	-14966
ባህሪያትን	-14967
▁እንደጻፈው	-14968
▁68	-14969
▁የሚጠቁ	-14970
▁ተጽዕኖዎች	-14971
ሺን	-14972
▁እየተከናወነ	-14973
ዚት	-14974
▁የግድያ	-14975
▁አሚ	-14976
ራፊ	-14977
▁ፈረሶች	-14978
ርስን	-14979
▁መዘዞች	-14980
▁ፋር	-14981
▁ሚሲሲፒ	-14982
ቀች	-14983
▁ይከታተ	-14984
▁በብሩ	-14985
▁አርትዖት	-14986
ዘነጋ	-14987
▁ውጊያው	-14988
▁ገባ።	-14989
▁የትርጉም	-14990
▁ገለጸ	-14991
▁ከተገኘ	-14992
▁ከእያንዳንዱ	-14993
▁ከተለቀቀ	-14994
ስም	-14995
ጻፉት	-14996
▁ሲሰ	-14997
ሌክትሮን	-14998
▁ሜይን	-14999
ዓሉ	-15000
▁1906	-15001
▁ማጽ	-15002
▁እምቅ	-15003
▁ያግ	-15004
oop	-15005
▁ብፁዕ	-15006
ኖው	-15007
▁የተከፈለ	-15008
▁የፖፕ	-15009
▁ከፊል	-15010
▁እራት	-15011
ሖዋ	-15012
▁Ad	-15013
ቱንና	-15014
▁የኪራይ	-15015
▁ዳንሰ	-15016
▁መሳብ	-15017
▁ዋይ	-15018
▁የሞራል	-15019
▁ኳሶች	-15020
▁ባራክ	-15021
▁ፈቃደኞች	-15022
ቀበለው	-15023
ዋልድ	-15024
ሂድ	-15025
▁መምጣቱ	-15026
በኢትዮጵያ	-15027
▁መጋባት	-15028
▁በመለወጥ	-15029
NC	-15030
▁መሸፈ	-15031
▁ከአየር	-15032
ወሰደው	-15033
ዘጋጁት	-15034
▁የስቴት	-15035
▁ገዝቷል	-15036
ራሱ	-15037
▁ለመጎብኘት	-15038
▁ተዘግቧል	-15039
ቲሽ	-15040
▁የዘፈን	-15041
▁ፍሬም	-15042
▁በጠላት	-15043
▁የጥላቻ	-15044
▁የኮንክሪት	-15045
▁አግኝተው	-15046
EE	-15047
59	-15048
በማ	-15049
▁የመጡት	-15050
በረከቱ	-15051
▁የጀልባው	-15052
▁ቁርጠኛ	-15053
▁ብቃ	-15054
▁የአብ	-15055
▁በእግዚአብሔር	-15056
ons	-15057
▁ታር	-15058
▁ሰላምን	-15059
መጣጠን	-15060
▁ተስፋዎች	-15061
▁ኢንተርፕራይዞች	-15062
▁ተከላካ	-15063
▁ከሁለቱ	-15064
▁Be	-15065
▁ስትራቴጂዎችን	-15066
▁ሪያል	-15067
SR	-15068
▁እውነታዎች	-15069
ሻሽል	-15070
▁በቤቱ	-15071
▁ተፈታ	-15072
▁እንደሆነና	-15073
▁ይመለከቱ	-15074
▁አገልግላለች	-15075
▁ከአይ	-15076
ፕሬዚዳንቱ	-15077
▁በዘመኑ	-15078
▁ከመቼውም	-15079
ፕሎማሲ	-15080
▁All	-15081
▁ተልዕኮዎች	-15082
▁በስደት	-15083
ንግሊ	-15084
▁ጄሪ	-15085
▁መምህ	-15086
ory	-15087
▁ተቃውሞዎች	-15088
▁ትተው	-15089
▁ይችሉ	-15090
▁በክብር	-15091
▁በመገምገም	-15092
ቀርሳ	-15093
▁ፍጥነትን	-15094
▁ማምለጥ	-15095
ብሎስ	-15096
▁በሴት	-15097
▁ዌብ	-15098
▁የቆሻሻ	-15099
▁ቴኒስ	-15100
▁ቅመ	-15101
▁ለጋዜጠኞች	-15102
▁ልና	-15103
▁ማረፊያዎች	-15104
▁ከመድረሱ	-15105
▁የሚወስዱ	-15106
ንዳል	-15107
▁የሀብት	-15108
▁ለኔ	-15109
▁ፍተሻ	-15110
▁ችለዋል።	-15111
▁የሮማኒያ	-15112
▁ለረ	-15113
▁ሊያገለግል	-15114
▁በበርሊን	-15115
▁ወርሃዊ	-15116
ቴንስ	-15117
▁ተንኮ	-15118
▁ሀዋሳ	-15119
▁የተከበበ	-15120
▁ለቀጣዩ	-15121
▁ካፌ	-15122
▁ጎድ	-15123
▁በሲድኒ	-15124
▁በሌለበት	-15125
▁የሚከናወኑ	-15126
▁700	-15127
▁መደብሮች	-15128
▁ወንጀለኛ	-15129
▁መቆም	-15130
▁እስከሞተ	-15131
▁የሚቀርቡ	-15132
▁ፌዴራ	-15133
ውነቱ	-15134
▁አመልክተዋል።	-15135
▁የጀመሩ	-15136
ነድ	-15137
ft	-15138
▁ሙሴ	-15139
▁ፕሌ	-15140
▁እምነቶች	-15141
▁የሚካሄደው	-15142
▁ጄሰን	-15143
▁ይሁኑ	-15144
▁ያውቃል	-15145
በዚህም	-15146
▁በሙቀት	-15147
▁ተላላፊ	-15148
▁ታሪካ	-15149
▁የዲላ	-15150
ምበርግ	-15151
▁ታኅሣሥ	-15152
▁እጣ	-15153
▁ወንበዴዎች	-15154
ጆቿ	-15155
▁አንገ	-15156
▁Tw	-15157
▁ክለቡን	-15158
ራሚ	-15159
▁ከፌ	-15160
▁ስፔክትረም	-15161
▁መግደል	-15162
▁አስኪያጁ	-15163
▁የተገኙትን	-15164
▁ቴክኖሎጂዎችን	-15165
.9	-15166
▁ኢዮ	-15167
▁መቀየር	-15168
▁ኮንፈረን	-15169
▁ከሳን	-15170
▁በኅ	-15171
ዴፓ	-15172
▁ተከታታዮች	-15173
▁የተጨ	-15174
▁በዝ	-15175
▁የፍለጋ	-15176
▁ሲቃ	-15177
▁በመደ	-15178
ረጅ	-15179
▁ጠየቀ።	-15180
▁ጥላሁን	-15181
▁የሚያቀርብ	-15182
▁ሮጀርስ	-15183
▁እኩልታዎች	-15184
▁ሲሞ	-15185
▁የመምህራን	-15186
ላንካ	-15187
▁ሰለባዎች	-15188
▁የባለቤትነት	-15189
በረታታ	-15190
ካኒካዊ	-15191
▁የተያዘው	-15192
▁የብሔር	-15193
▁ሆነን	-15194
________	-15195
▁በመቅ	-15196
ሊዮት	-15197
▁ቀረጻ	-15198
▁>	-15199
ስተናግድ	-15200
ካሂድ	-15201
▁ሜል	-15202
▁የወንዝ	-15203
▁የላቦራቶሪ	-15204
▁ጎልፍ	-15205
▁ክሬዲት	-15206
▁ድሃ	-15207
▁ቢችልም	-15208
▁የስብ	-15209
▁በተሰጠው	-15210
▁ማሟያ	-15211
ብሩክ	-15212
▁ለውጭ	-15213
ወዛ	-15214
ችሉት	-15215
▁መሸጥ	-15216
ሄን	-15217
▁ተገኝተዋል።	-15218
▁ፍሪድ	-15219
▁ይጠናቀቃል	-15220
▁ማኅበራት	-15221
ማንን	-15222
▁የአቅርቦት	-15223
ጊል	-15224
ካቸው	-15225
▁ለማስታወስ	-15226
▁በጀርባ	-15227
ኮሳ	-15228
▁የተነደፉ	-15229
▁አለመቻ	-15230
▁ፖስታ	-15231
▁በተመረ	-15232
▁ንዝረት	-15233
▁አዘጋ	-15234
ናታ	-15235
ልኬት	-15236
መኔ	-15237
▁ዜጎ	-15238
▁የሎስ	-15239
ዋስው	-15240
ገኘቱ	-15241
▁ጨው	-15242
ከፈል	-15243
መረምር	-15244
▁በመድረክ	-15245
▁ጸጋ	-15246
ባልደረባ	-15247
▁ነቲ	-15248
▁ሱሪ	-15249
▁ቆንስ	-15250
▁ኖርዌይ	-15251
▁ለማሳመን	-15252
▁2-1	-15253
ህዴድ	-15254
▁ዘመድ	-15255
ጄን	-15256
ስትሪክቱ	-15257
▁ባያ	-15258
▁የተላከ	-15259
ዲስት	-15260
▁በሚተ	-15261
ቡም	-15262
▁የሚሳተፉ	-15263
▁ጨምረዋል	-15264
ስርዓት	-15265
ንደፍ	-15266
ነቴ	-15267
ዮንግ	-15268
▁እይ	-15269
ደለ	-15270
▁ወንጌ	-15271
▁የተሰየመው	-15272
▁በመክፈት	-15273
▁ክፉኛ	-15274
▁ተሰማው	-15275
▁ኮስት	-15276
▁የመዋኛ	-15277
▁ተሰብስበዋል	-15278
▁ኦባ	-15279
ለታ	-15280
▁ብርጭቆ	-15281
▁ተማሪዎቹ	-15282
▁ተከራይ	-15283
ዝምታ	-15284
▁ድጋፍን	-15285
▁ሐይቆች	-15286
▁ፈለክ	-15287
▁አከናውኗል	-15288
▁ሻምፒዮናን	-15289
▁አልተገኘም	-15290
ቋሙ	-15291
▁ነፃነትን	-15292
▁የፌስቡክ	-15293
▁ተጨዋቾች	-15294
▁(190	-15295
▁የሚደረግበት	-15296
▁ጡር	-15297
▁በወቅ	-15298
▁የስም	-15299
▁ፀጋ	-15300
▁የዳን	-15301
ኩኝ	-15302
ቲዝም	-15303
▁ተኝ	-15304
▁በመሰ	-15305
▁ፒክ	-15306
▁ይወክላሉ	-15307
ባበሩ	-15308
▁መለዋወጫ	-15309
▁ስድስተኛው	-15310
ዋም	-15311
▁ለማመንጨት	-15312
▁ተበታተነ	-15313
▁የተከናወነ	-15314
▁ካቶሊ	-15315
▁ዌይን	-15316
▁በአረብ	-15317
▁ቁስል	-15318
▁እንዲሄድ	-15319
ምባብ	-15320
▁በኦስትሪያ	-15321
▁ሞባይል	-15322
▁ያካተቱ	-15323
▁ብም	-15324
▁ጣሊያ	-15325
ፈርስ	-15326
IL	-15327
▁ሙሽ	-15328
▁ከተሰ	-15329
▁የፊፋ	-15330
▁ልብሶችን	-15331
▁በኮሪያ	-15332
ኒዝ	-15333
▁አቅርቦቶች	-15334
ae	-15335
▁1902	-15336
▁ከስልጣን	-15337
▁የሚወጣ	-15338
▁መፈክር	-15339
▁እንደሚደረግ	-15340
▁ማላ	-15341
▁ይገመግ	-15342
▁ያልተሳካ	-15343
▁አይሆንም።	-15344
▁ሪፐብሊካኖች	-15345
▁ማደራጀት	-15346
ሲሊ	-15347
▁በፀረ	-15348
ጠች	-15349
▁መገን	-15350
▁ለመግታት	-15351
▁::	-15352
ድረውን	-15353
▁መኖራቸው	-15354
▁ጂኦግራፊ	-15355
▁ፍሰቶች	-15356
▁የዋለ	-15357
▁እየሠራ	-15358
▁ይር	-15359
▁ማስቀመጥ	-15360
▁ሕዝብን	-15361
▁የሚጠቀም	-15362
▁ጠቁመው	-15363
ከለው	-15364
ቱስ	-15365
▁አዙ	-15366
▁ብስክሌ	-15367
ሰሱ	-15368
▁ኮሮና	-15369
▁በዳን	-15370
▁በማድረጉ	-15371
ብና	-15372
ሎቻቸው	-15373
▁እንዳይሆን	-15374
ደመ	-15375
▁ሳተላይት	-15376
ዋጉ	-15377
▁97	-15378
▁ካፒታ	-15379
ኩራ	-15380
▁ወንድሞ	-15381
▁ታካሚዎችን	-15382
▁ካባ	-15383
▁መለያዎች	-15384
▁የጥናቱ	-15385
ርጋኒክ	-15386
▁የማዘጋጃ	-15387
▁ትርዒቶችን	-15388
ሜኑ	-15389
▁ከቀኑ	-15390
▁ይጨ	-15391
▁Ab	-15392
▁እጁን	-15393
ሉ፣	-15394
▁ለአደጋ	-15395
▁በአገልግሎት	-15396
ሄደው	-15397
▁ማኑ	-15398
▁ማሰልጠኛ	-15399
▁ከስምንት	-15400
▁ቫዮ	-15401
▁ተከሰተ	-15402
ዋህ	-15403
ሣሪያ	-15404
ቷል፡፡	-15405
▁በላቲን	-15406
ናፍ	-15407
ጓይ	-15408
▁እሳ	-15409
እል	-15410
ጅና	-15411
▁የመስቀል	-15412
▁የሚፈልግ	-15413
▁ተጭኗል	-15414
▁ማሃ	-15415
▁ከሩሲያ	-15416
▁ስፍራው	-15417
▁የሆነችውን	-15418
▁ነቀርሳ	-15419
ርቲስ	-15420
▁የስርጭት	-15421
▁ዘልቆ	-15422
▁1870	-15423
ሐዊ	-15424
▁ቴነሲ	-15425
ፖሊዮን	-15426
ሜይ	-15427
ውቀው	-15428
▁ሉሲ	-15429
▁ትንበያዎች	-15430
▁የምሽት	-15431
▁በጎንደር	-15432
▁ዘውድ	-15433
▁አጽናፈ	-15434
▁ፕሬዝዳንቱ	-15435
AN	-15436
▁ኢንተርኔት	-15437
ss	-15438
▁ይለወጣል	-15439
ዕለ	-15440
▁፦	-15441
▁በአና	-15442
▁እናገኛለን	-15443
▁የደረሱ	-15444
ረፍተ	-15445
▁by	-15446
▁እንዲችሉ	-15447
ካድ	-15448
▁የሜትሮ	-15449
▁110	-15450
▁ተዳምሮ	-15451
ጸያፊ	-15452
▁በልማት	-15453
▁ስታድ	-15454
▁ሶሪያ	-15455
▁ማኔጅመንት	-15456
▁ይማ	-15457
መዝ	-15458
▁ሲምፎኒ	-15459
▁አስተምህሮ	-15460
ቀራረብ	-15461
▁እንባ	-15462
▁የወደፊቱን	-15463
ው።	-15464
▁ማያያዣ	-15465
ቫስ	-15466
▁ምድጃ	-15467
▁ተብሎም	-15468
▁ለሞት	-15469
▁invol	-15470
▁1907	-15471
▁በዐ	-15472
▁ነገረው	-15473
▁የተረፈ	-15474
▁ኢንጂነር	-15475
ሜይል	-15476
ጎና	-15477
▁የተከሰቱ	-15478
ያለን	-15479
▁ድምፆችን	-15480
ወርወ	-15481
ሪስቶል	-15482
የታቸውን	-15483
▁የአከባቢውን	-15484
▁ማዳበሪያ	-15485
▁እንዲሳተፉ	-15486
▁ሐሰተኛ	-15487
ፕቲስት	-15488
▁የሚያሳየው	-15489
▁በማሻሻል	-15490
▁እስረኞችን	-15491
▁ሆነዋል።	-15492
ዜና	-15493
52	-15494
▁ቀጥለዋል	-15495
ሲዲ	-15496
▁ቻርሊ	-15497
▁ወስደው	-15498
▁የሚስማሙ	-15499
▁በተከሰተ	-15500
▁ተፈጽ	-15501
▁ጋርም	-15502
▁AI	-15503
ኒቱ	-15504
▁ዝውው	-15505
▁አክሊል	-15506
▁የሚናገሩ	-15507
▁71	-15508
▁መባ	-15509
▁እንደሆን	-15510
▁የሚከተለው	-15511
▁አይደለም፤	-15512
▁አለበለዚያ	-15513
ቲና	-15514
ቪው	-15515
ጩት	-15516
▁ቀዳማዊ	-15517
▁ተጠቅመው	-15518
▁መስሎ	-15519
▁ከህንድ	-15520
▁1904	-15521
▁ህይወታቸውን	-15522
▁ባለመቻላቸው	-15523
▁ድርድ	-15524
ደገፉ	-15525
▁የማኑፋክቸሪንግ	-15526
▁የሚመሩ	-15527
▁የአያት	-15528
ግሊ	-15529
▁የዝግመተ	-15530
▁ባለሞ	-15531
ase	-15532
▁ቅጥር	-15533
▁ዓይነቶችን	-15534
ቡርግ	-15535
▁ክሩዝ	-15536
▁ትናገራለች	-15537
ራጥ	-15538
190	-15539
ረጠው	-15540
▁ይወዳ	-15541
ራዝ	-15542
ደሰተ	-15543
▁አመሰ	-15544
▁የጨው	-15545
ንቀሳቀሳ	-15546
▁ልጆቻቸው	-15547
▁ድርጊቱ	-15548
▁ስኮላርሺፕ	-15549
ጋፈጥ	-15550
ሶፍት	-15551
ብራይስ	-15552
▁1-0	-15553
▁ዳይሬክቶሬት	-15554
▁ተወለ	-15555
▁ተገናኙ	-15556
▁የልብስ	-15557
▁የተሽከርካሪ	-15558
ደፍ	-15559
▁ቁልቁ	-15560
▁የሚቃ	-15561
▁ሙዚየሞች	-15562
▁ዋርድ	-15563
ንዶውስ	-15564
ገቡት	-15565
▁ቅርበት	-15566
CT	-15567
▁በጠመንጃ	-15568
ኒስትሮች	-15569
▁ፀጥታ	-15570
▁ማተኮር	-15571
pt	-15572
▁አላገኘም	-15573
▁የማሰብ	-15574
▁የያ	-15575
▁ትኩሳት	-15576
▁በትኩረት	-15577
▁የመስጠት	-15578
▁ጢ	-15579
ሪያቸውን	-15580
▁መንገድን	-15581
ጣሉ።	-15582
ሎሞን	-15583
▁የሚያሰ	-15584
▁ሰነዶችን	-15585
▁የመንግሥ	-15586
▁እንደሚያደርጉ	-15587
ተኮሰ	-15588
ከራከር	-15589
▁ማጥቃት	-15590
ሊንከን	-15591
ሰቦቻቸው	-15592
ቬንዙዌላ	-15593
▁አበራ	-15594
▁መጸ	-15595
▁ሕዝቡን	-15596
▁በዝግጅቱ	-15597
▁የሚገር	-15598
ጠራቸው	-15599
▁ኢንስፔ	-15600
▁ያመላክ	-15601
ለመደ	-15602
▁የበለፀጉ	-15603
▁የተከሰተውን	-15604
ዱም	-15605
▁በዘላቂ	-15606
▁ይቆጠራሉ	-15607
▁እኩለ	-15608
▁የኮሮናቫይረስ	-15609
▁involved	-15610
▁አሰል	-15611
▁አካት	-15612
▁Feb	-15613
▁ማለቂያ	-15614
ፈሳዊ	-15615
▁ሄን	-15616
▁ማጠናቀቅ	-15617
▁ኦሮ	-15618
▁ከይ	-15619
▁ሕብረት	-15620
ዎንታዊ	-15621
ድትራንያን	-15622
▁ሄደው	-15623
▁ማረሚያ	-15624
▁ለመምታት	-15625
▁ከመስከረም	-15626
▁በባህል	-15627
▁የቦክስ	-15628
▁የቦስተን	-15629
▁ተሸካሚዎች	-15630
▁78	-15631
▁የሆስፒታል	-15632
ደራሉ	-15633
ትሬ	-15634
▁ዩክሬን	-15635
56	-15636
▁ቤር	-15637
▁የፕላዝማ	-15638
ላንድስ	-15639
▁ታድ	-15640
▁የድርጅ	-15641
▁ጆኒ	-15642
▁ምጣኔ	-15643
▁ሶሻሊስት	-15644
ቋቸው	-15645
▁ፈርናን	-15646
መሰረት	-15647
▁የደንበ	-15648
▁ኬቪን	-15649
ፒር	-15650
▁ገንብቷል	-15651
▁በሚገኙት	-15652
▁የጉዳት	-15653
▁አይስ	-15654
ዘገብ	-15655
▁ሲሞክሩ	-15656
▁ካርቦን	-15657
ጂያን	-15658
▁79	-15659
/0	-15660
የፍ	-15661
መሰግና	-15662
▁ስታዲ	-15663
▁መተላለ	-15664
▁የመራባት	-15665
▁ቀስቃሽ	-15666
▁እንደሚቀጥል	-15667
▁የፖርቱጋል	-15668
ቃድ	-15669
▁ድምፃዊ	-15670
▁አሰልጣኙ	-15671
▁የጅ	-15672
▁ሦስቱም	-15673
▁ኦብ	-15674
▁በጊዜያዊ	-15675
▁ጉባኤው	-15676
▁ከአም	-15677
ማግኔቲክ	-15678
▁በመኖሩ	-15679
ፍራው	-15680
▁በኦክስፎርድ	-15681
▁ግለሰቡ	-15682
▁ጥይቶችን	-15683
ምቢያ	-15684
ጓቸው	-15685
▁(6	-15686
▁አሳፋሪ	-15687
▁al	-15688
▁በስፖርት	-15689
▁NBA	-15690
ጌን	-15691
▁የጆርጂያ	-15692
▁ከራሱ	-15693
▁ስኩዌር	-15694
▁ኦንታሪዮ	-15695
▁በፔንሲልቬንያ	-15696
ike	-15697
▁ብራንድ	-15698
▁የመዳብ	-15699
▁ኅብረተሰብ	-15700
▁አምዶች	-15701
▁የጂኦሎጂ	-15702
▁130	-15703
▁የኤስ	-15704
▁74	-15705
▁የአንደኛ	-15706
▁በሆንግ	-15707
▁ባይደን	-15708
▁የዚያ	-15709
▁በመጫን	-15710
▁መሠ	-15711
▁ፍራፍሬ	-15712
▁ሽንፈ	-15713
▁እንደነበረች	-15714
ብሊክ	-15715
▁ባድ	-15716
▁ሽማግሌዎች	-15717
▁ቦስተን	-15718
▁የተዘጋጀው	-15719
ውለው	-15720
ላስካ	-15721
ኒስቶች	-15722
▁በቆር	-15723
ame	-15724
▁ተመለሰ።	-15725
▁ለአን	-15726
በቀ	-15727
▁በመርከብ	-15728
▁ለጎ	-15729
▁የሚከተለውን	-15730
ቲዮ	-15731
ዛይም	-15732
ያልተ	-15733
▁2-0	-15734
ቪያን	-15735
▁ተችሏል።	-15736
▁ተቀምጦ	-15737
▁ፓራሊምፒክ	-15738
ቀላቀለ	-15739
▁ታየች	-15740
▁በተማሪዎች	-15741
▁ግራፍ	-15742
▁100,000	-15743
▁በአዋ	-15744
▁ስብሰባው	-15745
▁በርሊን	-15746
▁የሚተዳደሩ	-15747
አማ	-15748
▁ተቋርጧል	-15749
▁ሜዳው	-15750
▁የማጣቀሻ	-15751
▁ሻህ	-15752
▁ተመልካች	-15753
▁ለማስቀረት	-15754
▁ኮሚቴዎች	-15755
ሐመድ	-15756
▁መልክዓ	-15757
▁በተን	-15758
▁ቪዲዮዎች	-15759
▁ምልልስ	-15760
▁ልማትና	-15761
▁አስተባብ	-15762
▁የናይጄሪያ	-15763
▁ሰፋሪዎች	-15764
▁በማሳቹሴትስ	-15765
-16	-15766
▁ሊጋ	-15767
▁ማለፊያ	-15768
▁የምዕራባውያን	-15769
54	-15770
▁ጽንፈ	-15771
▁ካርሎስ	-15772
ቴዎስ	-15773
▁ከሰባት	-15774
▁ሀውስ	-15775
▁ቅሌት	-15776
▁መፍትሄዎችን	-15777
▁በቅን	-15778
ከማቹ	-15779
ለምን	-15780
▁ኢማ	-15781
▁ፈጣሪዎች	-15782
▁ጋይ	-15783
▁በሌለው	-15784
▁ኮረብታዎች	-15785
▁አዘገ	-15786
ርሃት	-15787
▁የትኩረት	-15788
▁ተገኝቶ	-15789
ነበሩ	-15790
▁የኮንግረስ	-15791
ዊዚያና	-15792
▁ዴይሊ	-15793
▁አቁም	-15794
▁ይገናኛ	-15795
ንሰንት	-15796
▁የተቀበለው	-15797
ሳውያን	-15798
▁በሽታው	-15799
▁ማስወረድ	-15800
▁ትውልዶች	-15801
▁በሞንት	-15802
▁ባለት	-15803
▁ኃይለማርያም	-15804
▁በፉ	-15805
▁እስካል	-15806
ዋንግ	-15807
une	-15808
▁ቡሌ	-15809
▁ለማስቀመጥ	-15810
▁ቅጽበት	-15811
▁ማድረጋቸውን	-15812
ነቃቃ	-15813
▁ቬጋስ	-15814
▁ፓርቲን	-15815
▁ሽማግሌ	-15816
▁ከኣ	-15817
▁የማጥ	-15818
▁አሳይቷል።	-15819
▁ቢሮው	-15820
▁አገልግሎቱ	-15821
የታ	-15822
▁ተጎድቷል	-15823
▁እንቅስቃሴው	-15824
▁ልብሶች	-15825
ite	-15826
▁ፏፏ	-15827
▁ላይ፣	-15828
▁ምርታማነት	-15829
አቀፍ	-15830
ርኪ	-15831
▁ልሂቃን	-15832
ጠቃሚዎች	-15833
ኩት።	-15834
ሜዳ	-15835
▁ከሻ	-15836
▁ያዕቆብ	-15837
2015	-15838
▁ወርልድ	-15839
▁በቢልቦርድ	-15840
ሪያቸው	-15841
▁የማዳን	-15842
▁በሸለቆ	-15843
▁አመልክቷል።	-15844
ጠመው	-15845
▁ያሻሽላል	-15846
ገኝነት	-15847
▁ይንቀሳቀሳ	-15848
▁ኮስ	-15849
▁1901	-15850
ወግድ	-15851
▁3)	-15852
▁ቆመ	-15853
ጀመርያው	-15854
ሳድ	-15855
▁የሚሸፍን	-15856
▁ሚሊሺያ	-15857
▁በቅድሚያ	-15858
▁አይጥ	-15859
ዎታል	-15860
ምባብዌ	-15861
▁ፈጠራዎች	-15862
▁በአፍጋኒስታን	-15863
▁በመጠባበቅ	-15864
▁ተሕ	-15865
ፍኑ	-15866
ጮቹ	-15867
.4	-15868
▁ፕሬዝደንት	-15869
▁የሚወክሉ	-15870
▁ህልም	-15871
▁በቬትናም	-15872
▁በኤፒ	-15873
▁አክቲቪስት	-15874
▁በምክር	-15875
ጓጅ	-15876
▁ለመንግስት	-15877
ሉሚኒየም	-15878
▁ንክኪ	-15879
ጋጠመው	-15880
▁በስዊዘርላንድ	-15881
ሞሎጂ	-15882
▁ገብርኤል	-15883
ሬቶች	-15884
ፍጣ	-15885
▁ግሽበት	-15886
ሥርዓት	-15887
▁ሲጀምሩ	-15888
ቲያን	-15889
▁በበጋ	-15890
ሊቶች	-15891
▁ጠበኛ	-15892
VID	-15893
▁ጂምና	-15894
DF	-15895
▁89	-15896
▁77	-15897
▁ቤቷ	-15898
▁የክስ	-15899
▁ስራው	-15900
▁አንጋፋ	-15901
ፅዓት	-15902
▁ጭቃ	-15903
በትም።	-15904
▁ውጤታማነትን	-15905
▁የተዘረዘሩ	-15906
▁ST	-15907
▁ቢኖራቸውም	-15908
ሪቢያን	-15909
▁አይቀርም	-15910
ሰቃቂ	-15911
▁ታንኮች	-15912
ከፈሉ	-15913
▁ከሴት	-15914
ሣር	-15915
▁96	-15916
▁እንዲቆም	-15917
ሮልድ	-15918
ንሲናቲ	-15919
▁መርዳት	-15920
ሊሲስ	-15921
▁ላንግ	-15922
ጫነ	-15923
▁አስታወቁ	-15924
▁እስክንድር	-15925
ስዕ	-15926
ፃሚዎች	-15927
▁የጠራው	-15928
▁የጌጣጌጥ	-15929
▁አብረን	-15930
▁ዮሴፍ	-15931
▁ፒን	-15932
▁Ap	-15933
▁ሊያሳድር	-15934
▁ኖርዝ	-15935
▁ማጠራቀሚያዎች	-15936
ጀው	-15937
▁መገለጫዎች	-15938
▁ከቆየ	-15939
የነ	-15940
▁በቅኝ	-15941
▁የሚያደርጉትን	-15942
ላለፉት	-15943
ሮቻቸውን	-15944
▁ምሳሌያዊ	-15945
▁ስሜትን	-15946
▁መታጠቢያ	-15947
▁ይመርጣሉ	-15948
57	-15949
▁ለቀጣይ	-15950
▁ግንዛቤዎች	-15951
▁የአካባቢውን	-15952
▁የተሾሙ	-15953
BI	-15954
▁ይገናኛል	-15955
▁በዘርፉ	-15956
▁ሓደ	-15957
ዳዊ	-15958
ከፈለው	-15959
▁ኦሪጅ	-15960
▁ለደን	-15961
▁ኢቫንስ	-15962
▁ዘመቻው	-15963
▁እንደማት	-15964
2007	-15965
▁በርካቶች	-15966
▁አብራሪዎች	-15967
▁ሂልስ	-15968
▁ኬር	-15969
anu	-15970
ዎችንና	-15971
▁ያለፈው	-15972
▁ተሰብስበው	-15973
▁የሚወጣው	-15974
▁ይወር	-15975
▁ሰጥተው	-15976
▁ይፋዊ	-15977
▁በኮሌጅ	-15978
ኮስቲክ	-15979
▁ማመሳሰል	-15980
▁ነበል	-15981
▁ህዝቢ	-15982
ውነ	-15983
ሎንግ	-15984
ኖራት	-15985
▁ቢሆኑ	-15986
▁ተገኘ	-15987
▁ፓርከር	-15988
ስቶችን	-15989
▁የሚያሳድረውን	-15990
▁እባ	-15991
▁እንዳልሆኑ	-15992
▁በነበሩበት	-15993
▁በማንሳት	-15994
▁የቧንቧ	-15995
ናብ	-15996
▁የቻር	-15997
▁ውቅር	-15998
ኑር	-15999
▁ቢባል	-16000
▁ሩት	-16001
az	-16002
ባረሩ	-16003
ገመግ	-16004
ጫወቱት	-16005
▁የጨለማ	-16006
▁ኤሌክትሮኒክስ	-16007
▁መዋቅሮችን	-16008
▁ሁነ	-16009
▁ያመር	-16010
▁ከች	-16011
res	-16012
▁Sc	-16013
ገገም	-16014
▁ልታ	-16015
▁ሰርጓጅ	-16016
▁ያልተስተካከለ	-16017
▁ያሳየ	-16018
ቫር	-16019
▁የሚጥ	-16020
▁አለኝ።	-16021
▁ፕሮዲዩሰር	-16022
ላቀቅ	-16023
ርባን	-16024
▁የዜጎች	-16025
▁የአውቶቡስ	-16026
▁የፊንላንድ	-16027
▁ተመድበዋል	-16028
▁በማዳበር	-16029
▁ወቅቱ	-16030
▁ዴላ	-16031
▁ፍፃሜዎች	-16032
▁ለማደስ	-16033
▁አክሲዮን	-16034
▁እሳቤ	-16035
▁ሮበርትስ	-16036
▁ዳሳሾች	-16037
▁ድርጊቱን	-16038
▁ሥጋት	-16039
▁ማባዛት	-16040
▁አስኪያጆች	-16041
▁ተስተካክለዋል	-16042
▁ኒል	-16043
▁ተስማምተዋል	-16044
▁በዌልስ	-16045
▁ካሮል	-16046
▁ግራፊ	-16047
PC	-16048
▁ልምድን	-16049
▁የነበረች	-16050
ትናንት	-16051
▁የዩኒቨርሲቲው	-16052
ሱል	-16053
▁አለብን።	-16054
▁ሴሚ	-16055
▁አተኩ	-16056
ሸከም	-16057
▁ሊታዩ	-16058
ዘመር	-16059
▁ሌይ	-16060
ym	-16061
▁የባት	-16062
▁የጎማ	-16063
▁መጨናነቅ	-16064
ቀኛ	-16065
▁ሽታ	-16066
▁ቤንጃሚን	-16067
ቴክስ	-16068
▁ማሰራጨት	-16069
▁መርጠዋል	-16070
▁ኢያን	-16071
▁የሊበራል	-16072
▁ለተወሰኑ	-16073
▁ባርባራ	-16074
▁ከመውጣቱ	-16075
▁ሬንጀ	-16076
▁ጉርሻ	-16077
▁ግስጋሴ	-16078
ጠቀሙባቸው	-16079
▁የሕገ	-16080
ሪኮ	-16081
▁ብሉዝ	-16082
ሺያን	-16083
▁አሳስበዋል።	-16084
ዘርባጃን	-16085
▁ሀይሎች	-16086
▁ተጠይ	-16087
▁በተወ	-16088
▁የሚካሄድ	-16089
▁ሆንግ	-16090
▁73	-16091
▁ለብሶ	-16092
▁ዎልፍ	-16093
ዮናዊ	-16094
▁መወርወ	-16095
▁ከነማ	-16096
▁ማግለል	-16097
▁በዮ	-16098
▁ነበረበት።	-16099
▁በክሪ	-16100
▁ሊሰ	-16101
▁ይወያያል	-16102
ኪል	-16103
▁ኬሪ	-16104
ኖሩን	-16105
▁ሸክም	-16106
▁በጫካ	-16107
▁ተግዳሮት	-16108
iss	-16109
ኤምሲ	-16110
▁አጠራጣሪ	-16111
ጀንስ	-16112
▁ግሬም	-16113
በእውነቱ	-16114
▁መግለጫዎችን	-16115
▁ሉዓላዊ	-16116
▁አላግባብ	-16117
▁በግንባታ	-16118
▁ማዕቀብ	-16119
ነታችንን	-16120
▁ከንግድ	-16121
በያው	-16122
▁82	-16123
NS	-16124
▁ፈጥረዋል	-16125
▁ኩፐር	-16126
▁አንባቢዎች	-16127
▁ውድድርን	-16128
▁ቁጥሩ	-16129
▁የክብደት	-16130
ጥና	-16131
▁ቀይሯል	-16132
▁በግለ	-16133
ስቲያን	-16134
▁ለጠቅላይ	-16135
ሪየር	-16136
ሻሻሉ	-16137
au	-16138
▁ኦፊሰር	-16139
▁ቁርጥራጮችን	-16140
▁በሞስኮ	-16141
▁ያቀፉ	-16142
▁ሲሰራ	-16143
▁ኦልድ	-16144
▁ስህተቶችን	-16145
▁ኤቲ	-16146
▁ደደ	-16147
▁መከላከ	-16148
▁የጀመሩት	-16149
▁ኤሮ	-16150
▁ያህሉ	-16151
▁ፈፅ	-16152
▁የሚይዝ	-16153
ኬይን	-16154
▁በኳ	-16155
▁ዩኒየን	-16156
▁እየተንቀሳ	-16157
▁ተጫውታለች	-16158
▁ከጃፓን	-16159
▁IV	-16160
▁በመቆ	-16161
ረኛው	-16162
የካ	-16163
▁ኮሊንስ	-16164
)..	-16165
▁በረራዎች	-16166
መታ	-16167
▁ኤከር	-16168
▁አንግ	-16169
▁የኮሌ	-16170
▁የሌሊት	-16171
▁በገበያ	-16172
▁አቋርጧል	-16173
▁በፓስፊክ	-16174
▁እየጨመሩ	-16175
▁የዋስትና	-16176
58	-16177
▁አምባገነን	-16178
▁ከሰሞኑ	-16179
▁የሚነሱ	-16180
ሃፍ	-16181
▁ከማር	-16182
▁በተፈጠረ	-16183
ግሮች	-16184
▁የፋይ	-16185
▁በአንደኛ	-16186
▁በመጽሐፉ	-16187
▁ያለበትን	-16188
ሪያም	-16189
▁ሰጠ።	-16190
▁የከባቢ	-16191
▁ሰላሳ	-16192
▁ልዕለ	-16193
የማይ	-16194
ግሎ	-16195
▁ቀጠና	-16196
▁ጊዜዎችን	-16197
▁ውሸት	-16198
▁ያስገድ	-16199
▁ሞራ	-16200
▁ዳኮታ	-16201
▁በማህበረሰቡ	-16202
▁በመለዋወጥ	-16203
ዬው	-16204
▁ከዋክብት	-16205
92	-16206
▁1903	-16207
▁ካውንስል	-16208
በመጀመሪያ	-16209
ዌት	-16210
▁በያ	-16211
ረደባቸው	-16212
▁ማዛባት	-16213
▁በመገኘት	-16214
▁በአጥ	-16215
ሊቫን	-16216
▁መርሃግብሮች	-16217
▁ዴስ	-16218
▁መስጊድ	-16219
▁ከዓመታት	-16220
ገሪቷ	-16221
ረዱት	-16222
▁ድፍረት	-16223
▁የሚወጡ	-16224
GBT	-16225
ከናውኑ	-16226
/2012	-16227
▁የፆታ	-16228
▁በእንስሳት	-16229
▁ተኮር	-16230
ከፈለ	-16231
▁መለኮታዊ	-16232
▁የሽፋኑ	-16233
ለአ	-16234
▁በኩባንያው	-16235
▁እየገሰ	-16236
▁Amharic	-16237
▁ይከለክ	-16238
?"	-16239
▁ፋብሪካው	-16240
ቻን	-16241
▁88	-16242
▁ጽፋለች	-16243
▁መስመርን	-16244
▁አዋጭ	-16245
▁የሚያደርገውን	-16246
▁ይፈስ	-16247
▁ነፍሳት	-16248
▁በኤፍ	-16249
▁ጉብኝቶች	-16250
▁ጥያቄን	-16251
▁ተመላሽ	-16252
ካስል	-16253
▁ሺዎች	-16254
ruary	-16255
▁መለወ	-16256
▁አማተር	-16257
▁የፈጠረ	-16258
▁ኢምፓየር	-16259
▁ከሁሉ	-16260
▁በተያዘው	-16261
▁አልበሙን	-16262
▁የህፃናት	-16263
▁አዝናኝ	-16264
ጻነት	-16265
በጣ	-16266
ኢህአዴግ	-16267
▁ባሕርይ	-16268
▁ግብጽ	-16269
▁የሚበልጡ	-16270
▁የተገለጹት	-16271
▁መላእክት	-16272
▁የቀረቡትን	-16273
▁ጉጉት	-16274
▁የወጪ	-16275
▁በመምጣት	-16276
▁አህጉራዊ	-16277
▁የተገደቡ	-16278
▁ሲወጡ	-16279
ሎቬ	-16280
▁አፈፃፀምን	-16281
▁የተረጋገጡ	-16282
ink	-16283
▁የታሰሩ	-16284
ብራስካ	-16285
▁ለቴ	-16286
▁ወይን	-16287
▁ለግን	-16288
▁ለራሳቸው	-16289
▁አልተሳ	-16290
▁ተጨምሯል	-16291
▁ማርሽ	-16292
▁በረንዳ	-16293
ከበ	-16294
▁ከወረ	-16295
▁እንዳገኘ	-16296
▁የፍላጎት	-16297
▁እንዲካሄድ	-16298
▁ለፊ	-16299
olog	-16300
መሳሳይ	-16301
▁ከአባ	-16302
▁ለማጣራት	-16303
ረረ	-16304
▁ዓቃቤ	-16305
▁እንድና	-16306
▁በአነስተኛ	-16307
▁ሪካ	-16308
ሰጡም	-16309
የሰው	-16310
▁ኮት	-16311
▁ከእኔ	-16312
▁ድህረ	-16313
▁በመፍራት	-16314
መሪያ	-16315
ዳይናሚክ	-16316
▁ተግ	-16317
▁ላንድ	-16318
▁ተቀብለው	-16319
▁ዝንጀሮ	-16320
ዲዎች	-16321
ካተቱት	-16322
▁ዕድሜያቸው	-16323
▁የኮንትራት	-16324
▁አይቻልም።	-16325
ጡበት	-16326
▁ያገኙት	-16327
ላለን	-16328
▁ምስላዊ	-16329
▁1/	-16330
▁አስቀድ	-16331
▁ኢብ	-16332
DA	-16333
ብኝት	-16334
▁ስዊዘርላንድ	-16335
ዲሁ	-16336
ጠንካራ	-16337
▁የመሠረተ	-16338
▁ጽሁ	-16339
▁ሀሰን	-16340
97	-16341
▁ሱልጣን	-16342
▁ከምስራቅ	-16343
EP	-16344
▁በማህበረሰብ	-16345
▁ሃል	-16346
▁እጁ	-16347
▁በእውቀት	-16348
▁የተመለሱ	-16349
▁የፈረስ	-16350
▁ሚላን	-16351
▁በሃይድሮ	-16352
ክሪፕት	-16353
ሪተ	-16354
▁ምርቱ	-16355
▁መጽሐፉን	-16356
ላስጎው	-16357
▁ሚቸል	-16358
▁መቅረብ	-16359
▁የቡድሂ	-16360
▁ወጥቷል	-16361
▁ሱዛን	-16362
▁በወያኔ	-16363
ዝግጅቱ	-16364
ኖሚ	-16365
ንስክ	-16366
▁ጨምረው	-16367
▁ቅይ	-16368
▁በሴል	-16369
ድፎርድ	-16370
▁ተአ	-16371
▁ግሎባል	-16372
▁አህጉር	-16373
▁የሊጉ	-16374
▁ያስተናግዳል	-16375
▁እስከተ	-16376
ላና	-16377
▁ለጤና	-16378
ሕንፃ	-16379
ጋሉ	-16380
ond	-16381
ላደል	-16382
▁ከጨረ	-16383
ምናልባት	-16384
▁ከወንዶች	-16385
▁ክርስት	-16386
▁ተገለፀ	-16387
sch	-16388
ቤይ	-16389
▁የብሄራዊ	-16390
▁ዑደቶች	-16391
▁February	-16392
▁በሚባል	-16393
▁ኬንታኪ	-16394
▁በልብ	-16395
▁ሞለኪውሎች	-16396
▁የቻለው	-16397
▁፳፻	-16398
ፆች	-16399
▁ክሱ	-16400
ሙድ	-16401
▁ህይወቱን	-16402
▁በሸክላ	-16403
▁ግሬግ	-16404
▁ብልጫ	-16405
ረጫ	-16406
▁ይሮ	-16407
▁የቡድኑን	-16408
▁መልቀቅ	-16409
▁ተቃወ	-16410
▁መመገብ	-16411
▁ውፅዓት	-16412
▁ዜናዎች	-16413
▁በማምጣት	-16414
ሃርት	-16415
▁አለማየሁ	-16416
▁ማስቆጠር	-16417
ቶሪያል	-16418
ብራይስጥ	-16419
▁ባታሊዮን	-16420
▁ገር	-16421
▁በሕዝቡ	-16422
▁የቁልፍ	-16423
▁የቀረው	-16424
ቅዱስ	-16425
▁የሼ	-16426
ፃፈ	-16427
▁ንብረቶችን	-16428
▁ሲጫወት	-16429
▁ሰዎችም	-16430
▁በማካተት	-16431
አና	-16432
▁ማውጫዎች	-16433
▁በመጥራት	-16434
ፐርስ	-16435
▁ባቀረበው	-16436
▁የተከበሩ	-16437
ቋም	-16438
▁98	-16439
▁ዝግጅቱ	-16440
▁ተተክተዋል	-16441
▁በተመጣጣኝ	-16442
▁ከሁለቱም	-16443
▁ለማበረታታት	-16444
▁በኦሃዮ	-16445
▁በዱር	-16446
▁ድሎችን	-16447
▁ለሩ	-16448
▁ለፒ	-16449
▁2:	-16450
▁ሳሊ	-16451
▁ስላላቸው	-16452
▁በመንገዱ	-16453
▁ሶማሊያ	-16454
▁ካሜሮን	-16455
▁ተናግራለች	-16456
▁ጂኦግራፊያዊ	-16457
▁ሳይሆን፣	-16458
▁መከልከል	-16459
▁ኦስትሪያ	-16460
▁ያጠፋ	-16461
▁በመቁጠር	-16462
▁የሚደ	-16463
ቷቸው	-16464
▁ዝምድ	-16465
▁ኩባንያዎችን	-16466
▁ዝላይ	-16467
▁በፀሐይ	-16468
▁የሚገድ	-16469
ጽም	-16470
▁አልታ	-16471
ሌተር	-16472
▁ተከራክሯል	-16473
ምፊ	-16474
ለውጡ	-16475
▁በሶቪየት	-16476
ሬሽ	-16477
▁ለተማሪዎች	-16478
▁ሳላ	-16479
▁በየት	-16480
▁ለማሰባሰብ	-16481
▁ወረዳው	-16482
▁ተከራክረዋል	-16483
▁ከሸ	-16484
▁ተሸፍ	-16485
▁በቀረ	-16486
▁ጥረቶችን	-16487
▁አለመታደል	-16488
ax	-16489
▁ለማጓጓዝ	-16490
1,	-16491
▁ይቆጣጠ	-16492
መናል።	-16493
▁ዝንጀሮዎች	-16494
▁ይሳተፋሉ	-16495
▁ግብዓ	-16496
▁እወዳ	-16497
▁ኩር	-16498
▁እንዲወስዱ	-16499
▁ኮንስትራክሽን	-16500
ቀጦች	-16501
ካናማ	-16502
▁ኦፕሬተሮች	-16503
▁የሚወሰነው	-16504
ል፣	-16505
▁በመወሰን	-16506
sp	-16507
▁ተጎታች	-16508
▁የተጫወቱ	-16509
▁ኩክ	-16510
▁ሪቨር	-16511
ስቸጋሪ	-16512
ከዋል	-16513
▁ማሰባ	-16514
ላርድ	-16515
▁የመስኖ	-16516
▁ለማቋረጥ	-16517
ቬይ	-16518
ድሊ	-16519
▁መቐለ	-16520
ቀነባበር	-16521
▁አጥጋቢ	-16522
ኒዚያ	-16523
▁ዕውቅና	-16524
▁ለክለቡ	-16525
▁ከስራ	-16526
▁መዝሙሮች	-16527
▁የሀገሪቱን	-16528
ፀዋል	-16529
ቫሪያ	-16530
▁በጎዳና	-16531
▁የፕሬዚዳንት	-16532
▁ተሸላሚ	-16533
▁ከቀረ	-16534
▁ተወስዶ	-16535
▁የተደበቀ	-16536
መርጥ	-16537
▁መሪዎችን	-16538
ደረጋቸው	-16539
▁ኦፕሬተር	-16540
▁ባህልን	-16541
▁በፐር	-16542
ደቱን	-16543
ሕይወት	-16544
ጮህ	-16545
▁ተፈናቃ	-16546
▁ምርጫውን	-16547
▁ቤተክርስቲያኑ	-16548
GA	-16549
ላችንን	-16550
▁ተከፍቷል	-16551
▁ዕድሜው	-16552
▁ተመለከተ	-16553
▁የመንገደኞች	-16554
ግስት	-16555
▁ጥሰቶች	-16556
▁የዲጂታል	-16557
▁ለማስላት	-16558
▁1860	-16559
ወስን	-16560
▁ብሄረሰቦች	-16561
ቭዥን	-16562
▁ሊጎች	-16563
▁የእርሷ	-16564
▁ሲኖር	-16565
▁ቢታ	-16566
▁በመኖራቸው	-16567
▁1898	-16568
▁የማክ	-16569
▁መሰረዝ	-16570
▁በመፍቀድ	-16571
ept	-16572
ንቲባው	-16573
ork	-16574
▁በተጨባጭ	-16575
▁ያስከትላሉ	-16576
▁በናይጄሪያ	-16577
▁አስነስቷል	-16578
▁አርጀንቲና	-16579
የግ	-16580
▁ይቆጣጠራል	-16581
▁ክሊኒክ	-16582
▁ማጥመድ	-16583
ሳዎች	-16584
▁ከወዲሁ	-16585
HA	-16586
▁ናሙናዎችን	-16587
▁ተጋባ	-16588
▁ማጠናቀቂያ	-16589
▁ጎጆዎች	-16590
▁ጠፋ	-16591
ሪቱ	-16592
▁መበለት	-16593
▁ደብዛ	-16594
ቀንሱ	-16595
▁ፖሊሲን	-16596
▁ብልጽግና	-16597
▁የሚካሄዱ	-16598
▁ለፊልሙ	-16599
▁ያቋርጣል	-16600
▁በመቁረጥ	-16601
ሌላ	-16602
▁በመጣስ	-16603
▁ነች።	-16604
▁ይዋ	-16605
▁ሸማቾች	-16606
▁ለአከባቢው	-16607
▁አያሌው	-16608
▁አካዳሚክ	-16609
▁ኤርትራውያን	-16610
▁ታዛቢዎች	-16611
▁እማ	-16612
▁ስካይ	-16613
▁የሳይበር	-16614
▁ይለብ	-16615
ደገፈ	-16616
▁መሆኑም	-16617
ብረዋል	-16618
▁ፈጥሯል	-16619
▁ኀ	-16620
▁ከኃ	-16621
ቱር	-16622
▁እውነተኛው	-16623
ፈፀሙ	-16624
▁ያዙ	-16625
▁ተቀብለዋል	-16626
▁መጣጥፎችን	-16627
▁እንደገለጸው	-16628
ጸን	-16629
ern	-16630
▁ማወዳደር	-16631
▁በማስተካከል	-16632
▁ተስተው	-16633
▁ኒውዚላንድ	-16634
ሎፕ	-16635
መጣት	-16636
▁ከቡድን	-16637
▁አሳም	-16638
ሙያዎች	-16639
ላጆች	-16640
▁ራጃ	-16641
▁ይመክራል	-16642
▁ፕሮቶኮ	-16643
▁መዝገቦችን	-16644
ance	-16645
በት።	-16646
▁ብልጭታ	-16647
▁ተጀምረዋል	-16648
▁ማቲው	-16649
▁በንግ	-16650
▁ሻንጣ	-16651
▁የእፅዋት	-16652
▁ብልህነት	-16653
▁ይጓዛሉ	-16654
▁ዳሰሳ	-16655
▁ዋረን	-16656
▁የአኒ	-16657
▁ከመጥ	-16658
▁ከፈተ	-16659
ቃስ	-16660
ቴሪያን	-16661
▁ኦስቲን	-16662
ሰሉ	-16663
▁ምዕራፎች	-16664
▁ይሄንን	-16665
▁አውጪዎች	-16666
▁የተለቀቀው	-16667
ቀሳቃሽ	-16668
▁ጃዝ	-16669
▁በማካሄድ	-16670
▁ያነጣ	-16671
ማና	-16672
▁ያዘጋጃል	-16673
IP	-16674
ጥታው	-16675
▁የተጎዳ	-16676
የዋ	-16677
▁የስፔክት	-16678
▁የተገለ	-16679
▁በመርዳት	-16680
ቻለም	-16681
▁ቻምበር	-16682
▁በስምንት	-16683
ok	-16684
▁ያረጋግጣሉ	-16685
ጋቡ	-16686
ወሃ	-16687
ings	-16688
ution	-16689
........	-16690
ኮንድ	-16691
▁አውጭው	-16692
ጥቁር	-16693
▁10%	-16694
▁መወገድ	-16695
ሃና	-16696
ሳቁስ	-16697
ጨረስ	-16698
▁ሙሬይ	-16699
▁ከየካቲት	-16700
▁አልተሳካለትም	-16701
▁ጠቅሶ	-16702
▁የጨርቃ	-16703
▁መከታተያ	-16704
▁ክፍፍ	-16705
▁በመከታተል	-16706
ኩላር	-16707
▁ነገርግን	-16708
▁በሙያ	-16709
ቻር	-16710
የርን	-16711
አይኤስ	-16712
ሄል	-16713
▁ያየ	-16714
ምምነቱ	-16715
▁ፓኬ	-16716
▁የፊዚዮሎጂ	-16717
▁ለማስከበር	-16718
▁ዊሊ	-16719
▁የተመሩ	-16720
ኒኮች	-16721
▁ቴራፒ	-16722
▁ከስር	-16723
ጤን	-16724
▁የአካባቢያዊ	-16725
▁አስችሏቸዋል	-16726
▁አሰበ	-16727
▁የሴራ	-16728
▁ካንሳስ	-16729
ሏቸውን	-16730
▁አድርገናል	-16731
▁በፍፁም	-16732
▁ጥቅማ	-16733
▁ተተግብ	-16734
▁አይመስልም	-16735
▁የሽንት	-16736
▁ሴናተሮች	-16737
▁ጀነራል	-16738
▁ከአዲሱ	-16739
▁በተመረጡ	-16740
▁አይን	-16741
ሌር	-16742
ተዋል፡፡	-16743
▁የማዳ	-16744
▁የሚያመለክቱ	-16745
▁ለማጥቃት	-16746
▁ሰሪዎች	-16747
▁እንገል	-16748
▁የፎቶግራፍ	-16749
ቀፉ	-16750
▁ያንፀባርቃል	-16751
ባበረ	-16752
▁ሚኔሶታ	-16753
▁ፏፏቴ	-16754
▁ፕሬዚደንት	-16755
rans	-16756
.6	-16757
itter	-16758
▁የአንደኛው	-16759
▁ክበ	-16760
▁የሚኖሩት	-16761
▁አለባት	-16762
ኝም።	-16763
▁የሚስብ	-16764
ሸንፉ	-16765
ዝሃምፕተን	-16766
ባራቂ	-16767
▁የጃዝ	-16768
▁(17	-16769
▁ሚሼል	-16770
▁ተለቀቁ	-16771
▁መያዙን	-16772
▁አይደለሁ	-16773
ቶቿ	-16774
▁አረፋ	-16775
▁መከሰ	-16776
▁የቬትናም	-16777
▁WW	-16778
▁ፓው	-16779
▁የተደረገበት	-16780
▁ሂሳ	-16781
ኮንዳ	-16782
▁መስቀ	-16783
▁የሂንዱ	-16784
በሰበው	-16785
▁የሚወክል	-16786
▁የመነጨ	-16787
▁መላም	-16788
▁ያደርገዋል።	-16789
ጣጣም	-16790
▁በሠራተኛ	-16791
▁ቼክ	-16792
▁የአንድን	-16793
▁ድሬዳዋ	-16794
▁-1	-16795
▁አሸነፉ	-16796
▁ቆርጦ	-16797
ጃም	-16798
▁ኪል	-16799
▁ብድ	-16800
መንግሥት	-16801
▁ኮሙኒኬሽን	-16802
ሰዎች	-16803
▁መሥራ	-16804
ራይስ	-16805
ቧቸው	-16806
▁ቦን	-16807
▁ጥራዞች	-16808
ጻቸው	-16809
▁ሌዲ	-16810
ግራፊክ	-16811
▁ሎክ	-16812
▁የኦሪጂናል	-16813
▁ፎረም	-16814
▁የመንግስትን	-16815
▁በሰውነት	-16816
▁ያቀረበውን	-16817
ፒድ	-16818
▁የዝውውር	-16819
▁አርኪኦሎጂ	-16820
▁ከልብ	-16821
ሰጠም	-16822
ትከል	-16823
ርክር	-16824
▁እንመለከ	-16825
▁ሻለቃ	-16826
▁በታላቅ	-16827
ሮብ	-16828
▁የአንጀት	-16829
▁በማመን	-16830
ሳይል	-16831
▁የነጭ	-16832
ሻም	-16833
ንዲት	-16834
▁ቪዲዮው	-16835
▁የክልሉን	-16836
▁የዳይሬ	-16837
ይልድ	-16838
ከላካይ	-16839
▁ተመራማሪው	-16840
▁ቸ	-16841
▁ዕርዳታ	-16842
ሰባቸው	-16843
51	-16844
▁ፋሲል	-16845
▁የተገለፀው	-16846
▁ለማንበብ	-16847
ደትን	-16848
▁በረሃ	-16849
▁በቶሮንቶ	-16850
ጥሎ	-16851
▁ግድያዎች	-16852
▁ትችላለህ	-16853
▁እስከሞተበት	-16854
▁ሕንዶች	-16855
▁ስላልተ	-16856
▁መስጠቱን	-16857
ራልፍ	-16858
ክሲን	-16859
▁የቤልጂየም	-16860
ሚያስ	-16861
▁የመጫወቻ	-16862
▁from	-16863
ምባገነ	-16864
▁በትብብር	-16865
▁ፍጻሜ	-16866
የድ	-16867
▁ተርጓ	-16868
ምፓስ	-16869
▁የፕሮጀክቱ	-16870
ash	-16871
ቶሪዎች	-16872
መልካቾች	-16873
▁ተዘጋጅቶ	-16874
▁የኳንተም	-16875
▁ቁሳዊ	-16876
▁ልጆቻቸውን	-16877
▁በሚታ	-16878
▁ዋዜማ	-16879
▁አልባሳት	-16880
▁በመገንዘብ	-16881
▁በቪክቶሪያ	-16882
▁ባልደረቦቹ	-16883
.8	-16884
▁የጻፈ	-16885
▁በሚወስደው	-16886
▁የተጨመ	-16887
▁ለቀጣዮቹ	-16888
▁ወረቀቶችን	-16889
▁ወራ	-16890
▁ሮድሪ	-16891
▁ለተጨማሪ	-16892
▁ክሪስቲያን	-16893
ich	-16894
▁የመጠን	-16895
▁የደረሰባቸው	-16896
ረዝ	-16897
▁ያጋ	-16898
ለተ	-16899
ሲድ	-16900
isc	-16901
ከላከሉ	-16902
▁ይገልፃ	-16903
▁በሕገወጥ	-16904
▁ቻንስለር	-16905
ix	-16906
ዎቹም	-16907
▁አስፈፃሚዎች	-16908
▁ከመንግሥት	-16909
▁አውግ	-16910
▁ቅና	-16911
▁ማነስ	-16912
ታውስ	-16913
▁በሞተር	-16914
▁140	-16915
እውነተኛ	-16916
▁ሰላምታ	-16917
▁ሊከሰቱ	-16918
ኣብ	-16919
▁የሚገባውን	-16920
ሪታኒያ	-16921
ቀዝቀዝ	-16922
▁የማይቀር	-16923
▁በጻፈው	-16924
▁በተከሰተው	-16925
▁ኅዳር	-16926
▁ስለሚችሉ	-16927
ት፣	-16928
▁ሽግ	-16929
▁ያሸ	-16930
▁እነዚያን	-16931
ፕሊ	-16932
ቆጥር	-16933
ሳውንድ	-16934
▁ላክ	-16935
ile	-16936
▁ይኽ	-16937
▁የፍልስጤም	-16938
▁LGBT	-16939
ትንም	-16940
▁የአልባ	-16941
ታሮች	-16942
▁መዋኘት	-16943
▁ይመለከታሉ	-16944
ገስት	-16945
▁ሊዮና	-16946
▁ሞስኮ	-16947
▁ይገደ	-16948
▁የዴሞክራቲክ	-16949
▁ሪኮር	-16950
2018	-16951
▁ፍራንቻይዝ	-16952
▁ዲክ	-16953
ትሱ	-16954
ቀናጀ	-16955
▁ነበልባል	-16956
▁የሽልማት	-16957
▁ከውድ	-16958
ሥረት	-16959
ዝቦች	-16960
▁(4)	-16961
▁የተፋ	-16962
▁አብዛኞቹን	-16963
HS	-16964
▁በምዕራባዊው	-16965
▁እምቢ	-16966
▁የሙስሊም	-16967
ፍማን	-16968
▁በባዮ	-16969
▁ለማስታ	-16970
መላለ	-16971
▁በቤን	-16972
▁ማደግ	-16973
▁ቢደረግ	-16974
▁ፒየር	-16975
▁ሰርታለች	-16976
▁ያልተጠበቀ	-16977
▁በተባለ	-16978
▁አንድሬ	-16979
▁በሮያል	-16980
▁አገኙ	-16981
▁ከተፈጥሮ	-16982
▁ከትንሽ	-16983
▁የኢሚግሬሽን	-16984
ክስፒር	-16985
▁ad	-16986
▁መድረኩ	-16987
▁ናሽናል	-16988
▁አፍር	-16989
ሴንት	-16990
▁ትፈልጋ	-16991
ወድቁ	-16992
▁በውጤ	-16993
▁እባክ	-16994
▁ገዝቶ	-16995
▁በመሠረታዊ	-16996
ቅድስት	-16997
▁ተገናኝቶ	-16998
▁የበላይነትን	-16999
ቦላ	-17000
ለሁ፡፡	-17001
▁ከዛሬ	-17002
old	-17003
▁የእሽቅድምድም	-17004
▁ማዕድናት	-17005
▁ያስባል	-17006
▁ተኳሃ	-17007
ምባሳ	-17008
▁ሃይፐር	-17009
▁ለአንዳንድ	-17010
▁እየሰጠ	-17011
ፈጸመው	-17012
ፋሽ	-17013
▁ከማሳ	-17014
▁COVID	-17015
ቢቲ	-17016
ኬይ	-17017
▁ግላዊነት	-17018
▁የሚችሉትን	-17019
▁የተለጠ	-17020
▁ሊተገበር	-17021
▁ክህሎቶችን	-17022
▁with	-17023
▁ጥቂቶች	-17024
ቫኒ	-17025
▁የደረት	-17026
ሳሰበ	-17027
▁ዘመንን	-17028
▁ጭን	-17029
▁1899	-17030
ሠልጠን	-17031
▁አፋጣኝ	-17032
▁—	-17033
▁እግርኳስ	-17034
▁በሚኖርበት	-17035
▁የባር	-17036
ጽሔ	-17037
▁መርምሯል	-17038
▁ባሪያዎች	-17039
▁መነኮሳት	-17040
▁በሮማ	-17041
ፖችን	-17042
▁መለዋወጥ	-17043
yn	-17044
▁የእነሱን	-17045
▁ተሕዋስ	-17046
▁የሚያግ	-17047
ኾን	-17048
▁የተገነዘ	-17049
▁ምህዳር	-17050
ህማን	-17051
ገርስ	-17052
▁ከመስጠት	-17053
▁ከግል	-17054
▁ለማደራጀት	-17055
▁የቢቢሲ	-17056
▁የግሪን	-17057
ሪየስ	-17058
▁ለመዝጋት	-17059
▁ብሪቲሽ	-17060
▁የሚጫወቱ	-17061
▁ሾን	-17062
ሃርድ	-17063
▁ሞተች	-17064
?-	-17065
▁ፕሮፖዛል	-17066
▁የሚመነጨው	-17067
▁ገልጸዋል፡፡	-17068
▁ጠርዞች	-17069
▁በታሪካዊ	-17070
▁በኮምፒተር	-17071
▁ያውቅ	-17072
▁ያልተቋቋመ	-17073
▁አጥንቶች	-17074
ጠረጴዛ	-17075
▁የሚያተኩ	-17076
ገናኘው	-17077
ጠቃለል	-17078
ለቶችን	-17079
▁የናይት	-17080
▁መጣ።	-17081
▁ሊጨምር	-17082
▁አዘገጃ	-17083
▁እርግዝና	-17084
▁ከብራ	-17085
▁አስቀያሚ	-17086
▁ሂደትን	-17087
ፐን	-17088
ከዚያ	-17089
▁የቮ	-17090
ሰብኩ	-17091
ካና	-17092
▁ለማራዘም	-17093
ሚየም	-17094
ዮም	-17095
ደረግባቸው	-17096
▁አይቀርም።	-17097
▁እንዲያቀርቡ	-17098
▁በሆነበት	-17099
▁ይቀጥላሉ	-17100
▁ስርጭቱ	-17101
▁ፔን	-17102
▁ወደኋላ	-17103
▁ማገገም	-17104
ባሉ።	-17105
ለፍነው	-17106
▁ምንጣ	-17107
▁የመሰብሰቢያ	-17108
ational	-17109
▁ለሜ	-17110
▁87	-17111
▁ከልጅ	-17112
▁መሪነቱን	-17113
ሟቸውን	-17114
▁ስትሪ	-17115
መለኮት	-17116
ቆጠረው	-17117
ቅርታ	-17118
ጎሪያ	-17119
▁በዞ	-17120
▁3,	-17121
▁81	-17122
▁ሙከራው	-17123
▁ተቀጥ	-17124
ve	-17125
የበ	-17126
▁ምክሮችን	-17127
▁አብረ	-17128
▁ኮክ	-17129
▁በቦታ	-17130
▁እስራኤ	-17131
ጽሑፉ	-17132
▁መንበር	-17133
▁ማኅበረ	-17134
▁በኣ	-17135
▁ቀጣዩን	-17136
▁ሊያደርጉ	-17137
▁በፖሊ	-17138
▁ትግርኛ	-17139
ነዱ	-17140
▁ይጠብቃል	-17141
ሠራበት	-17142
▁በጠባብ	-17143
▁እጆች	-17144
▁መጫወቻ	-17145
▁በወንዙ	-17146
▁ዓመፀኛ	-17147
▁ያዘጋጀው	-17148
▁አጋጥሟ	-17149
▁አስተናግዷል	-17150
▁ይላ	-17151
▁ተመረጡ	-17152
▁ኃላፊው	-17153
▁በመናገር	-17154
▁በካውንቲ	-17155
ሽብር	-17156
▁NHL	-17157
93	-17158
▁ለመወከል	-17159
▁ማሽከርከር	-17160
▁በመገናኘት	-17161
▁የስብሰባ	-17162
▁በአብ	-17163
▁ወላይታ	-17164
▁ተጠቃሚነት	-17165
▁ቡክ	-17166
▁የፔንሲልቬንያ	-17167
ዋዋጭ	-17168
▁ቀንሰዋል	-17169
▁ድራማዎች	-17170
ላኽ	-17171
▁ስቶክ	-17172
▁የናዚ	-17173
▁ሚያዚያ	-17174
▁ማቋረ	-17175
ጻጸር	-17176
====	-17177
ፎርት	-17178
.7	-17179
ሮሮ	-17180
▁ሌዘር	-17181
▁ትሆና	-17182
ኢኮኖሚያዊ	-17183
▁በከተሞች	-17184
▁ማይክሮስኮፒ	-17185
ጽሙ	-17186
▁ምሁሩ	-17187
▁ይተነት	-17188
ገፉ	-17189
▁ገለፁ	-17190
▁ጎበ	-17191
ለዋወጥ	-17192
▁ዲዛይነር	-17193
▁በመኖሪያ	-17194
ደበት	-17195
▁በነዳጅ	-17196
▁በስብሰባው	-17197
▁የነፍስ	-17198
▁ዝነኛ	-17199
▁ሰውን	-17200
▁በሩቅ	-17201
▁እላለሁ	-17202
▁የተጠቀሱት	-17203
መለሰው	-17204
▁በአካዳሚክ	-17205
▁μ	-17206
▁2,000	-17207
▁በየነ	-17208
▁በድርጅቱ	-17209
▁አረጋግጠዋል።	-17210
ወጣም	-17211
▁ላሪ	-17212
▁አሰልቺ	-17213
▁ተማ	-17214
▁እየሄደ	-17215
,3%	-17216
▁84	-17217
▁የጆርጅ	-17218
▁መንኮራኩ	-17219
▁ገንቢዎች	-17220
▁ስምሪት	-17221
▁በሰባ	-17222
▁ተፈርዶ	-17223
▁ዘርፉ	-17224
▁ኬት	-17225
▁not	-17226
▁ይጠሩ	-17227
▁ትላለች	-17228
▁92	-17229
▁ያስፈልጋሉ	-17230
▁ቅጂዎችን	-17231
▁የፈረንሣይ	-17232
ከለክል	-17233
▁ቀስት	-17234
▁ንፅፅ	-17235
ችኋል	-17236
▁የስህተት	-17237
▁ማሞቂያ	-17238
▁ተወግደዋል	-17239
▁በቡድ	-17240
▁የፍሎሪዳ	-17241
▁ጄኔራሎች	-17242
300	-17243
ኒሻንጉል	-17244
መረመሩ	-17245
ላለማዊ	-17246
ሪያስ	-17247
▁ቀጥሏል።	-17248
▁ልዑካን	-17249
ተማመን	-17250
ሀሳቦችን	-17251
▁ሥራቸው	-17252
▁የሚያስተላል	-17253
[...]
